#ifdef __has_attribute
#define HAVE_ATTRIBUTE(x) __has_attribute(x)
#else
#define HAVE_ATTRIBUTE(x) 0
#endif
#if HAVE_ATTRIBUTE(aligned) || (defined(__GNUC__) && !defined(__clang__))
#define DATA_ALIGN_ATTRIBUTE __attribute__((aligned(4)))
#else
#define DATA_ALIGN_ATTRIBUTE
#endif

const unsigned char .\models\model_quant_float32[]  DATA_ALIGN_ATTRIBUTE = {
 0x1c, 0x00, 0x00, 0x00, 0x54, 0x46, 0x4c, 0x33, 0x14, 0x00, 0x20, 0x00,
  0x1c, 0x00, 0x18, 0x00, 0x14, 0x00, 0x10, 0x00, 0x0c, 0x00, 0x00, 0x00,
  0x08, 0x00, 0x04, 0x00, 0x14, 0x00, 0x00, 0x00, 0x1c, 0x00, 0x00, 0x00,
  0x90, 0x00, 0x00, 0x00, 0xe8, 0x00, 0x00, 0x00, 0xa8, 0x0e, 0x00, 0x00,
  0xb8, 0x0e, 0x00, 0x00, 0x1c, 0x15, 0x00, 0x00, 0x03, 0x00, 0x00, 0x00,
  0x01, 0x00, 0x00, 0x00, 0x10, 0x00, 0x00, 0x00, 0x00, 0x00, 0x0a, 0x00,
  0x10, 0x00, 0x0c, 0x00, 0x08, 0x00, 0x04, 0x00, 0x0a, 0x00, 0x00, 0x00,
  0x0c, 0x00, 0x00, 0x00, 0x1c, 0x00, 0x00, 0x00, 0x38, 0x00, 0x00, 0x00,
  0x0f, 0x00, 0x00, 0x00, 0x73, 0x65, 0x72, 0x76, 0x69, 0x6e, 0x67, 0x5f,
  0x64, 0x65, 0x66, 0x61, 0x75, 0x6c, 0x74, 0x00, 0x01, 0x00, 0x00, 0x00,
  0x04, 0x00, 0x00, 0x00, 0x98, 0xff, 0xff, 0xff, 0x0c, 0x00, 0x00, 0x00,
  0x04, 0x00, 0x00, 0x00, 0x07, 0x00, 0x00, 0x00, 0x64, 0x65, 0x6e, 0x73,
  0x65, 0x5f, 0x33, 0x00, 0x01, 0x00, 0x00, 0x00, 0x04, 0x00, 0x00, 0x00,
  0x22, 0xf2, 0xff, 0xff, 0x04, 0x00, 0x00, 0x00, 0x0b, 0x00, 0x00, 0x00,
  0x64, 0x65, 0x6e, 0x73, 0x65, 0x5f, 0x69, 0x6e, 0x70, 0x75, 0x74, 0x00,
  0x02, 0x00, 0x00, 0x00, 0x34, 0x00, 0x00, 0x00, 0x04, 0x00, 0x00, 0x00,
  0xdc, 0xff, 0xff, 0xff, 0x0f, 0x00, 0x00, 0x00, 0x04, 0x00, 0x00, 0x00,
  0x13, 0x00, 0x00, 0x00, 0x43, 0x4f, 0x4e, 0x56, 0x45, 0x52, 0x53, 0x49,
  0x4f, 0x4e, 0x5f, 0x4d, 0x45, 0x54, 0x41, 0x44, 0x41, 0x54, 0x41, 0x00,
  0x08, 0x00, 0x0c, 0x00, 0x08, 0x00, 0x04, 0x00, 0x08, 0x00, 0x00, 0x00,
  0x0e, 0x00, 0x00, 0x00, 0x04, 0x00, 0x00, 0x00, 0x13, 0x00, 0x00, 0x00,
  0x6d, 0x69, 0x6e, 0x5f, 0x72, 0x75, 0x6e, 0x74, 0x69, 0x6d, 0x65, 0x5f,
  0x76, 0x65, 0x72, 0x73, 0x69, 0x6f, 0x6e, 0x00, 0x10, 0x00, 0x00, 0x00,
  0xbc, 0x0d, 0x00, 0x00, 0xb4, 0x0d, 0x00, 0x00, 0x64, 0x0d, 0x00, 0x00,
  0x2c, 0x0d, 0x00, 0x00, 0x18, 0x0d, 0x00, 0x00, 0x88, 0x0c, 0x00, 0x00,
  0xf8, 0x0a, 0x00, 0x00, 0xe8, 0x02, 0x00, 0x00, 0xd8, 0x00, 0x00, 0x00,
  0xa8, 0x00, 0x00, 0x00, 0xa0, 0x00, 0x00, 0x00, 0x98, 0x00, 0x00, 0x00,
  0x90, 0x00, 0x00, 0x00, 0x88, 0x00, 0x00, 0x00, 0x68, 0x00, 0x00, 0x00,
  0x04, 0x00, 0x00, 0x00, 0xda, 0xf2, 0xff, 0xff, 0x04, 0x00, 0x00, 0x00,
  0x54, 0x00, 0x00, 0x00, 0x0c, 0x00, 0x00, 0x00, 0x08, 0x00, 0x0e, 0x00,
  0x08, 0x00, 0x04, 0x00, 0x08, 0x00, 0x00, 0x00, 0x10, 0x00, 0x00, 0x00,
  0x24, 0x00, 0x00, 0x00, 0x00, 0x00, 0x06, 0x00, 0x08, 0x00, 0x04, 0x00,
  0x06, 0x00, 0x00, 0x00, 0x04, 0x00, 0x00, 0x00, 0x00, 0x00, 0x00, 0x00,
  0x00, 0x00, 0x0a, 0x00, 0x10, 0x00, 0x0c, 0x00, 0x08, 0x00, 0x04, 0x00,
  0x0a, 0x00, 0x00, 0x00, 0x02, 0x00, 0x00, 0x00, 0x02, 0x00, 0x00, 0x00,
  0x04, 0x00, 0x00, 0x00, 0x06, 0x00, 0x00, 0x00, 0x32, 0x2e, 0x31, 0x35,
  0x2e, 0x30, 0x00, 0x00, 0x3a, 0xf3, 0xff, 0xff, 0x04, 0x00, 0x00, 0x00,
  0x10, 0x00, 0x00, 0x00, 0x31, 0x2e, 0x35, 0x2e, 0x30, 0x00, 0x00, 0x00,
  0x00, 0x00, 0x00, 0x00, 0x00, 0x00, 0x00, 0x00, 0xb8, 0xec, 0xff, 0xff,
  0xbc, 0xec, 0xff, 0xff, 0xc0, 0xec, 0xff, 0xff, 0xc4, 0xec, 0xff, 0xff,
  0x66, 0xf3, 0xff, 0xff, 0x04, 0x00, 0x00, 0x00, 0x20, 0x00, 0x00, 0x00,
  0xd0, 0x1a, 0x4f, 0x3e, 0x40, 0xe6, 0x5f, 0xbd, 0xb8, 0xed, 0x44, 0x3f,
  0x40, 0x7c, 0x38, 0xbe, 0x72, 0x55, 0xd2, 0x3e, 0x92, 0xbe, 0x05, 0x3f,
  0x00, 0x4a, 0xfc, 0xbd, 0xed, 0xe2, 0x48, 0x3f, 0x92, 0xf3, 0xff, 0xff,
  0x04, 0x00, 0x00, 0x00, 0x00, 0x02, 0x00, 0x00, 0x83, 0xc4, 0x69, 0xb2,
  0xfe, 0x9a, 0xc6, 0x18, 0x7f, 0x94, 0xa8, 0xb1, 0x3d, 0xb5, 0x8e, 0x8b,
  0xc4, 0xca, 0x56, 0x8b, 0x02, 0x70, 0xd1, 0xae, 0xa0, 0xde, 0x39, 0xa8,
  0x4c, 0xc3, 0xc3, 0x8a, 0xa0, 0xf3, 0xd0, 0xb4, 0x0a, 0xae, 0x1c, 0x8a,
  0x59, 0xa9, 0x8e, 0x32, 0x6d, 0x0d, 0x11, 0x10, 0xbe, 0x3f, 0x81, 0x8b,
  0xe3, 0xc8, 0x8c, 0x98, 0x64, 0x15, 0x9e, 0x0a, 0x76, 0xa9, 0x89, 0x8b,
  0x00, 0x9d, 0x4e, 0xb2, 0x77, 0xd6, 0xd2, 0x09, 0x60, 0xa0, 0x01, 0xac,
  0x2e, 0xcb, 0x5c, 0xae, 0xfb, 0x3a, 0xf6, 0xb0, 0x07, 0xc5, 0x9d, 0xa5,
  0xd4, 0x61, 0x53, 0x2a, 0x34, 0xb8, 0xd3, 0x9c, 0x23, 0x65, 0x9f, 0x21,
  0xe7, 0x9a, 0x2e, 0xae, 0xd2, 0x9b, 0x3d, 0x8b, 0x0c, 0x4d, 0x54, 0x8b,
  0xb2, 0x99, 0xeb, 0x9e, 0xd5, 0xd3, 0x99, 0x30, 0x36, 0xa2, 0x9e, 0x10,
  0xca, 0x2e, 0xf3, 0x0a, 0xb9, 0x40, 0x66, 0x3e, 0xb8, 0xc2, 0x0f, 0x3f,
  0xae, 0xef, 0x01, 0x3e, 0xa9, 0x06, 0x30, 0x3e, 0xad, 0xb2, 0x3d, 0x3f,
  0xe7, 0xa9, 0xc2, 0xbc, 0x73, 0x09, 0x24, 0x3c, 0x2f, 0xfc, 0xfa, 0xa8,
  0x9a, 0xa8, 0xaf, 0x3e, 0xec, 0x54, 0x37, 0x3e, 0x69, 0x26, 0xb6, 0x3e,
  0xed, 0xf8, 0x28, 0x3f, 0xea, 0xf2, 0xbb, 0x37, 0xc8, 0x8c, 0x80, 0x3b,
  0x9e, 0xf4, 0x49, 0xbb, 0x81, 0x21, 0x0a, 0x3f, 0x86, 0x3d, 0x17, 0xbc,
  0x32, 0x9d, 0x37, 0x3b, 0x24, 0xe1, 0xf4, 0xbb, 0x71, 0x44, 0x0d, 0xbc,
  0xb8, 0x44, 0x6b, 0xbc, 0xfb, 0xfb, 0xd0, 0xb1, 0xa1, 0x9f, 0x3b, 0x0a,
  0xe8, 0x3d, 0x59, 0xb1, 0x14, 0xb1, 0xad, 0xbb, 0xa0, 0x44, 0x16, 0xbc,
  0x91, 0x03, 0x9c, 0x0b, 0x20, 0x22, 0x04, 0xbc, 0x54, 0x7d, 0xd1, 0x89,
  0x2d, 0xd7, 0xa0, 0x17, 0xbf, 0xe3, 0x4e, 0xbb, 0x13, 0xac, 0x06, 0xbc,
  0x9b, 0x58, 0x07, 0x3f, 0xdf, 0xc7, 0xf1, 0xbd, 0x44, 0xd4, 0x25, 0x3f,
  0xd8, 0xdc, 0xad, 0x3e, 0xc1, 0xaf, 0xfa, 0x3e, 0xc9, 0xb8, 0x53, 0x37,
  0x0a, 0xb6, 0x35, 0xba, 0xd6, 0xf4, 0x86, 0x89, 0xc3, 0x67, 0xb1, 0x3e,
  0xee, 0xe2, 0x28, 0x3f, 0x27, 0xb8, 0xed, 0xbb, 0x20, 0x22, 0x30, 0x3f,
  0x69, 0x6f, 0xc4, 0x37, 0x9f, 0xd4, 0xad, 0xbe, 0x31, 0x8e, 0x5d, 0xbd,
  0x62, 0x2d, 0xf1, 0x3d, 0xba, 0xca, 0x4f, 0x3e, 0x75, 0xa6, 0x78, 0x3e,
  0x0f, 0x4f, 0x13, 0x3f, 0x1e, 0xea, 0x1a, 0x3f, 0xb3, 0xf6, 0x7d, 0x3d,
  0x5d, 0xad, 0xc3, 0x94, 0xbd, 0x52, 0x79, 0xaf, 0x37, 0xb3, 0x00, 0x32,
  0xd1, 0xb1, 0x92, 0x3e, 0x77, 0x76, 0xeb, 0x3e, 0xd0, 0x6e, 0x92, 0xbe,
  0x27, 0xcb, 0xce, 0xbd, 0xba, 0x88, 0x0e, 0xb7, 0x92, 0x4c, 0x7d, 0xbd,
  0xac, 0x4a, 0x83, 0x3e, 0xaa, 0x32, 0xa8, 0x3d, 0x00, 0x55, 0x97, 0x8b,
  0x04, 0x55, 0xa2, 0x8a, 0x5c, 0x87, 0x16, 0xb4, 0xc4, 0x71, 0xf9, 0xb4,
  0x49, 0x44, 0xb3, 0x0c, 0xb4, 0x4c, 0x84, 0x34, 0xf0, 0xc6, 0x94, 0x8b,
  0x21, 0xf1, 0x7f, 0x8b, 0x2b, 0xd6, 0x3f, 0x8b, 0x72, 0x79, 0xc9, 0xb0,
  0xa2, 0xe3, 0xeb, 0x8a, 0x44, 0x4d, 0x55, 0x8a, 0x34, 0x91, 0xaf, 0x8a,
  0x9d, 0xed, 0xd2, 0x34, 0x30, 0xd1, 0xc8, 0xb1, 0xa6, 0xa0, 0x83, 0xb0,
  0x49, 0xd9, 0x3e, 0x3f, 0xd1, 0x22, 0x9d, 0x3d, 0xcc, 0x71, 0xab, 0x3e,
  0x93, 0x50, 0xf4, 0x3e, 0x7a, 0x0c, 0x1c, 0xbe, 0xfa, 0x9a, 0x1f, 0xbc,
  0xf0, 0x9f, 0x30, 0xbb, 0x10, 0xc8, 0xd2, 0x31, 0x06, 0xd0, 0x03, 0xbe,
  0x7c, 0x7b, 0x44, 0x3e, 0x8f, 0x75, 0x5e, 0xbe, 0x57, 0x17, 0x06, 0x3f,
  0x98, 0x91, 0x38, 0x38, 0x43, 0x84, 0x83, 0x3d, 0xa9, 0xfc, 0x11, 0x3f,
  0x8f, 0xff, 0xd0, 0x3d, 0x9e, 0xf5, 0xff, 0xff, 0x04, 0x00, 0x00, 0x00,
  0x00, 0x08, 0x00, 0x00, 0x22, 0x45, 0xcc, 0x3e, 0xe0, 0xa0, 0x14, 0x0a,
  0x7b, 0xd3, 0x2f, 0x3e, 0x64, 0x26, 0x6b, 0xa0, 0x8c, 0x4e, 0xbc, 0x3d,
  0xd3, 0x5c, 0x8b, 0x3e, 0xd4, 0xd5, 0xf4, 0xbd, 0xbe, 0xc3, 0xcd, 0x0e,
  0x0e, 0xea, 0x0d, 0x3f, 0xcd, 0x44, 0x15, 0x8b, 0xf2, 0x46, 0x77, 0x8b,
  0x7f, 0xa9, 0x8a, 0xbe, 0x74, 0xd4, 0xe2, 0x29, 0x0e, 0x6b, 0xa8, 0xbd,
  0xb5, 0x3f, 0x07, 0x3f, 0x09, 0xe1, 0xaa, 0x98, 0x46, 0x3e, 0x1f, 0x3f,
  0xcb, 0x75, 0x7e, 0xbf, 0x62, 0x52, 0xcc, 0xaa, 0x7a, 0x16, 0x51, 0x8b,
  0xae, 0x52, 0xe8, 0x3e, 0xf3, 0x62, 0x96, 0x15, 0x12, 0x29, 0xd1, 0x3e,
  0xda, 0x05, 0x1c, 0x0b, 0x18, 0x0f, 0x7e, 0x3d, 0x2d, 0x4d, 0xca, 0xa9,
  0xed, 0x49, 0x99, 0x0b, 0x9c, 0x25, 0x19, 0xbe, 0x01, 0xc0, 0x20, 0x3e,
  0x48, 0x56, 0x16, 0x3f, 0x60, 0xa1, 0x97, 0x3e, 0x76, 0x17, 0xa6, 0xbe,
  0x22, 0xc6, 0xd3, 0x3e, 0xf2, 0x73, 0x88, 0x8b, 0x21, 0xa1, 0x5a, 0x3e,
  0x05, 0x09, 0x9b, 0xa0, 0xbe, 0x5a, 0xa0, 0x2f, 0x6a, 0xb4, 0x26, 0x39,
  0x5c, 0xf4, 0xe7, 0x1b, 0x47, 0x11, 0xe4, 0x8a, 0x6f, 0xb6, 0x9b, 0x3d,
  0x8f, 0x6d, 0xe6, 0x25, 0xf0, 0x36, 0x55, 0x8b, 0x83, 0x43, 0x04, 0xbe,
  0x47, 0xa4, 0x96, 0x09, 0x65, 0x6a, 0x43, 0xad, 0xd0, 0x16, 0xb4, 0x3e,
  0xd5, 0xb0, 0x48, 0x8f, 0xb7, 0x51, 0xdd, 0x3d, 0xd4, 0xe1, 0x74, 0xbf,
  0x25, 0xce, 0x93, 0x20, 0xe8, 0x2c, 0xb7, 0x94, 0x0b, 0x8d, 0x2a, 0x3e,
  0x6d, 0x73, 0x47, 0x0a, 0x84, 0xb3, 0x93, 0x3e, 0x2a, 0x12, 0x0d, 0xa6,
  0xb0, 0x6a, 0x8e, 0x3f, 0xb6, 0x0d, 0xa8, 0x8a, 0xaf, 0xef, 0xbb, 0x9f,
  0x5f, 0xe3, 0x1b, 0xab, 0x46, 0x78, 0x3a, 0x3e, 0xa2, 0xa3, 0xdd, 0x3c,
  0x5d, 0xf8, 0x3e, 0x3e, 0xb3, 0x77, 0x87, 0xbf, 0xc5, 0x83, 0xf1, 0x3d,
  0x80, 0xfc, 0x26, 0x27, 0x16, 0xb2, 0x96, 0x3e, 0x07, 0x65, 0xad, 0x20,
  0xa8, 0x4f, 0x66, 0xbe, 0x45, 0xb0, 0xc7, 0x3d, 0x6c, 0xa6, 0x91, 0xba,
  0xd9, 0x0f, 0x86, 0x28, 0x79, 0x6c, 0x8f, 0x3e, 0x19, 0xe9, 0x06, 0x29,
  0x1e, 0x85, 0x1b, 0x9e, 0x18, 0x86, 0xbb, 0xbd, 0xac, 0x2c, 0xe8, 0x8a,
  0x9a, 0x6a, 0xe5, 0xba, 0x30, 0x8f, 0x13, 0x3e, 0x8b, 0x5e, 0x5f, 0x8b,
  0xa1, 0xf7, 0x67, 0xbb, 0xcc, 0xa2, 0x7b, 0xbf, 0xe4, 0xfd, 0x94, 0x8a,
  0x88, 0xa8, 0x9f, 0x9c, 0xf9, 0xff, 0xa7, 0x3e, 0x45, 0x97, 0x92, 0x0b,
  0xef, 0x9b, 0xba, 0x3e, 0x20, 0x79, 0xb1, 0x8a, 0x0c, 0x59, 0x22, 0x3f,
  0x62, 0x60, 0x77, 0x8b, 0x0c, 0xa7, 0x9a, 0x0a, 0x23, 0xae, 0x95, 0x3d,
  0x78, 0x48, 0x06, 0x3f, 0xc8, 0xe5, 0xda, 0x3e, 0xe0, 0x13, 0xd3, 0x3e,
  0x3b, 0x57, 0xb4, 0xbe, 0x43, 0xe9, 0x8b, 0x3e, 0x78, 0xf2, 0x4b, 0x9c,
  0x3d, 0xbd, 0x01, 0x3f, 0x77, 0x2e, 0x48, 0x9f, 0x22, 0x95, 0x42, 0x3b,
  0xe6, 0x8e, 0xd7, 0xbd, 0xfa, 0xde, 0x20, 0x3c, 0xe4, 0x40, 0x8b, 0x9b,
  0x17, 0x55, 0xb4, 0x3e, 0x63, 0x15, 0x8d, 0x8b, 0x82, 0x03, 0x07, 0x9c,
  0x6b, 0x7b, 0x31, 0x3e, 0xb7, 0xba, 0x1d, 0xab, 0xeb, 0x5c, 0x22, 0x3d,
  0x5d, 0x99, 0xb6, 0x3e, 0x84, 0xe9, 0xdf, 0x0a, 0x22, 0xb7, 0xea, 0x3e,
  0x84, 0xe2, 0x72, 0xbf, 0xc7, 0xa6, 0x93, 0x0b, 0xaa, 0xc5, 0x12, 0x8b,
  0x94, 0xdc, 0x8b, 0x3e, 0x06, 0x9f, 0x52, 0x8b, 0x0a, 0x16, 0x0c, 0x3f,
  0x60, 0x58, 0x7d, 0x8b, 0x1b, 0x21, 0xff, 0x3e, 0x5b, 0xfd, 0x38, 0x12,
  0xf9, 0xfc, 0x50, 0x0b, 0xb4, 0x48, 0xfa, 0xbd, 0xd3, 0x44, 0x87, 0x3e,
  0xe3, 0xe8, 0xdb, 0x3d, 0x4f, 0xb2, 0x0b, 0x3f, 0xac, 0x40, 0xfb, 0xbe,
  0x9c, 0x11, 0xa2, 0x3e, 0x50, 0xae, 0x8b, 0x26, 0x9d, 0x93, 0xd6, 0x3e,
  0x86, 0x3b, 0x0b, 0x20, 0xda, 0xcd, 0x7a, 0xbd, 0xe5, 0x74, 0xbd, 0xbb,
  0xc7, 0x4b, 0x4d, 0x39, 0xb4, 0x57, 0xf3, 0x0a, 0x2f, 0xee, 0xc4, 0x3e,
  0xce, 0x57, 0x0c, 0x0b, 0x83, 0x28, 0x9c, 0x0b, 0x0a, 0x2d, 0x86, 0x3e,
  0xa3, 0xce, 0x75, 0x2d, 0x6f, 0x77, 0x7d, 0x3e, 0x3d, 0x4a, 0x37, 0x3c,
  0xce, 0x9a, 0x53, 0x8b, 0x2f, 0xb7, 0x35, 0x3e, 0x81, 0xa9, 0x61, 0xbf,
  0xae, 0x03, 0x6d, 0x95, 0x75, 0x52, 0x85, 0x29, 0x03, 0x7e, 0x11, 0x3f,
  0x8b, 0x85, 0x86, 0xa8, 0xb9, 0x5a, 0xf6, 0x3e, 0x00, 0x48, 0xcd, 0x1c,
  0x9f, 0x8a, 0xe1, 0x3c, 0x7e, 0x15, 0x9c, 0x0e, 0x6b, 0xed, 0x74, 0xaa,
  0x56, 0x2b, 0x9a, 0xbd, 0xeb, 0x59, 0xb7, 0x3e, 0x72, 0xe0, 0xc3, 0x3e,
  0x18, 0x53, 0xa5, 0x3e, 0xcc, 0x06, 0x1f, 0xbf, 0xfd, 0xd5, 0x05, 0x0a,
  0x20, 0x51, 0x9e, 0x8a, 0x9d, 0x04, 0x61, 0xbe, 0xe7, 0xed, 0x85, 0x8b,
  0x1e, 0xe2, 0x81, 0xbc, 0x62, 0xae, 0x68, 0xbe, 0x9b, 0xd2, 0xef, 0xbc,
  0x33, 0x0b, 0xc2, 0x2b, 0x06, 0x3f, 0x5e, 0x0b, 0x5c, 0xea, 0x88, 0x0b,
  0xbf, 0x65, 0x33, 0x1c, 0xb9, 0x21, 0x24, 0x29, 0x25, 0xac, 0xb6, 0x0a,
  0x16, 0x70, 0x0e, 0xbd, 0x30, 0x31, 0x0f, 0x8e, 0x97, 0x84, 0xf3, 0x0a,
  0x6a, 0x91, 0xe2, 0x28, 0xba, 0xb3, 0x3f, 0x29, 0xfb, 0x6b, 0xba, 0x0b,
  0x50, 0xe7, 0x50, 0x8b, 0xc9, 0x74, 0xa4, 0xbd, 0x49, 0xae, 0xb7, 0x90,
  0xe5, 0xa9, 0x92, 0x3d, 0x24, 0xc5, 0x0b, 0x1a, 0x02, 0x40, 0x08, 0x3e,
  0xca, 0xd8, 0x7f, 0x0b, 0x3a, 0x48, 0x3d, 0x8b, 0x58, 0x3e, 0x2a, 0x09,
  0x8f, 0x7c, 0xa5, 0xbd, 0xa6, 0xea, 0x86, 0x0b, 0xde, 0xcd, 0x00, 0x3e,
  0x19, 0xb2, 0x43, 0x3e, 0xd6, 0xd7, 0x89, 0x8a, 0x26, 0x34, 0xcc, 0x0a,
  0x83, 0xea, 0x2d, 0xba, 0xca, 0x00, 0x91, 0x0b, 0xa7, 0x3b, 0xdc, 0xb9,
  0xd6, 0x81, 0x19, 0x3d, 0x72, 0x64, 0x90, 0xb2, 0x0f, 0xe6, 0xeb, 0x13,
  0x80, 0xab, 0x7b, 0x23, 0xe2, 0x6c, 0x8a, 0x8a, 0x48, 0x22, 0x34, 0x08,
  0xb4, 0x0a, 0x67, 0x8b, 0x37, 0xc2, 0x88, 0x0a, 0x69, 0xaf, 0x9a, 0x39,
  0x3f, 0x52, 0x8b, 0x09, 0xf0, 0x08, 0x2f, 0x8b, 0xa8, 0x69, 0xd5, 0xa4,
  0x0e, 0x3d, 0x01, 0x89, 0x0d, 0x0c, 0x0b, 0xa7, 0x8b, 0xc7, 0xc9, 0x0a,
  0x6a, 0x62, 0xa3, 0x39, 0x1e, 0xdc, 0x72, 0x8b, 0x8b, 0x54, 0xfd, 0x3b,
  0x58, 0x5b, 0x01, 0x8b, 0xcf, 0xb2, 0x8b, 0x3b, 0x6a, 0x67, 0x32, 0x18,
  0x7f, 0xc7, 0xcc, 0x0a, 0xd9, 0x2a, 0x57, 0x10, 0xc4, 0x34, 0x12, 0xb6,
  0x33, 0x48, 0x05, 0x0b, 0xaa, 0x31, 0xe6, 0xbd, 0xed, 0x99, 0x95, 0x3c,
  0x4c, 0x73, 0xef, 0xbb, 0xba, 0xa8, 0x5d, 0x0b, 0x0c, 0x01, 0x4e, 0x39,
  0xd8, 0x51, 0x72, 0xab, 0xf4, 0x42, 0x89, 0x18, 0x26, 0xeb, 0x8b, 0xb9,
  0x7d, 0xea, 0x0d, 0x99, 0xcc, 0xc4, 0x04, 0x8b, 0xc2, 0x36, 0xef, 0x3b,
  0xaa, 0xe3, 0x11, 0xa6, 0x9c, 0x61, 0xd0, 0x0a, 0x98, 0x75, 0x96, 0x8b,
  0x81, 0xb7, 0xa9, 0x2a, 0x14, 0xa0, 0xe1, 0x0a, 0x52, 0xa9, 0x7d, 0x3b,
  0x0f, 0xd8, 0x24, 0x0b, 0xe2, 0xbe, 0x1c, 0xba, 0xe7, 0xeb, 0x25, 0x2d,
  0x6c, 0x32, 0xe6, 0x0a, 0x19, 0x6d, 0x9e, 0x0a, 0x59, 0x21, 0x03, 0xbb,
  0x56, 0xf8, 0xc8, 0x0a, 0x7d, 0x24, 0xe2, 0xba, 0xbe, 0x83, 0x84, 0x8a,
  0x5a, 0xd7, 0x9b, 0x0b, 0x1c, 0x0a, 0x74, 0x0a, 0xcf, 0xf6, 0x29, 0x8b,
  0x68, 0xdb, 0xd6, 0x09, 0x08, 0x37, 0x58, 0xba, 0x43, 0x88, 0x86, 0xbb,
  0xa7, 0x8b, 0xbb, 0xbb, 0x46, 0xf0, 0xb5, 0x0a, 0x42, 0x0d, 0x16, 0xbd,
  0xb3, 0xe1, 0x10, 0x0b, 0x38, 0x9f, 0xb7, 0x3e, 0x9a, 0x4a, 0x83, 0x20,
  0x77, 0x74, 0x78, 0xbd, 0x57, 0x4c, 0x7d, 0x3e, 0xa8, 0x81, 0x17, 0x3c,
  0x3e, 0x02, 0x8e, 0x95, 0x32, 0xa2, 0xfc, 0x3c, 0x04, 0x61, 0xa9, 0x09,
  0xc8, 0x0e, 0x64, 0x0b, 0x01, 0xf5, 0x2a, 0x3d, 0x6f, 0xc6, 0x72, 0x0c,
  0x91, 0xe2, 0x77, 0x3e, 0x68, 0x47, 0x8e, 0x3e, 0x48, 0x72, 0xcd, 0x89,
  0x72, 0xbc, 0x0c, 0x3e, 0x21, 0x6c, 0x73, 0xbf, 0xf7, 0x43, 0x03, 0x21,
  0x5e, 0x7a, 0x17, 0x0a, 0x46, 0x88, 0x04, 0xbc, 0xc8, 0x9a, 0x26, 0x8b,
  0xd3, 0x1b, 0x8e, 0x3e, 0x7e, 0x6f, 0xc4, 0xab, 0xc6, 0xcc, 0x9d, 0x3e,
  0x33, 0xc7, 0xd5, 0x0a, 0xe6, 0x7f, 0x1e, 0x0b, 0xbf, 0x3d, 0x4d, 0xbe,
  0xd8, 0xdb, 0xa1, 0x3e, 0xed, 0x0f, 0x85, 0x3e, 0x38, 0x7d, 0xb9, 0x3e,
  0x76, 0xa0, 0x81, 0xbe, 0x11, 0xd3, 0xdd, 0x3d, 0x18, 0x36, 0xcb, 0x98,
  0xda, 0x40, 0x40, 0x3e, 0x31, 0x54, 0x1c, 0x21, 0xa2, 0x6f, 0xa0, 0xbd,
  0xb3, 0x34, 0xc6, 0x3e, 0x01, 0x35, 0xf6, 0xb6, 0x5b, 0x83, 0x9b, 0x0b,
  0x71, 0xb0, 0x90, 0x3e, 0x9e, 0x30, 0x25, 0x8b, 0xba, 0xb3, 0x61, 0x0b,
  0xa7, 0x8a, 0xab, 0xbd, 0x79, 0x8f, 0x98, 0x8b, 0xca, 0xf3, 0x5f, 0x3e,
  0xb6, 0x9f, 0xb1, 0xbc, 0xa8, 0x51, 0x98, 0x8a, 0x70, 0x1f, 0xd1, 0x3e,
  0x29, 0xeb, 0x74, 0xbf, 0x56, 0x20, 0x1c, 0xaa, 0x88, 0xf9, 0xaa, 0x89,
  0x76, 0x57, 0x0a, 0x3f, 0x55, 0x99, 0x16, 0x23, 0x7d, 0xba, 0xd1, 0x3d,
  0x58, 0x5a, 0xba, 0x2b, 0x32, 0xd3, 0x2f, 0x3f, 0xeb, 0xf9, 0x19, 0x28,
  0xbc, 0xc1, 0x34, 0x1d, 0x42, 0xf1, 0x3f, 0x3e, 0x21, 0xf1, 0x10, 0x3f,
  0x19, 0xe1, 0x11, 0x3f, 0x97, 0x3a, 0x92, 0x3e, 0x55, 0x29, 0xce, 0xbe,
  0xb6, 0x97, 0x28, 0x3d, 0x2d, 0xc1, 0xb3, 0x95, 0x65, 0xe4, 0xf1, 0x3d,
  0x71, 0xf2, 0xe3, 0x27, 0x11, 0x91, 0xe0, 0x38, 0x5e, 0xba, 0x8e, 0xbe,
  0x85, 0x34, 0xf6, 0xaa, 0x8e, 0x30, 0xf3, 0x09, 0x1e, 0x26, 0xa2, 0x3d,
  0xed, 0x3f, 0xf3, 0x26, 0xf7, 0x6f, 0xbf, 0xab, 0x7a, 0x37, 0x66, 0x3e,
  0x1a, 0xac, 0x58, 0x8b, 0x27, 0x18, 0x3c, 0x3d, 0x15, 0x78, 0x69, 0x3d,
  0x4c, 0x29, 0x81, 0xaa, 0x7d, 0x47, 0xa8, 0x3d, 0x0e, 0xe1, 0x47, 0xbd,
  0xe9, 0x1b, 0x14, 0x13, 0x76, 0x16, 0x8d, 0x8a, 0xa6, 0xdf, 0x7c, 0xbc,
  0x42, 0x69, 0xa6, 0x29, 0xdb, 0xb7, 0xc4, 0xbe, 0x94, 0x03, 0xae, 0x09,
  0x10, 0x86, 0x65, 0x3e, 0x63, 0xcb, 0xb3, 0x8a, 0x56, 0xe2, 0x9a, 0x24,
  0x0a, 0xd9, 0xa9, 0x3d, 0xf9, 0xab, 0x56, 0xbe, 0x2e, 0xac, 0x81, 0x3e,
  0xed, 0x6d, 0x4e, 0x3e, 0x28, 0x31, 0x6b, 0xbe, 0x34, 0xbb, 0x0b, 0x3f,
  0xd5, 0x47, 0x07, 0xa3, 0x83, 0x04, 0xa8, 0x3e, 0x12, 0x5f, 0x44, 0x2b,
  0x8b, 0x4e, 0x03, 0x3e, 0x66, 0x2e, 0x39, 0x3e, 0xa6, 0xf5, 0x34, 0x3d,
  0x89, 0xba, 0xb3, 0x95, 0x3d, 0xdd, 0xa1, 0xbc, 0xd2, 0x19, 0xbd, 0x23,
  0xaf, 0x13, 0x58, 0x22, 0x9d, 0x4f, 0x55, 0xbe, 0x1a, 0x1b, 0x32, 0x2c,
  0xa8, 0xdf, 0x80, 0xbe, 0x02, 0xbe, 0x52, 0x3e, 0x71, 0xd5, 0x2c, 0x8b,
  0x96, 0x0e, 0x9b, 0x3e, 0xfe, 0x10, 0x79, 0xbf, 0xf7, 0xca, 0xb9, 0x1b,
  0x00, 0x62, 0x18, 0x06, 0xd3, 0xbd, 0x0b, 0x3f, 0xc1, 0x18, 0x87, 0x10,
  0x11, 0x46, 0x0c, 0x3f, 0x85, 0x2d, 0x71, 0xa7, 0x82, 0x9a, 0x8d, 0x3e,
  0x60, 0x0a, 0xa2, 0x89, 0xc0, 0xc8, 0x91, 0x0b, 0xce, 0x31, 0x67, 0xbe,
  0x8b, 0xbc, 0x08, 0x3d, 0x2e, 0x5f, 0xb5, 0x3e, 0xd2, 0x07, 0x03, 0x3f,
  0x83, 0x48, 0xd2, 0xbd, 0x28, 0x8f, 0xcd, 0xb7, 0xb3, 0xd2, 0xa2, 0x24,
  0x11, 0xb8, 0x66, 0x37, 0x56, 0x5a, 0xf8, 0x8a, 0xf8, 0x86, 0x12, 0x0a,
  0x2b, 0x98, 0x8a, 0xb6, 0x94, 0x40, 0xd8, 0x98, 0xa3, 0x6d, 0x8b, 0x8b,
  0x5f, 0xfc, 0xb3, 0xb7, 0xa1, 0x83, 0xeb, 0x0a, 0x5d, 0xfd, 0x99, 0x0b,
  0x40, 0xdd, 0x03, 0x32, 0xe4, 0xc2, 0x93, 0x0b, 0x0d, 0x56, 0x56, 0x29,
  0x79, 0xf7, 0x91, 0xb7, 0x28, 0x81, 0x8c, 0x8b, 0xe6, 0x34, 0x89, 0x36,
  0x96, 0x59, 0xbc, 0xb6, 0x66, 0x68, 0x2d, 0x0b, 0x3f, 0x97, 0x87, 0x9c,
  0x91, 0x33, 0x6a, 0xb7, 0x69, 0x23, 0x3a, 0x0a, 0x40, 0x35, 0x9f, 0xb7,
  0x58, 0x07, 0xa5, 0x09, 0x67, 0x38, 0x1e, 0x36, 0x73, 0x5b, 0x82, 0x0b,
  0x92, 0x47, 0xd1, 0x8a, 0x14, 0xd0, 0x73, 0x8b, 0x5c, 0xb1, 0x8f, 0xb7,
  0x90, 0x50, 0x36, 0x37, 0x9a, 0x6d, 0x39, 0xb8, 0xf6, 0xf6, 0x1d, 0x35,
  0x06, 0x28, 0x00, 0xbd, 0xe5, 0xa8, 0xe9, 0x96, 0x53, 0xc5, 0x98, 0x3e,
  0xf7, 0xc2, 0x94, 0x98, 0x61, 0x95, 0x3e, 0xbc, 0xf0, 0x70, 0x4e, 0xbd,
  0x62, 0x30, 0x0e, 0x3c, 0x50, 0x63, 0x3c, 0x95, 0xc8, 0xb7, 0x35, 0xbd,
  0xdf, 0xb8, 0x9f, 0x8b, 0xe6, 0xed, 0x99, 0x8a, 0x7f, 0xc9, 0x7c, 0xbe,
  0x01, 0x43, 0xb3, 0x0c, 0x99, 0x26, 0x8c, 0x3e, 0x24, 0x91, 0x11, 0x93,
  0xf9, 0xca, 0x66, 0x19, 0x0e, 0x3d, 0x22, 0xbe, 0x84, 0x08, 0x98, 0x8b,
  0x24, 0x1d, 0x95, 0x09, 0xc8, 0x8d, 0x79, 0x0a, 0xed, 0xd5, 0x88, 0x3d,
  0xd2, 0x20, 0xb4, 0x12, 0xb3, 0xb9, 0x8d, 0x3e, 0x3f, 0x00, 0xb9, 0x95,
  0x2c, 0x1d, 0x95, 0x3c, 0x00, 0xab, 0xeb, 0x09, 0x7c, 0x20, 0x7b, 0x8b,
  0x68, 0x4f, 0x85, 0x3e, 0xd2, 0xc5, 0x13, 0xbe, 0xc1, 0xf6, 0x28, 0xbe,
  0x20, 0xfe, 0x4c, 0xbe, 0x7b, 0xa9, 0x20, 0xbc, 0xe9, 0x09, 0x10, 0xbe,
  0x70, 0x17, 0x91, 0x8b, 0x8f, 0xc3, 0x75, 0xbd, 0xd6, 0x45, 0x0a, 0x2f,
  0x65, 0x54, 0xea, 0x0a, 0x0e, 0xff, 0x24, 0x3e, 0x2d, 0x88, 0x02, 0x0a,
  0x59, 0x20, 0xa4, 0x1a, 0x84, 0x68, 0xc8, 0xbd, 0xb6, 0xac, 0x49, 0x0b,
  0x44, 0x91, 0x11, 0x2c, 0x32, 0x95, 0x2c, 0xbe, 0x12, 0xd7, 0xb1, 0x1c,
  0x42, 0x2b, 0xe5, 0xbd, 0x78, 0xdb, 0x78, 0x3b, 0xc2, 0x8f, 0xce, 0x8a,
  0xea, 0x34, 0x03, 0x3f, 0x8c, 0x52, 0x7a, 0xbf, 0xce, 0x1f, 0x92, 0x0b,
  0x04, 0x73, 0xd4, 0x8a, 0xbe, 0x3b, 0xc9, 0x3e, 0x9e, 0x8a, 0xde, 0x0a,
  0x7e, 0x90, 0x53, 0x3e, 0xe0, 0xe2, 0x43, 0xac, 0x1d, 0x5d, 0x4f, 0x3f,
  0x08, 0x53, 0xce, 0x98, 0xb4, 0x96, 0x46, 0x13, 0x9d, 0x06, 0x41, 0xbe,
  0xcf, 0xb9, 0xf6, 0x3e, 0x88, 0xce, 0xf9, 0x3e, 0xcb, 0x5c, 0x00, 0xbe,
  0x3c, 0x1e, 0xf1, 0xbe, 0xb2, 0x56, 0x04, 0x3f, 0x18, 0x85, 0x5c, 0x0b,
  0x99, 0x08, 0x12, 0x3d, 0xda, 0x1b, 0x43, 0x2d, 0xa7, 0x9f, 0xe2, 0xbd,
  0x3a, 0x83, 0x07, 0x3f, 0xae, 0x60, 0x6a, 0xb9, 0x4e, 0xe9, 0x12, 0x2d,
  0x10, 0x76, 0xf8, 0x3e, 0x2d, 0x3b, 0x93, 0x8b, 0xaa, 0x85, 0x09, 0xac,
  0x4e, 0xaf, 0x6c, 0x3e, 0x04, 0xf1, 0x1f, 0x0b, 0x55, 0x4a, 0x69, 0xbe,
  0xe5, 0xae, 0x95, 0x3e, 0xa1, 0xf7, 0x63, 0x8b, 0x66, 0xb0, 0x2c, 0x3e,
  0x78, 0xac, 0x73, 0xbf, 0xcb, 0xfa, 0x9a, 0x8b, 0x14, 0xc2, 0x93, 0x27,
  0xd0, 0xdc, 0x86, 0x3d, 0x4e, 0x06, 0xc3, 0x8a, 0xc2, 0xf7, 0xaa, 0xb9,
  0x6e, 0xce, 0xdd, 0xaa, 0x88, 0x22, 0x59, 0x3f, 0x42, 0x55, 0xd2, 0x9c,
  0xf4, 0x1b, 0x98, 0x8b, 0xd1, 0x59, 0xc0, 0xbd, 0x4c, 0x38, 0x13, 0x3f,
  0x63, 0xe2, 0x20, 0x3f, 0x87, 0x20, 0xa5, 0x3e, 0xba, 0xb5, 0x0d, 0xbf,
  0xaa, 0xfd, 0xff, 0xff, 0x04, 0x00, 0x00, 0x00, 0x80, 0x01, 0x00, 0x00,
  0xac, 0xc5, 0xa4, 0xbd, 0xf2, 0x5c, 0x05, 0x3f, 0xe4, 0xb8, 0x14, 0x3e,
  0xb8, 0x33, 0x5a, 0xb0, 0xe5, 0x12, 0xb5, 0xaa, 0xff, 0x5b, 0x15, 0x8b,
  0x80, 0x6b, 0x6b, 0x3e, 0x6a, 0x7e, 0xcb, 0x3d, 0x59, 0xce, 0x31, 0x3f,
  0x1f, 0xe2, 0x9c, 0x1c, 0x56, 0x5c, 0xab, 0x1d, 0x0b, 0xf7, 0xd2, 0x1c,
  0x31, 0x30, 0x80, 0x3e, 0x92, 0xe4, 0x33, 0x3c, 0x99, 0x89, 0xc0, 0xbe,
  0x07, 0xcd, 0x69, 0x3e, 0xed, 0xdb, 0x8a, 0x3e, 0xda, 0x43, 0xe3, 0x3e,
  0x52, 0x8a, 0xc2, 0x3d, 0x86, 0x34, 0xc7, 0x3d, 0x0c, 0x3b, 0x93, 0xbe,
  0x94, 0x52, 0xc8, 0x88, 0x34, 0x0f, 0x29, 0xa6, 0x66, 0xdb, 0x84, 0x8b,
  0xdd, 0xef, 0xe5, 0x3e, 0x56, 0x8c, 0xa1, 0xbd, 0xe7, 0x4c, 0x7e, 0x3e,
  0x9a, 0xa2, 0x83, 0x1d, 0x59, 0x6c, 0x76, 0x1d, 0x63, 0x8b, 0x85, 0x9d,
  0xe6, 0xf8, 0x5d, 0x0b, 0x6d, 0x6f, 0x8f, 0x8b, 0x81, 0x8e, 0xb0, 0x9f,
  0xd6, 0xaa, 0xa2, 0xbe, 0x6e, 0xdb, 0xcc, 0xbe, 0xad, 0x8f, 0xb1, 0x3e,
  0x8e, 0x50, 0x98, 0xac, 0xd4, 0xba, 0xf1, 0xaf, 0xa9, 0x96, 0xdc, 0xa8,
  0xaa, 0xd8, 0xa6, 0x3e, 0xfe, 0xe5, 0xd4, 0xbe, 0xdd, 0xfd, 0xae, 0x3c,
  0x62, 0x9d, 0x42, 0x3c, 0x86, 0x78, 0xef, 0x3e, 0xc7, 0xb3, 0xef, 0x3c,
  0xfe, 0x9f, 0x9b, 0x0b, 0x48, 0x8f, 0x3f, 0x8a, 0x4d, 0xcc, 0xce, 0xb1,
  0x7e, 0x0e, 0xb0, 0xbd, 0x9d, 0x14, 0x1d, 0xbe, 0x4e, 0x8c, 0x25, 0x3f,
  0xa5, 0xb7, 0x92, 0x3e, 0x5a, 0xfb, 0xc7, 0x3e, 0x41, 0x0c, 0x3e, 0xbf,
  0x4b, 0xef, 0x26, 0x0b, 0x55, 0x1f, 0x84, 0xa9, 0x2e, 0x4e, 0xd7, 0xaf,
  0xd4, 0xf1, 0xbb, 0x1d, 0x18, 0xe8, 0x7a, 0x9d, 0xb7, 0x30, 0x60, 0x9c,
  0x33, 0x73, 0xd5, 0x3e, 0xff, 0x65, 0xc2, 0x3d, 0xcd, 0xee, 0x4d, 0x3e,
  0xf3, 0x0e, 0x47, 0x0b, 0x2b, 0x17, 0xbc, 0xb1, 0x41, 0xc2, 0x55, 0x8b,
  0xcf, 0x78, 0x11, 0x3e, 0x67, 0xba, 0xe0, 0x3e, 0xaa, 0x0d, 0x0c, 0x3f,
  0x50, 0xfb, 0x55, 0x09, 0x1d, 0x2d, 0xf7, 0xa2, 0x86, 0xcc, 0x23, 0xaf,
  0x36, 0x8e, 0xcb, 0x3e, 0xcf, 0xc1, 0x03, 0xbf, 0x65, 0x90, 0xff, 0x3e,
  0x10, 0xaa, 0xcb, 0x0a, 0x3a, 0xf8, 0x25, 0xa9, 0x40, 0x11, 0x81, 0xae,
  0x62, 0x5a, 0x5a, 0x8b, 0x59, 0x83, 0x8a, 0x8b, 0x90, 0x73, 0xd9, 0xab,
  0x3c, 0x02, 0x5e, 0xbe, 0xce, 0x74, 0x3d, 0x3d, 0x8e, 0xb9, 0xdf, 0x3d,
  0x0f, 0x1f, 0x13, 0xbe, 0x65, 0x3d, 0xb2, 0x3e, 0x1e, 0x23, 0x2e, 0x3f,
  0x97, 0x2c, 0x22, 0xbe, 0x84, 0x26, 0xb3, 0x3e, 0xe5, 0x64, 0x20, 0x3f,
  0x44, 0xe6, 0xa7, 0x3e, 0xa2, 0x80, 0x08, 0x3f, 0xb0, 0x5f, 0x28, 0x3f,
  0x7b, 0x0f, 0xb9, 0x3e, 0x28, 0x8b, 0x32, 0x3e, 0x28, 0x77, 0xec, 0xbe,
  0x36, 0xff, 0xff, 0xff, 0x04, 0x00, 0x00, 0x00, 0x80, 0x00, 0x00, 0x00,
  0x39, 0xac, 0x77, 0x3e, 0x00, 0x00, 0x00, 0x00, 0x44, 0x37, 0x76, 0x3e,
  0x5b, 0x87, 0xfd, 0xb9, 0x10, 0xba, 0x48, 0xbd, 0x19, 0x56, 0xb4, 0x3d,
  0xee, 0xf1, 0xac, 0xbc, 0x00, 0x00, 0x00, 0x00, 0x69, 0x9f, 0x70, 0x3e,
  0x48, 0x28, 0xc5, 0xba, 0x00, 0x00, 0x00, 0x00, 0x25, 0xf1, 0xfd, 0xbc,
  0x00, 0x00, 0x00, 0x00, 0x42, 0xc6, 0x2b, 0xbd, 0xfd, 0x48, 0x6a, 0x3e,
  0x00, 0x00, 0x00, 0x00, 0x7f, 0x17, 0x61, 0x3e, 0x91, 0x28, 0x5a, 0x3e,
  0x00, 0x00, 0x00, 0x00, 0xa5, 0x85, 0x82, 0xb8, 0x51, 0x9f, 0x63, 0x3e,
  0x00, 0x00, 0x00, 0x00, 0x65, 0xa2, 0x5e, 0x3e, 0x00, 0x00, 0x00, 0x00,
  0xba, 0x0d, 0x4c, 0xbc, 0x00, 0x00, 0x00, 0x00, 0x00, 0x00, 0x00, 0x00,
  0x6c, 0xe8, 0xc9, 0xbc, 0x12, 0x4b, 0x58, 0x3e, 0xab, 0x3c, 0x6b, 0x3e,
  0x06, 0x45, 0x5f, 0x3e, 0x13, 0x8c, 0xb3, 0x3d, 0xc2, 0xff, 0xff, 0xff,
  0x04, 0x00, 0x00, 0x00, 0x04, 0x00, 0x00, 0x00, 0xf4, 0x9b, 0x13, 0x3e,
  0xd2, 0xff, 0xff, 0xff, 0x04, 0x00, 0x00, 0x00, 0x20, 0x00, 0x00, 0x00,
  0x00, 0x00, 0x00, 0x00, 0x00, 0x00, 0x00, 0x00, 0x73, 0x5d, 0x1f, 0x3e,
  0x89, 0x40, 0xb6, 0xbc, 0xbb, 0x72, 0x30, 0x3e, 0x75, 0x63, 0x2b, 0x3e,
  0x00, 0x00, 0x00, 0x00, 0xb4, 0x0b, 0x29, 0x3e, 0x00, 0x00, 0x06, 0x00,
  0x08, 0x00, 0x04, 0x00, 0x06, 0x00, 0x00, 0x00, 0x04, 0x00, 0x00, 0x00,
  0x40, 0x00, 0x00, 0x00, 0xdf, 0xbe, 0x44, 0x3e, 0x05, 0x47, 0x35, 0x3e,
  0xf2, 0x88, 0x51, 0x3e, 0x5c, 0xf6, 0x4a, 0x3e, 0x11, 0x79, 0x47, 0x3e,
  0x95, 0x06, 0x5b, 0xbc, 0xa1, 0x4d, 0x52, 0xbc, 0x28, 0x95, 0x72, 0xbc,
  0x55, 0x72, 0xb5, 0x3d, 0x1f, 0x7a, 0x62, 0x3e, 0x15, 0x45, 0x44, 0xbd,
  0x5c, 0xcf, 0x3a, 0x3e, 0x5a, 0xd3, 0x41, 0xbc, 0x59, 0xa7, 0x32, 0xbd,
  0xb6, 0x29, 0xa2, 0x3d, 0x5c, 0xd5, 0x62, 0x3e, 0xb4, 0xf9, 0xff, 0xff,
  0xb8, 0xf9, 0xff, 0xff, 0x0f, 0x00, 0x00, 0x00, 0x4d, 0x4c, 0x49, 0x52,
  0x20, 0x43, 0x6f, 0x6e, 0x76, 0x65, 0x72, 0x74, 0x65, 0x64, 0x2e, 0x00,
  0x01, 0x00, 0x00, 0x00, 0x14, 0x00, 0x00, 0x00, 0x00, 0x00, 0x0e, 0x00,
  0x18, 0x00, 0x14, 0x00, 0x10, 0x00, 0x0c, 0x00, 0x08, 0x00, 0x04, 0x00,
  0x0e, 0x00, 0x00, 0x00, 0x14, 0x00, 0x00, 0x00, 0x1c, 0x00, 0x00, 0x00,
  0x10, 0x01, 0x00, 0x00, 0x14, 0x01, 0x00, 0x00, 0x18, 0x01, 0x00, 0x00,
  0x04, 0x00, 0x00, 0x00, 0x6d, 0x61, 0x69, 0x6e, 0x00, 0x00, 0x00, 0x00,
  0x04, 0x00, 0x00, 0x00, 0xb8, 0x00, 0x00, 0x00, 0x70, 0x00, 0x00, 0x00,
  0x38, 0x00, 0x00, 0x00, 0x04, 0x00, 0x00, 0x00, 0x66, 0xff, 0xff, 0xff,
  0x10, 0x00, 0x00, 0x00, 0x00, 0x00, 0x00, 0x08, 0x0c, 0x00, 0x00, 0x00,
  0x10, 0x00, 0x00, 0x00, 0x34, 0xfa, 0xff, 0xff, 0x01, 0x00, 0x00, 0x00,
  0x0c, 0x00, 0x00, 0x00, 0x03, 0x00, 0x00, 0x00, 0x0b, 0x00, 0x00, 0x00,
  0x08, 0x00, 0x00, 0x00, 0x03, 0x00, 0x00, 0x00, 0x96, 0xff, 0xff, 0xff,
  0x10, 0x00, 0x00, 0x00, 0x00, 0x00, 0x00, 0x08, 0x10, 0x00, 0x00, 0x00,
  0x14, 0x00, 0x00, 0x00, 0x86, 0xff, 0xff, 0xff, 0x00, 0x00, 0x00, 0x01,
  0x01, 0x00, 0x00, 0x00, 0x0b, 0x00, 0x00, 0x00, 0x03, 0x00, 0x00, 0x00,
  0x0a, 0x00, 0x00, 0x00, 0x07, 0x00, 0x00, 0x00, 0x02, 0x00, 0x00, 0x00,
  0xca, 0xff, 0xff, 0xff, 0x10, 0x00, 0x00, 0x00, 0x00, 0x00, 0x00, 0x08,
  0x10, 0x00, 0x00, 0x00, 0x14, 0x00, 0x00, 0x00, 0xba, 0xff, 0xff, 0xff,
  0x00, 0x00, 0x00, 0x01, 0x01, 0x00, 0x00, 0x00, 0x0a, 0x00, 0x00, 0x00,
  0x03, 0x00, 0x00, 0x00, 0x09, 0x00, 0x00, 0x00, 0x06, 0x00, 0x00, 0x00,
  0x01, 0x00, 0x00, 0x00, 0x00, 0x00, 0x0e, 0x00, 0x16, 0x00, 0x00, 0x00,
  0x10, 0x00, 0x0c, 0x00, 0x0b, 0x00, 0x04, 0x00, 0x0e, 0x00, 0x00, 0x00,
  0x18, 0x00, 0x00, 0x00, 0x00, 0x00, 0x00, 0x08, 0x18, 0x00, 0x00, 0x00,
  0x1c, 0x00, 0x00, 0x00, 0x00, 0x00, 0x06, 0x00, 0x08, 0x00, 0x07, 0x00,
  0x06, 0x00, 0x00, 0x00, 0x00, 0x00, 0x00, 0x01, 0x01, 0x00, 0x00, 0x00,
  0x09, 0x00, 0x00, 0x00, 0x03, 0x00, 0x00, 0x00, 0x00, 0x00, 0x00, 0x00,
  0x05, 0x00, 0x00, 0x00, 0x04, 0x00, 0x00, 0x00, 0x01, 0x00, 0x00, 0x00,
  0x0c, 0x00, 0x00, 0x00, 0x01, 0x00, 0x00, 0x00, 0x00, 0x00, 0x00, 0x00,
  0x0d, 0x00, 0x00, 0x00, 0xc0, 0x04, 0x00, 0x00, 0x50, 0x04, 0x00, 0x00,
  0xe0, 0x03, 0x00, 0x00, 0x88, 0x03, 0x00, 0x00, 0x34, 0x03, 0x00, 0x00,
  0xec, 0x02, 0x00, 0x00, 0xa0, 0x02, 0x00, 0x00, 0x54, 0x02, 0x00, 0x00,
  0x08, 0x02, 0x00, 0x00, 0x80, 0x01, 0x00, 0x00, 0xf0, 0x00, 0x00, 0x00,
  0x60, 0x00, 0x00, 0x00, 0x04, 0x00, 0x00, 0x00, 0x8a, 0xfb, 0xff, 0xff,
  0x00, 0x00, 0x00, 0x01, 0x14, 0x00, 0x00, 0x00, 0x1c, 0x00, 0x00, 0x00,
  0x1c, 0x00, 0x00, 0x00, 0x0d, 0x00, 0x00, 0x00, 0x34, 0x00, 0x00, 0x00,
  0x02, 0x00, 0x00, 0x00, 0xff, 0xff, 0xff, 0xff, 0x01, 0x00, 0x00, 0x00,
  0x74, 0xfb, 0xff, 0xff, 0x19, 0x00, 0x00, 0x00, 0x53, 0x74, 0x61, 0x74,
  0x65, 0x66, 0x75, 0x6c, 0x50, 0x61, 0x72, 0x74, 0x69, 0x74, 0x69, 0x6f,
  0x6e, 0x65, 0x64, 0x43, 0x61, 0x6c, 0x6c, 0x3a, 0x30, 0x00, 0x00, 0x00,
  0x02, 0x00, 0x00, 0x00, 0x01, 0x00, 0x00, 0x00, 0x01, 0x00, 0x00, 0x00,
  0xe2, 0xfb, 0xff, 0xff, 0x00, 0x00, 0x00, 0x01, 0x14, 0x00, 0x00, 0x00,
  0x1c, 0x00, 0x00, 0x00, 0x1c, 0x00, 0x00, 0x00, 0x0c, 0x00, 0x00, 0x00,
  0x68, 0x00, 0x00, 0x00, 0x02, 0x00, 0x00, 0x00, 0xff, 0xff, 0xff, 0xff,
  0x08, 0x00, 0x00, 0x00, 0xcc, 0xfb, 0xff, 0xff, 0x4c, 0x00, 0x00, 0x00,
  0x73, 0x65, 0x71, 0x75, 0x65, 0x6e, 0x74, 0x69, 0x61, 0x6c, 0x2f, 0x64,
  0x65, 0x6e, 0x73, 0x65, 0x5f, 0x32, 0x2f, 0x4d, 0x61, 0x74, 0x4d, 0x75,
  0x6c, 0x3b, 0x73, 0x65, 0x71, 0x75, 0x65, 0x6e, 0x74, 0x69, 0x61, 0x6c,
  0x2f, 0x64, 0x65, 0x6e, 0x73, 0x65, 0x5f, 0x32, 0x2f, 0x52, 0x65, 0x6c,
  0x75, 0x3b, 0x73, 0x65, 0x71, 0x75, 0x65, 0x6e, 0x74, 0x69, 0x61, 0x6c,
  0x2f, 0x64, 0x65, 0x6e, 0x73, 0x65, 0x5f, 0x32, 0x2f, 0x42, 0x69, 0x61,
  0x73, 0x41, 0x64, 0x64, 0x00, 0x00, 0x00, 0x00, 0x02, 0x00, 0x00, 0x00,
  0x01, 0x00, 0x00, 0x00, 0x08, 0x00, 0x00, 0x00, 0x6e, 0xfc, 0xff, 0xff,
  0x00, 0x00, 0x00, 0x01, 0x14, 0x00, 0x00, 0x00, 0x1c, 0x00, 0x00, 0x00,
  0x1c, 0x00, 0x00, 0x00, 0x0b, 0x00, 0x00, 0x00, 0x68, 0x00, 0x00, 0x00,
  0x02, 0x00, 0x00, 0x00, 0xff, 0xff, 0xff, 0xff, 0x10, 0x00, 0x00, 0x00,
  0x58, 0xfc, 0xff, 0xff, 0x4c, 0x00, 0x00, 0x00, 0x73, 0x65, 0x71, 0x75,
  0x65, 0x6e, 0x74, 0x69, 0x61, 0x6c, 0x2f, 0x64, 0x65, 0x6e, 0x73, 0x65,
  0x5f, 0x31, 0x2f, 0x4d, 0x61, 0x74, 0x4d, 0x75, 0x6c, 0x3b, 0x73, 0x65,
  0x71, 0x75, 0x65, 0x6e, 0x74, 0x69, 0x61, 0x6c, 0x2f, 0x64, 0x65, 0x6e,
  0x73, 0x65, 0x5f, 0x31, 0x2f, 0x52, 0x65, 0x6c, 0x75, 0x3b, 0x73, 0x65,
  0x71, 0x75, 0x65, 0x6e, 0x74, 0x69, 0x61, 0x6c, 0x2f, 0x64, 0x65, 0x6e,
  0x73, 0x65, 0x5f, 0x31, 0x2f, 0x42, 0x69, 0x61, 0x73, 0x41, 0x64, 0x64,
  0x00, 0x00, 0x00, 0x00, 0x02, 0x00, 0x00, 0x00, 0x01, 0x00, 0x00, 0x00,
  0x10, 0x00, 0x00, 0x00, 0xfa, 0xfc, 0xff, 0xff, 0x00, 0x00, 0x00, 0x01,
  0x14, 0x00, 0x00, 0x00, 0x1c, 0x00, 0x00, 0x00, 0x1c, 0x00, 0x00, 0x00,
  0x0a, 0x00, 0x00, 0x00, 0x60, 0x00, 0x00, 0x00, 0x02, 0x00, 0x00, 0x00,
  0xff, 0xff, 0xff, 0xff, 0x20, 0x00, 0x00, 0x00, 0xe4, 0xfc, 0xff, 0xff,
  0x46, 0x00, 0x00, 0x00, 0x73, 0x65, 0x71, 0x75, 0x65, 0x6e, 0x74, 0x69,
  0x61, 0x6c, 0x2f, 0x64, 0x65, 0x6e, 0x73, 0x65, 0x2f, 0x4d, 0x61, 0x74,
  0x4d, 0x75, 0x6c, 0x3b, 0x73, 0x65, 0x71, 0x75, 0x65, 0x6e, 0x74, 0x69,
  0x61, 0x6c, 0x2f, 0x64, 0x65, 0x6e, 0x73, 0x65, 0x2f, 0x52, 0x65, 0x6c,
  0x75, 0x3b, 0x73, 0x65, 0x71, 0x75, 0x65, 0x6e, 0x74, 0x69, 0x61, 0x6c,
  0x2f, 0x64, 0x65, 0x6e, 0x73, 0x65, 0x2f, 0x42, 0x69, 0x61, 0x73, 0x41,
  0x64, 0x64, 0x00, 0x00, 0x02, 0x00, 0x00, 0x00, 0x01, 0x00, 0x00, 0x00,
  0x20, 0x00, 0x00, 0x00, 0xea, 0xfd, 0xff, 0xff, 0x00, 0x00, 0x00, 0x01,
  0x10, 0x00, 0x00, 0x00, 0x10, 0x00, 0x00, 0x00, 0x09, 0x00, 0x00, 0x00,
  0x28, 0x00, 0x00, 0x00, 0x58, 0xfd, 0xff, 0xff, 0x19, 0x00, 0x00, 0x00,
  0x73, 0x65, 0x71, 0x75, 0x65, 0x6e, 0x74, 0x69, 0x61, 0x6c, 0x2f, 0x64,
  0x65, 0x6e, 0x73, 0x65, 0x5f, 0x33, 0x2f, 0x4d, 0x61, 0x74, 0x4d, 0x75,
  0x6c, 0x00, 0x00, 0x00, 0x02, 0x00, 0x00, 0x00, 0x01, 0x00, 0x00, 0x00,
  0x08, 0x00, 0x00, 0x00, 0x32, 0xfe, 0xff, 0xff, 0x00, 0x00, 0x00, 0x01,
  0x10, 0x00, 0x00, 0x00, 0x10, 0x00, 0x00, 0x00, 0x08, 0x00, 0x00, 0x00,
  0x28, 0x00, 0x00, 0x00, 0xa0, 0xfd, 0xff, 0xff, 0x19, 0x00, 0x00, 0x00,
  0x73, 0x65, 0x71, 0x75, 0x65, 0x6e, 0x74, 0x69, 0x61, 0x6c, 0x2f, 0x64,
  0x65, 0x6e, 0x73, 0x65, 0x5f, 0x32, 0x2f, 0x4d, 0x61, 0x74, 0x4d, 0x75,
  0x6c, 0x00, 0x00, 0x00, 0x02, 0x00, 0x00, 0x00, 0x08, 0x00, 0x00, 0x00,
  0x10, 0x00, 0x00, 0x00, 0x7a, 0xfe, 0xff, 0xff, 0x00, 0x00, 0x00, 0x01,
  0x10, 0x00, 0x00, 0x00, 0x10, 0x00, 0x00, 0x00, 0x07, 0x00, 0x00, 0x00,
  0x28, 0x00, 0x00, 0x00, 0xe8, 0xfd, 0xff, 0xff, 0x19, 0x00, 0x00, 0x00,
  0x73, 0x65, 0x71, 0x75, 0x65, 0x6e, 0x74, 0x69, 0x61, 0x6c, 0x2f, 0x64,
  0x65, 0x6e, 0x73, 0x65, 0x5f, 0x31, 0x2f, 0x4d, 0x61, 0x74, 0x4d, 0x75,
  0x6c, 0x00, 0x00, 0x00, 0x02, 0x00, 0x00, 0x00, 0x10, 0x00, 0x00, 0x00,
  0x20, 0x00, 0x00, 0x00, 0xc2, 0xfe, 0xff, 0xff, 0x00, 0x00, 0x00, 0x01,
  0x10, 0x00, 0x00, 0x00, 0x10, 0x00, 0x00, 0x00, 0x06, 0x00, 0x00, 0x00,
  0x24, 0x00, 0x00, 0x00, 0x30, 0xfe, 0xff, 0xff, 0x17, 0x00, 0x00, 0x00,
  0x73, 0x65, 0x71, 0x75, 0x65, 0x6e, 0x74, 0x69, 0x61, 0x6c, 0x2f, 0x64,
  0x65, 0x6e, 0x73, 0x65, 0x2f, 0x4d, 0x61, 0x74, 0x4d, 0x75, 0x6c, 0x00,
  0x02, 0x00, 0x00, 0x00, 0x20, 0x00, 0x00, 0x00, 0x03, 0x00, 0x00, 0x00,
  0x06, 0xff, 0xff, 0xff, 0x00, 0x00, 0x00, 0x01, 0x10, 0x00, 0x00, 0x00,
  0x10, 0x00, 0x00, 0x00, 0x05, 0x00, 0x00, 0x00, 0x34, 0x00, 0x00, 0x00,
  0x74, 0xfe, 0xff, 0xff, 0x27, 0x00, 0x00, 0x00, 0x73, 0x65, 0x71, 0x75,
  0x65, 0x6e, 0x74, 0x69, 0x61, 0x6c, 0x2f, 0x64, 0x65, 0x6e, 0x73, 0x65,
  0x2f, 0x42, 0x69, 0x61, 0x73, 0x41, 0x64, 0x64, 0x2f, 0x52, 0x65, 0x61,
  0x64, 0x56, 0x61, 0x72, 0x69, 0x61, 0x62, 0x6c, 0x65, 0x4f, 0x70, 0x00,
  0x01, 0x00, 0x00, 0x00, 0x20, 0x00, 0x00, 0x00, 0x56, 0xff, 0xff, 0xff,
  0x00, 0x00, 0x00, 0x01, 0x10, 0x00, 0x00, 0x00, 0x10, 0x00, 0x00, 0x00,
  0x04, 0x00, 0x00, 0x00, 0x38, 0x00, 0x00, 0x00, 0xc4, 0xfe, 0xff, 0xff,
  0x29, 0x00, 0x00, 0x00, 0x73, 0x65, 0x71, 0x75, 0x65, 0x6e, 0x74, 0x69,
  0x61, 0x6c, 0x2f, 0x64, 0x65, 0x6e, 0x73, 0x65, 0x5f, 0x33, 0x2f, 0x42,
  0x69, 0x61, 0x73, 0x41, 0x64, 0x64, 0x2f, 0x52, 0x65, 0x61, 0x64, 0x56,
  0x61, 0x72, 0x69, 0x61, 0x62, 0x6c, 0x65, 0x4f, 0x70, 0x00, 0x00, 0x00,
  0x01, 0x00, 0x00, 0x00, 0x01, 0x00, 0x00, 0x00, 0xaa, 0xff, 0xff, 0xff,
  0x00, 0x00, 0x00, 0x01, 0x10, 0x00, 0x00, 0x00, 0x10, 0x00, 0x00, 0x00,
  0x03, 0x00, 0x00, 0x00, 0x38, 0x00, 0x00, 0x00, 0x18, 0xff, 0xff, 0xff,
  0x29, 0x00, 0x00, 0x00, 0x73, 0x65, 0x71, 0x75, 0x65, 0x6e, 0x74, 0x69,
  0x61, 0x6c, 0x2f, 0x64, 0x65, 0x6e, 0x73, 0x65, 0x5f, 0x32, 0x2f, 0x42,
  0x69, 0x61, 0x73, 0x41, 0x64, 0x64, 0x2f, 0x52, 0x65, 0x61, 0x64, 0x56,
  0x61, 0x72, 0x69, 0x61, 0x62, 0x6c, 0x65, 0x4f, 0x70, 0x00, 0x00, 0x00,
  0x01, 0x00, 0x00, 0x00, 0x08, 0x00, 0x00, 0x00, 0x00, 0x00, 0x16, 0x00,
  0x18, 0x00, 0x14, 0x00, 0x00, 0x00, 0x10, 0x00, 0x0c, 0x00, 0x08, 0x00,
  0x00, 0x00, 0x00, 0x00, 0x00, 0x00, 0x07, 0x00, 0x16, 0x00, 0x00, 0x00,
  0x00, 0x00, 0x00, 0x01, 0x10, 0x00, 0x00, 0x00, 0x10, 0x00, 0x00, 0x00,
  0x02, 0x00, 0x00, 0x00, 0x38, 0x00, 0x00, 0x00, 0x84, 0xff, 0xff, 0xff,
  0x29, 0x00, 0x00, 0x00, 0x73, 0x65, 0x71, 0x75, 0x65, 0x6e, 0x74, 0x69,
  0x61, 0x6c, 0x2f, 0x64, 0x65, 0x6e, 0x73, 0x65, 0x5f, 0x31, 0x2f, 0x42,
  0x69, 0x61, 0x73, 0x41, 0x64, 0x64, 0x2f, 0x52, 0x65, 0x61, 0x64, 0x56,
  0x61, 0x72, 0x69, 0x61, 0x62, 0x6c, 0x65, 0x4f, 0x70, 0x00, 0x00, 0x00,
  0x01, 0x00, 0x00, 0x00, 0x10, 0x00, 0x00, 0x00, 0x00, 0x00, 0x16, 0x00,
  0x1c, 0x00, 0x18, 0x00, 0x00, 0x00, 0x14, 0x00, 0x10, 0x00, 0x0c, 0x00,
  0x00, 0x00, 0x00, 0x00, 0x08, 0x00, 0x07, 0x00, 0x16, 0x00, 0x00, 0x00,
  0x00, 0x00, 0x00, 0x01, 0x14, 0x00, 0x00, 0x00, 0x20, 0x00, 0x00, 0x00,
  0x20, 0x00, 0x00, 0x00, 0x01, 0x00, 0x00, 0x00, 0x3c, 0x00, 0x00, 0x00,
  0x02, 0x00, 0x00, 0x00, 0xff, 0xff, 0xff, 0xff, 0x03, 0x00, 0x00, 0x00,
  0x04, 0x00, 0x04, 0x00, 0x04, 0x00, 0x00, 0x00, 0x1d, 0x00, 0x00, 0x00,
  0x73, 0x65, 0x72, 0x76, 0x69, 0x6e, 0x67, 0x5f, 0x64, 0x65, 0x66, 0x61,
  0x75, 0x6c, 0x74, 0x5f, 0x64, 0x65, 0x6e, 0x73, 0x65, 0x5f, 0x69, 0x6e,
  0x70, 0x75, 0x74, 0x3a, 0x30, 0x00, 0x00, 0x00, 0x02, 0x00, 0x00, 0x00,
  0x01, 0x00, 0x00, 0x00, 0x03, 0x00, 0x00, 0x00, 0x01, 0x00, 0x00, 0x00,
  0x10, 0x00, 0x00, 0x00, 0x0c, 0x00, 0x0c, 0x00, 0x0b, 0x00, 0x00, 0x00,
  0x00, 0x00, 0x04, 0x00, 0x0c, 0x00, 0x00, 0x00, 0x09, 0x00, 0x00, 0x00,
  0x00, 0x00, 0x00, 0x09
};

const int .\models\model_quant_float32_len = 5488;
