#pragma once

#ifdef __has_attribute
#define HAVE_ATTRIBUTE(x) __has_attribute(x)
#else
#define HAVE_ATTRIBUTE(x) 0
#endif
#if HAVE_ATTRIBUTE(aligned) || (defined(__GNUC__) && !defined(__clang__))
#define DATA_ALIGN_ATTRIBUTE __attribute__((aligned(4)))
#else
#define DATA_ALIGN_ATTRIBUTE
#endif

// automatically configure network
#define TF_NUM_INPUTS 3
#define TF_NUM_OUTPUTS 1
#define TF_NUM_OPS 21

/**
 * Call this function to register the ops
 * that have been detected
 */
template<class TF>
void registerNetworkOps(TF& nn) {
    nn.resolver.AddMaximum();
    nn.resolver.AddTranspose();
    nn.resolver.AddConcatenation();
    nn.resolver.AddPack();
    nn.resolver.AddMinimum();
    nn.resolver.AddSplit();
    nn.resolver.AddWhile();
    nn.resolver.AddStridedSlice();
    nn.resolver.AddFullyConnected();
    nn.resolver.AddUnidirectionalSequenceLSTM();
    nn.resolver.AddFill();
    nn.resolver.AddSoftmax();
    nn.resolver.AddSlice();
    nn.resolver.AddTanh();
    nn.resolver.AddShape();
    nn.resolver.AddMul();
    nn.resolver.AddGather();
    nn.resolver.AddLess();
    nn.resolver.AddReshape();
    nn.resolver.AddRelu();
    nn.resolver.AddAdd();
    
}




// model data
const unsigned char tfModel[14252] DATA_ALIGN_ATTRIBUTE = { 0x1c, 0x00, 0x00, 0x00, 0x54, 0x46, 0x4c, 0x33, 0x14, 0x00, 0x20, 0x00, 0x1c, 0x00, 0x18, 0x00, 0x14, 0x00, 0x10, 0x00, 0x0c, 0x00, 0x00, 0x00, 0x08, 0x00, 0x04, 0x00, 0x14, 0x00, 0x00, 0x00, 0x1c, 0x00, 0x00, 0x00, 0x8c, 0x00, 0x00, 0x00, 0xe4, 0x00, 0x00, 0x00, 0x00, 0x29, 0x00, 0x00, 0x10, 0x29, 0x00, 0x00, 0x38, 0x37, 0x00, 0x00, 0x03, 0x00, 0x00, 0x00, 0x01, 0x00, 0x00, 0x00, 0x10, 0x00, 0x00, 0x00, 0x00, 0x00, 0x0a, 0x00, 0x10, 0x00, 0x0c, 0x00, 0x08, 0x00, 0x04, 0x00, 0x0a, 0x00, 0x00, 0x00, 0x0c, 0x00, 0x00, 0x00, 0x1c, 0x00, 0x00, 0x00, 0x3c, 0x00, 0x00, 0x00, 0x0f, 0x00, 0x00, 0x00, 0x73, 0x65, 0x72, 0x76, 0x69, 0x6e, 0x67, 0x5f, 0x64, 0x65, 0x66, 0x61, 0x75, 0x6c, 0x74, 0x00, 0x01, 0x00, 0x00, 0x00, 0x04, 0x00, 0x00, 0x00, 0x9c, 0xff, 0xff, 0xff, 0x28, 0x00, 0x00, 0x00, 0x04, 0x00, 0x00, 0x00, 0x08, 0x00, 0x00, 0x00, 0x6f, 0x75, 0x74, 0x70, 0x75, 0x74, 0x5f, 0x30, 0x00, 0x00, 0x00, 0x00, 0x01, 0x00, 0x00, 0x00, 0x04, 0x00, 0x00, 0x00, 0xbe, 0xd7, 0xff, 0xff, 0x04, 0x00, 0x00, 0x00, 0x01, 0x00, 0x00, 0x00, 0x78, 0x00, 0x00, 0x00, 0x02, 0x00, 0x00, 0x00, 0x34, 0x00, 0x00, 0x00, 0x04, 0x00, 0x00, 0x00, 0xdc, 0xff, 0xff, 0xff, 0x2b, 0x00, 0x00, 0x00, 0x04, 0x00, 0x00, 0x00, 0x13, 0x00, 0x00, 0x00, 0x43, 0x4f, 0x4e, 0x56, 0x45, 0x52, 0x53, 0x49, 0x4f, 0x4e, 0x5f, 0x4d, 0x45, 0x54, 0x41, 0x44, 0x41, 0x54, 0x41, 0x00, 0x08, 0x00, 0x0c, 0x00, 0x08, 0x00, 0x04, 0x00, 0x08, 0x00, 0x00, 0x00, 0x2a, 0x00, 0x00, 0x00, 0x04, 0x00, 0x00, 0x00, 0x13, 0x00, 0x00, 0x00, 0x6d, 0x69, 0x6e, 0x5f, 0x72, 0x75, 0x6e, 0x74, 0x69, 0x6d, 0x65, 0x5f, 0x76, 0x65, 0x72, 0x73, 0x69, 0x6f, 0x6e, 0x00, 0x2c, 0x00, 0x00, 0x00, 0x18, 0x28, 0x00, 0x00, 0x10, 0x28, 0x00, 0x00, 0xd0, 0x27, 0x00, 0x00, 0x38, 0x27, 0x00, 0x00, 0x24, 0x27, 0x00, 0x00, 0xd4, 0x24, 0x00, 0x00, 0x84, 0x22, 0x00, 0x00, 0x34, 0x20, 0x00, 0x00, 0xe4, 0x1d, 0x00, 0x00, 0xa4, 0x1d, 0x00, 0x00, 0x64, 0x1d, 0x00, 0x00, 0x24, 0x1d, 0x00, 0x00, 0xe4, 0x1c, 0x00, 0x00, 0xa4, 0x1c, 0x00, 0x00, 0x64, 0x1c, 0x00, 0x00, 0x24, 0x1c, 0x00, 0x00, 0xe4, 0x1b, 0x00, 0x00, 0x94, 0x19, 0x00, 0x00, 0x44, 0x17, 0x00, 0x00, 0xf4, 0x14, 0x00, 0x00, 0xa4, 0x12, 0x00, 0x00, 0x64, 0x12, 0x00, 0x00, 0x24, 0x12, 0x00, 0x00, 0xe4, 0x11, 0x00, 0x00, 0xa4, 0x11, 0x00, 0x00, 0x54, 0x0f, 0x00, 0x00, 0x04, 0x0d, 0x00, 0x00, 0xb4, 0x0a, 0x00, 0x00, 0x64, 0x08, 0x00, 0x00, 0x54, 0x02, 0x00, 0x00, 0xc4, 0x01, 0x00, 0x00, 0xa8, 0x01, 0x00, 0x00, 0x8c, 0x01, 0x00, 0x00, 0x70, 0x01, 0x00, 0x00, 0x30, 0x01, 0x00, 0x00, 0x28, 0x01, 0x00, 0x00, 0xe8, 0x00, 0x00, 0x00, 0xa8, 0x00, 0x00, 0x00, 0xa0, 0x00, 0x00, 0x00, 0x98, 0x00, 0x00, 0x00, 0x90, 0x00, 0x00, 0x00, 0x88, 0x00, 0x00, 0x00, 0x68, 0x00, 0x00, 0x00, 0x04, 0x00, 0x00, 0x00, 0xde, 0xd8, 0xff, 0xff, 0x04, 0x00, 0x00, 0x00, 0x54, 0x00, 0x00, 0x00, 0x0c, 0x00, 0x00, 0x00, 0x08, 0x00, 0x0e, 0x00, 0x08, 0x00, 0x04, 0x00, 0x08, 0x00, 0x00, 0x00, 0x10, 0x00, 0x00, 0x00, 0x24, 0x00, 0x00, 0x00, 0x00, 0x00, 0x06, 0x00, 0x08, 0x00, 0x04, 0x00, 0x06, 0x00, 0x00, 0x00, 0x04, 0x00, 0x00, 0x00, 0x00, 0x00, 0x00, 0x00, 0x00, 0x00, 0x0a, 0x00, 0x10, 0x00, 0x0c, 0x00, 0x08, 0x00, 0x04, 0x00, 0x0a, 0x00, 0x00, 0x00, 0x01, 0x00, 0x00, 0x00, 0x02, 0x00, 0x00, 0x00, 0x04, 0x00, 0x00, 0x00, 0x06, 0x00, 0x00, 0x00, 0x32, 0x2e, 0x31, 0x35, 0x2e, 0x30, 0x00, 0x00, 0x3e, 0xd9, 0xff, 0xff, 0x04, 0x00, 0x00, 0x00, 0x10, 0x00, 0x00, 0x00, 0x31, 0x2e, 0x31, 0x33, 0x2e, 0x31, 0x00, 0x00, 0x00, 0x00, 0x00, 0x00, 0x00, 0x00, 0x00, 0x00, 0x00, 0xcb, 0xff, 0xff, 0x04, 0xcb, 0xff, 0xff, 0x08, 0xcb, 0xff, 0xff, 0x0c, 0xcb, 0xff, 0xff, 0x6a, 0xd9, 0xff, 0xff, 0x04, 0x00, 0x00, 0x00, 0x30, 0x00, 0x00, 0x00, 0x00, 0x00, 0x00, 0x00, 0x00, 0x00, 0x00, 0x00, 0x00, 0x00, 0x00, 0x00, 0x00, 0x00, 0x00, 0x00, 0x00, 0x00, 0x00, 0x00, 0x00, 0x00, 0x00, 0x00, 0x00, 0x00, 0x00, 0x00, 0x00, 0x00, 0x00, 0x00, 0x00, 0x00, 0x00, 0x00, 0x00, 0x00, 0x00, 0x00, 0x00, 0x00, 0x00, 0x00, 0x00, 0x00, 0x00, 0x00, 0xa6, 0xd9, 0xff, 0xff, 0x04, 0x00, 0x00, 0x00, 0x30, 0x00, 0x00, 0x00, 0x00, 0x00, 0x00, 0x00, 0x00, 0x00, 0x00, 0x00, 0x00, 0x00, 0x00, 0x00, 0x00, 0x00, 0x00, 0x00, 0x00, 0x00, 0x00, 0x00, 0x00, 0x00, 0x00, 0x00, 0x00, 0x00, 0x00, 0x00, 0x00, 0x00, 0x00, 0x00, 0x00, 0x00, 0x00, 0x00, 0x00, 0x00, 0x00, 0x00, 0x00, 0x00, 0x00, 0x00, 0x00, 0x00, 0x00, 0x00, 0x88, 0xcb, 0xff, 0xff, 0xe6, 0xd9, 0xff, 0xff, 0x04, 0x00, 0x00, 0x00, 0x30, 0x00, 0x00, 0x00, 0x00, 0x00, 0x00, 0x00, 0x00, 0x00, 0x00, 0x00, 0x00, 0x00, 0x00, 0x00, 0x00, 0x00, 0x00, 0x00, 0x00, 0x00, 0x00, 0x00, 0x00, 0x00, 0x00, 0x00, 0x00, 0x00, 0x00, 0x00, 0x00, 0x00, 0x00, 0x00, 0x00, 0x00, 0x00, 0x00, 0x00, 0x00, 0x00, 0x00, 0x00, 0x00, 0x00, 0x00, 0x00, 0x00, 0x00, 0x00, 0x22, 0xda, 0xff, 0xff, 0x04, 0x00, 0x00, 0x00, 0x0c, 0x00, 0x00, 0x00, 0x01, 0x00, 0x00, 0x00, 0x01, 0x00, 0x00, 0x00, 0x01, 0x00, 0x00, 0x00, 0x3a, 0xda, 0xff, 0xff, 0x04, 0x00, 0x00, 0x00, 0x0c, 0x00, 0x00, 0x00, 0x00, 0x00, 0x00, 0x00, 0x00, 0x00, 0x00, 0x00, 0x00, 0x00, 0x00, 0x00, 0x52, 0xda, 0xff, 0xff, 0x04, 0x00, 0x00, 0x00, 0x0c, 0x00, 0x00, 0x00, 0x00, 0x00, 0x00, 0x00, 0xff, 0xff, 0xff, 0xff, 0x00, 0x00, 0x00, 0x00, 0x6a, 0xda, 0xff, 0xff, 0x04, 0x00, 0x00, 0x00, 0x80, 0x00, 0x00, 0x00, 0xba, 0x14, 0x05, 0xbe, 0x8c, 0x8b, 0x85, 0xbe, 0x36, 0x87, 0x91, 0xbe, 0xd6, 0xd9, 0x85, 0x3e, 0xc8, 0x5b, 0x85, 0x3d, 0x8a, 0xd1, 0xc7, 0x3e, 0x38, 0x9d, 0xae, 0x3d, 0x9d, 0xa3, 0xb8, 0x3e, 0x74, 0x38, 0x43, 0x3f, 0x00, 0x02, 0xad, 0xbd, 0xd7, 0x59, 0x14, 0x3f, 0x40, 0x03, 0xb3, 0x3c, 0x03, 0xfb, 0x2b, 0x3f, 0x32, 0x18, 0x98, 0x3e, 0x62, 0x1a, 0xea, 0xbd, 0xba, 0x7b, 0xac, 0xbe, 0x99, 0x56, 0x82, 0xbe, 0xe4, 0x34, 0xa5, 0xbe, 0x9f, 0xc8, 0x3d, 0xbe, 0x20, 0x3b, 0xcd, 0xbe, 0x34, 0x22, 0x32, 0xbe, 0x14, 0xec, 0xeb, 0xbd, 0x0c, 0x3c, 0x25, 0x3f, 0x7c, 0x39, 0x9d, 0xbd, 0x8a, 0xcd, 0xf5, 0x3e, 0x2a, 0x1c, 0x85, 0xbe, 0xa4, 0xd3, 0xc2, 0xbd, 0x10, 0xf7, 0x5e, 0x3d, 0x73, 0xe2, 0xea, 0x3e, 0x2e, 0x75, 0x74, 0x3d, 0x94, 0x15, 0x45, 0xbe, 0x3a, 0x14, 0x11, 0x3f, 0xf6, 0xda, 0xff, 0xff, 0x04, 0x00, 0x00, 0x00, 0x00, 0x06, 0x00, 0x00, 0x47, 0x02, 0xa2, 0x3e, 0xd0, 0xca, 0x67, 0x3d, 0xbd, 0xcd, 0x83, 0xbe, 0xbf, 0x79, 0xad, 0x3e, 0x48, 0x24, 0xc2, 0x3d, 0x80, 0x9a, 0xeb, 0x3c, 0xe8, 0xb3, 0x69, 0xbd, 0xe8, 0xc3, 0x4c, 0xbd, 0x81, 0x39, 0x5c, 0xbe, 0x05, 0xab, 0x42, 0xbe, 0x77, 0x89, 0xa4, 0x3e, 0x07, 0x6c, 0xb8, 0x3e, 0x78, 0x34, 0x88, 0x3d, 0x90, 0x37, 0xd7, 0xbc, 0x40, 0xa2, 0xb6, 0x3d, 0x96, 0x1a, 0x1d, 0x3e, 0xca, 0x28, 0x38, 0x3e, 0xd0, 0x7c, 0xeb, 0x3c, 0xbd, 0x61, 0x98, 0xbe, 0x10, 0xcd, 0x97, 0xbd, 0x80, 0xfc, 0x8d, 0x3b, 0xea, 0xf9, 0x9a, 0xbe, 0x06, 0x39, 0xb8, 0xbe, 0x44, 0x37, 0x24, 0xbe, 0x33, 0xf2, 0x82, 0xbe, 0x72, 0x25, 0xad, 0xbe, 0x97, 0x1b, 0x1d, 0xbd, 0x1d, 0x83, 0x99, 0xbd, 0xef, 0x0e, 0xb5, 0xbd, 0x39, 0x49, 0xa8, 0xbe, 0xd7, 0x1f, 0x4d, 0x3e, 0x0e, 0xbf, 0x9c, 0xbe, 0x31, 0x0b, 0xe1, 0xbd, 0x15, 0x07, 0x71, 0xbe, 0xec, 0x35, 0x4b, 0xbe, 0x96, 0x4d, 0x93, 0xbe, 0xef, 0x3e, 0x97, 0x3e, 0x6b, 0xbd, 0x6b, 0xbe, 0xc2, 0x54, 0x9b, 0xbe, 0x98, 0xea, 0xa6, 0xbe, 0x6d, 0x0f, 0x5d, 0xbe, 0x80, 0x4c, 0x7d, 0xbb, 0xf5, 0x38, 0x93, 0x3e, 0xb3, 0x67, 0xa6, 0x3e, 0xb4, 0x01, 0x9d, 0xbe, 0x40, 0x83, 0xa3, 0x3d, 0x31, 0x4c, 0xa1, 0xbe, 0xf6, 0xac, 0x4d, 0x3e, 0x84, 0xe8, 0xb9, 0x3d, 0x70, 0x89, 0xa3, 0xbd, 0xd4, 0x1f, 0x82, 0xbd, 0xd2, 0x9d, 0x7f, 0x3e, 0xb0, 0xd2, 0xf4, 0x3d, 0xfb, 0xff, 0xa7, 0x3e, 0x32, 0xa0, 0x1a, 0x3e, 0x58, 0x0b, 0xcd, 0x3d, 0xf4, 0xd1, 0x9f, 0x3d, 0x00, 0x44, 0xa4, 0xbd, 0x10, 0xf9, 0xfd, 0xbc, 0x0b, 0xc4, 0xba, 0x3e, 0xb0, 0x6c, 0x9c, 0x3c, 0x3c, 0x06, 0xb5, 0x3d, 0x18, 0xcb, 0x85, 0xbe, 0x98, 0x2e, 0xa8, 0x3d, 0x10, 0x50, 0x1f, 0x3d, 0xf8, 0x3e, 0x3c, 0xbd, 0x0a, 0x72, 0x6a, 0x3e, 0x00, 0x6c, 0xc3, 0xbc, 0x10, 0x9b, 0xc7, 0xbc, 0x32, 0x86, 0x97, 0xbe, 0x56, 0x5c, 0x7e, 0x3e, 0x03, 0xa1, 0x99, 0x3e, 0x88, 0x6b, 0xdf, 0x3d, 0x84, 0x23, 0x82, 0xbe, 0x00, 0x53, 0xb1, 0xbb, 0xbd, 0xb2, 0x01, 0xbe, 0x24, 0x6e, 0x6a, 0xbe, 0xa0, 0xf9, 0x13, 0x3c, 0x08, 0x0d, 0x89, 0xbe, 0x9a, 0x95, 0x0c, 0x3e, 0xac, 0x5d, 0x87, 0xbe, 0xa3, 0x54, 0x69, 0xbe, 0x40, 0x01, 0xca, 0x3d, 0x05, 0xb5, 0x64, 0xbe, 0x2c, 0x34, 0x82, 0xbc, 0x41, 0xba, 0x6f, 0x3e, 0x01, 0x84, 0xa8, 0x3e, 0x9d, 0x8a, 0x8f, 0x3e, 0x10, 0xb1, 0xc8, 0xbe, 0x14, 0x37, 0xb8, 0x3c, 0xfd, 0x20, 0x04, 0x3f, 0x6a, 0x03, 0x06, 0xbf, 0xb7, 0x6e, 0xac, 0xbe, 0x2c, 0xb4, 0x22, 0x3e, 0x28, 0xa7, 0xb3, 0x3e, 0x60, 0xc6, 0x12, 0xbf, 0x3e, 0x2c, 0x12, 0xbf, 0xa3, 0xd6, 0x03, 0x3e, 0x7e, 0x24, 0x16, 0x3f, 0xca, 0xe8, 0x2e, 0x3e, 0xd2, 0x2d, 0xbe, 0xbe, 0x30, 0x51, 0x1c, 0x3f, 0x91, 0xa5, 0x37, 0x3f, 0x8e, 0xa1, 0x22, 0xbf, 0x15, 0x39, 0x1f, 0xbf, 0x39, 0xa3, 0x11, 0x3f, 0x10, 0x90, 0x1c, 0x3f, 0x3b, 0x59, 0xad, 0xbd, 0x66, 0xb7, 0xb0, 0xbe, 0xce, 0x0f, 0x7b, 0xbe, 0x08, 0xe9, 0x07, 0xbd, 0x46, 0xe5, 0x79, 0x3e, 0x9c, 0x1b, 0x06, 0xbe, 0x71, 0x57, 0xb8, 0xbe, 0xc8, 0xbf, 0x10, 0x3d, 0x20, 0x6d, 0x41, 0xbc, 0x38, 0x76, 0x6c, 0xbe, 0x78, 0xd3, 0xa3, 0xbd, 0x12, 0x0c, 0x45, 0xbe, 0xde, 0x6f, 0x72, 0x3e, 0x29, 0x96, 0x88, 0xbe, 0x8b, 0x24, 0x1e, 0x3f, 0x65, 0x9a, 0xef, 0x3e, 0x49, 0x4e, 0x59, 0x3e, 0xb3, 0xed, 0xb4, 0xbe, 0x8f, 0xa1, 0x04, 0x3f, 0x19, 0x21, 0x96, 0x3e, 0x57, 0x4c, 0x0a, 0xbf, 0x5f, 0x1a, 0x6b, 0xbe, 0xd4, 0xb6, 0x0d, 0x3f, 0x00, 0x9e, 0x70, 0x3d, 0x4b, 0x0e, 0x05, 0xbf, 0xf7, 0x5d, 0x85, 0x3e, 0x00, 0x0a, 0xd8, 0xbd, 0x08, 0x41, 0x4e, 0xbe, 0x0c, 0x73, 0x8e, 0xbd, 0xb0, 0xfe, 0x8a, 0xbd, 0x56, 0x10, 0x23, 0x3e, 0x78, 0x24, 0xcb, 0x3d, 0x52, 0xb7, 0x19, 0x3e, 0x86, 0x29, 0xa4, 0xbe, 0x66, 0x7b, 0x24, 0xbe, 0x44, 0x8b, 0xa1, 0xbe, 0xb0, 0xba, 0x1b, 0x3d, 0xd0, 0x66, 0xba, 0xbe, 0x63, 0xba, 0x0e, 0x3f, 0x17, 0x2a, 0x1f, 0x3f, 0xe8, 0xe0, 0x28, 0x3f, 0x9d, 0x44, 0x2b, 0xbf, 0xe3, 0x7c, 0x5f, 0x3e, 0x82, 0x90, 0xd6, 0x3e, 0x86, 0xa7, 0xe9, 0xbe, 0x74, 0x09, 0xe1, 0xbe, 0xce, 0x76, 0xd3, 0x3c, 0x87, 0xda, 0xa8, 0x3e, 0xab, 0x91, 0x09, 0xbf, 0xb2, 0xdc, 0x30, 0x3e, 0xe0, 0x1f, 0xe4, 0xbd, 0x38, 0xf7, 0xaa, 0xbe, 0xc0, 0xcc, 0x4d, 0x3c, 0x66, 0x18, 0x3d, 0xbe, 0x20, 0x45, 0x4e, 0x3c, 0x60, 0x2f, 0xae, 0x3d, 0x70, 0x13, 0xdc, 0x3c, 0x61, 0x78, 0x83, 0xbe, 0xbe, 0xee, 0x31, 0xbe, 0x80, 0xb9, 0x19, 0x3d, 0x54, 0x37, 0x04, 0x3e, 0x0b, 0x65, 0x31, 0xbe, 0xe5, 0x82, 0x36, 0x3e, 0x5f, 0xbf, 0xb4, 0xbe, 0x72, 0x77, 0x90, 0xbe, 0x8b, 0x64, 0x77, 0xbd, 0xf0, 0x8d, 0x78, 0x3e, 0x4c, 0x4d, 0x83, 0x3d, 0xae, 0x3c, 0x7a, 0x3d, 0xb6, 0xa8, 0x92, 0xbe, 0x17, 0x7c, 0xc3, 0x3d, 0xfc, 0x42, 0xb0, 0xbe, 0x56, 0x92, 0x11, 0x3c, 0x5c, 0x04, 0x89, 0x3d, 0x21, 0x1e, 0x7c, 0xbc, 0x01, 0x87, 0x1e, 0x3c, 0x68, 0x64, 0x21, 0x3c, 0x84, 0x2f, 0x1b, 0xbd, 0x47, 0xa2, 0x87, 0xbd, 0x45, 0xd5, 0x82, 0x3e, 0x30, 0xd6, 0xf8, 0xbc, 0xd5, 0xf9, 0x09, 0x3d, 0xb6, 0x92, 0x14, 0x3e, 0xd3, 0xa2, 0xe4, 0xbc, 0x34, 0x72, 0xae, 0x3e, 0x3f, 0x3f, 0xd5, 0x3d, 0xc6, 0x18, 0xa4, 0x3e, 0xb8, 0xe9, 0x0c, 0x3e, 0x32, 0x18, 0xbb, 0xbe, 0xd9, 0x92, 0xb0, 0x3d, 0x90, 0xdf, 0x9d, 0x3e, 0x9b, 0xb0, 0x80, 0xbb, 0x59, 0xe4, 0xb0, 0x3d, 0xcd, 0xe4, 0x7e, 0xbd, 0x12, 0x6b, 0x84, 0x3e, 0xac, 0x81, 0x03, 0xbe, 0xcf, 0x4d, 0x87, 0x3e, 0xb0, 0x85, 0xa4, 0xbd, 0x70, 0x67, 0xc8, 0xbd, 0x7d, 0x78, 0x57, 0xbe, 0xf3, 0x45, 0x9e, 0x3e, 0x26, 0x0e, 0x0a, 0x3e, 0x79, 0x13, 0x22, 0xbe, 0x8e, 0xb2, 0x2a, 0x3e, 0xfd, 0x73, 0xb7, 0x3e, 0x20, 0xc7, 0xb4, 0xbc, 0xda, 0xa5, 0x8a, 0xbe, 0x0c, 0x62, 0xb3, 0x3d, 0x3b, 0xa6, 0xab, 0x3e, 0x28, 0x6c, 0x56, 0x3d, 0x22, 0x6e, 0xa0, 0x3e, 0xc0, 0x4d, 0x82, 0xbe, 0xc3, 0x37, 0xbd, 0xbe, 0x72, 0x4b, 0x97, 0xbd, 0xdf, 0x78, 0x32, 0x3e, 0x7e, 0x25, 0xb2, 0xbe, 0xfe, 0x01, 0xd1, 0x3d, 0xbe, 0xff, 0x0a, 0xbd, 0x96, 0x09, 0xf7, 0x3d, 0xa1, 0x9d, 0x43, 0x3e, 0x0e, 0xcb, 0x55, 0xbe, 0xa7, 0x30, 0x44, 0xbd, 0x4a, 0x31, 0x02, 0xbe, 0x8d, 0xc8, 0x6d, 0xbc, 0x22, 0x23, 0x17, 0x3e, 0x3b, 0x13, 0x54, 0x3e, 0x76, 0xe3, 0xa5, 0xbe, 0x26, 0x54, 0xac, 0xbe, 0x08, 0xd8, 0xc8, 0xbb, 0x1e, 0x6c, 0x0a, 0xbd, 0xe8, 0x7d, 0x9b, 0x3e, 0x74, 0x73, 0xc1, 0xbd, 0x72, 0xc8, 0x4f, 0xbe, 0x01, 0x22, 0xa1, 0xbd, 0xee, 0x89, 0xb1, 0xbe, 0x35, 0x35, 0xb4, 0xbe, 0x7c, 0x47, 0x47, 0xbe, 0x01, 0x42, 0x95, 0xbe, 0x75, 0x51, 0x96, 0xbc, 0x35, 0xa9, 0xac, 0xbe, 0xea, 0x17, 0xf6, 0xbc, 0x58, 0x80, 0x08, 0x3c, 0xf0, 0xb0, 0xb0, 0x3e, 0xc5, 0xe2, 0x85, 0xbe, 0x3c, 0x8b, 0x36, 0x3e, 0xd3, 0x63, 0x0b, 0xbe, 0x7a, 0x6b, 0x7f, 0xbe, 0x3c, 0x16, 0xd5, 0x3d, 0xa5, 0x05, 0xa5, 0xbe, 0x90, 0xec, 0xc5, 0x3d, 0x0c, 0x5f, 0xb8, 0x3d, 0xc7, 0xce, 0x9a, 0xbe, 0x33, 0x36, 0xac, 0x3e, 0x46, 0x3d, 0x15, 0xbe, 0x5b, 0xa1, 0x65, 0xbe, 0x41, 0xf3, 0xae, 0x3e, 0xb4, 0xf5, 0xc3, 0x3d, 0x18, 0x39, 0x70, 0xbe, 0x5e, 0x06, 0x46, 0x3e, 0xbf, 0xc2, 0x21, 0x3f, 0x50, 0xf5, 0xe3, 0x3e, 0xb1, 0x31, 0xe6, 0xbe, 0x26, 0xe1, 0xb9, 0x3e, 0xc0, 0xd8, 0x1b, 0xbc, 0x80, 0xb8, 0x0e, 0xbf, 0xa1, 0xae, 0x81, 0xbe, 0x42, 0xae, 0xb1, 0xbc, 0xdd, 0x72, 0xef, 0x3e, 0xba, 0x21, 0xdf, 0xbe, 0x27, 0x75, 0x95, 0xbd, 0xb3, 0x49, 0xaa, 0xbe, 0x8b, 0x71, 0xe1, 0x3d, 0x20, 0x48, 0xb6, 0xbe, 0xad, 0x91, 0xab, 0x3d, 0x88, 0x05, 0x4c, 0x3d, 0x04, 0x05, 0xc4, 0x3d, 0x54, 0xe9, 0x0a, 0xbe, 0x33, 0x00, 0x2f, 0xbe, 0x7e, 0x40, 0x61, 0xbd, 0xe4, 0xc2, 0x05, 0xbe, 0x2a, 0x82, 0x1f, 0x3e, 0xe7, 0xd8, 0x74, 0xbe, 0x28, 0x8c, 0x7b, 0x3e, 0x80, 0x22, 0x34, 0x3f, 0x21, 0x52, 0x1b, 0x3e, 0xa9, 0xc3, 0xc5, 0xbe, 0x1a, 0x4f, 0x7e, 0x3e, 0x75, 0x11, 0xac, 0x3c, 0x66, 0x5a, 0x03, 0xbf, 0x22, 0x8a, 0xd0, 0xbe, 0xf9, 0xe9, 0x9d, 0x3e, 0xe1, 0x53, 0x02, 0x3f, 0x39, 0xe4, 0x54, 0xbe, 0xf9, 0x37, 0x08, 0xbe, 0x10, 0x5d, 0x05, 0xbe, 0xf0, 0xb4, 0xb7, 0xbc, 0x6c, 0x6d, 0x94, 0x3d, 0x8b, 0x50, 0x83, 0xbe, 0x02, 0x64, 0x0a, 0x3e, 0xe0, 0xd2, 0xa6, 0xbd, 0x9f, 0xe8, 0xbc, 0x3e, 0x57, 0x1f, 0x16, 0xbe, 0x36, 0x5a, 0x4c, 0x3e, 0xac, 0x0c, 0x8e, 0xbe, 0xb1, 0x50, 0x82, 0x3e, 0xf3, 0x7b, 0xb2, 0x3e, 0x7c, 0xa9, 0x8b, 0xbd, 0xdd, 0x52, 0x99, 0xbe, 0x4e, 0x8d, 0x31, 0x3e, 0x9d, 0x06, 0x56, 0xbe, 0x83, 0x9f, 0xac, 0x3e, 0xb8, 0xa9, 0x89, 0xbe, 0x4d, 0x5d, 0xa6, 0x3e, 0x00, 0xb1, 0x3d, 0xbe, 0xce, 0xb2, 0x25, 0x3e, 0x7b, 0xd2, 0xa1, 0xbe, 0xc2, 0x1b, 0x88, 0xbe, 0x14, 0x67, 0x07, 0xbe, 0xd0, 0x2a, 0xbf, 0x3c, 0xb4, 0xca, 0xb7, 0xbe, 0x30, 0xdd, 0x3a, 0x3d, 0xd0, 0xe8, 0xdd, 0xbd, 0x40, 0x6b, 0xd5, 0xbc, 0xeb, 0x53, 0xa6, 0x3e, 0x80, 0xd5, 0x5b, 0xbb, 0xec, 0xb7, 0xf5, 0xbd, 0x0c, 0xf7, 0x8f, 0xbe, 0xd8, 0x56, 0x97, 0xbd, 0x79, 0x0a, 0xa4, 0x3e, 0x9b, 0xd4, 0x0b, 0xbf, 0x0c, 0x70, 0x22, 0x3f, 0x72, 0xf5, 0x1e, 0x3f, 0x5b, 0x41, 0x8e, 0x3e, 0x92, 0x3f, 0x1a, 0xbf, 0x5a, 0x00, 0xdf, 0x3c, 0x82, 0x2d, 0x1e, 0x3f, 0x22, 0xff, 0xbc, 0xbe, 0x60, 0x31, 0x77, 0xbe, 0x78, 0xc5, 0x67, 0x3e, 0xb5, 0x9e, 0x32, 0x3f, 0xc4, 0x45, 0x03, 0xbf, 0x95, 0x16, 0xbc, 0x3e, 0x44, 0x12, 0xe7, 0xba, 0x68, 0x75, 0x8c, 0xbe, 0x14, 0x59, 0x89, 0xbe, 0x90, 0x6e, 0x61, 0xbe, 0xfc, 0xc0, 0x45, 0xbe, 0xf6, 0x1a, 0x7e, 0x3e, 0x5f, 0x39, 0x8d, 0x3e, 0xa4, 0xce, 0x0d, 0xbd, 0x00, 0xf9, 0xbd, 0x3e, 0xc4, 0xd9, 0x88, 0xbe, 0x72, 0x2b, 0x37, 0x3e, 0x4a, 0x18, 0x74, 0x3e, 0xdc, 0x31, 0x9d, 0x3e, 0x26, 0x6a, 0x9d, 0x3e, 0x31, 0x60, 0x93, 0x3e, 0x29, 0x83, 0x4e, 0x3e, 0xcc, 0xd5, 0xbd, 0xbd, 0xb7, 0x32, 0xa5, 0x3e, 0x43, 0x9d, 0x8c, 0x3e, 0x3e, 0xfc, 0x24, 0x3e, 0x66, 0xf6, 0xd0, 0xbd, 0x63, 0x2b, 0xdb, 0xbc, 0x01, 0x79, 0xbf, 0x3d, 0xdf, 0x7d, 0xb1, 0xbd, 0x87, 0x23, 0x9e, 0x3e, 0x8d, 0xbf, 0x0d, 0x3f, 0x62, 0x7e, 0x0e, 0x3f, 0xa9, 0x6c, 0x31, 0xbf, 0xa8, 0xee, 0x08, 0x3e, 0x85, 0x54, 0x79, 0x3e, 0xe7, 0xe5, 0xd3, 0xbe, 0x24, 0x48, 0x9d, 0xbe, 0xb3, 0x0f, 0x26, 0x3f, 0xe2, 0x10, 0xb9, 0x3e, 0xfa, 0x31, 0xdd, 0xbd, 0x02, 0xe1, 0xff, 0xff, 0x04, 0x00, 0x00, 0x00, 0x40, 0x02, 0x00, 0x00, 0xf8, 0x81, 0x97, 0x3d, 0xb5, 0x60, 0xb9, 0x3d, 0xd8, 0x61, 0x47, 0xbe, 0x34, 0xde, 0x78, 0x3d, 0x38, 0x33, 0x13, 0x3d, 0x1d, 0x7f, 0x6a, 0xbe, 0xf0, 0xe6, 0x02, 0xbf, 0xd4, 0xc1, 0x24, 0xbe, 0xc3, 0x82, 0xca, 0x3d, 0x79, 0x8a, 0x01, 0xbf, 0x04, 0x69, 0x86, 0xbd, 0xed, 0x8c, 0xd3, 0xbd, 0x41, 0xcd, 0xed, 0xbd, 0x47, 0xf2, 0x13, 0xbe, 0xc8, 0x20, 0xee, 0xbe, 0x9a, 0xda, 0xf1, 0xbc, 0x56, 0x1a, 0xff, 0x3d, 0x85, 0x4f, 0x67, 0xbe, 0x12, 0xb6, 0x84, 0xbe, 0xb4, 0x19, 0x78, 0xbd, 0x14, 0x9f, 0x70, 0xbe, 0xf0, 0x81, 0x37, 0x3d, 0x16, 0x4e, 0xa6, 0xbe, 0x96, 0x21, 0x8d, 0x3d, 0xd5, 0xa5, 0xdd, 0xbd, 0x37, 0x10, 0x57, 0xbe, 0x67, 0x86, 0xe2, 0x3d, 0x79, 0xe9, 0x8d, 0x3e, 0xd0, 0x52, 0xb4, 0x3e, 0xfb, 0xcc, 0x48, 0xbe, 0xf8, 0x68, 0x9f, 0xbc, 0x87, 0x55, 0xb6, 0x3e, 0xac, 0x31, 0xbf, 0xbe, 0x79, 0x28, 0x84, 0x3d, 0x01, 0x97, 0xce, 0xbe, 0x0b, 0x2a, 0xba, 0x3e, 0xb9, 0xe2, 0xa0, 0x3d, 0x06, 0xbd, 0x89, 0xbe, 0x7c, 0x8e, 0xb3, 0xbe, 0xdf, 0xb9, 0x02, 0x3d, 0x33, 0xf5, 0x96, 0x3e, 0x7c, 0x30, 0xf8, 0xbe, 0x2b, 0xf0, 0xf3, 0xbd, 0x46, 0x61, 0x14, 0x3e, 0x52, 0x10, 0x64, 0xbe, 0xe8, 0xe3, 0x00, 0xbf, 0xfc, 0x8a, 0xb8, 0xbe, 0x4f, 0x7d, 0x5a, 0xbc, 0xdd, 0xaf, 0x87, 0x3e, 0x61, 0x62, 0xe6, 0xbd, 0x0c, 0x2a, 0x5f, 0xbe, 0x8c, 0x35, 0x84, 0x3e, 0x3e, 0x91, 0xeb, 0x3e, 0xf3, 0x57, 0xb4, 0x3c, 0x29, 0x91, 0xdc, 0xbe, 0x21, 0x0c, 0x4a, 0x3e, 0x4e, 0x20, 0xb1, 0x3d, 0x58, 0xe8, 0xba, 0xbe, 0xd5, 0x18, 0x5f, 0x3d, 0xc1, 0xa5, 0xce, 0x3e, 0x4e, 0x1e, 0x33, 0xbe, 0xf9, 0xa8, 0x5c, 0xbd, 0x73, 0x19, 0x9e, 0xbe, 0x65, 0x7c, 0x99, 0x3e, 0x8c, 0xe7, 0x84, 0x3d, 0x72, 0x91, 0x84, 0xbc, 0x75, 0x3a, 0x9b, 0xbe, 0x4c, 0xf0, 0xe7, 0x3e, 0x23, 0x55, 0x89, 0xbe, 0x7e, 0x0b, 0x87, 0xbe, 0x1b, 0xa2, 0xd6, 0xbe, 0x1c, 0xbe, 0x7e, 0xbc, 0x82, 0xbc, 0x88, 0xbe, 0x55, 0x6d, 0x61, 0xbe, 0x19, 0x6a, 0xd3, 0xbe, 0xf1, 0x49, 0x84, 0x3e, 0x97, 0xeb, 0x8b, 0x3d, 0xd4, 0x8a, 0xf9, 0xbe, 0xf6, 0xfd, 0xc6, 0xbe, 0xf8, 0xdc, 0xe7, 0xbd, 0x70, 0xf7, 0x49, 0x3c, 0x98, 0xa9, 0xc2, 0xbe, 0x6c, 0x73, 0xe3, 0xbd, 0xcf, 0xfa, 0x14, 0xbe, 0x38, 0x52, 0xb6, 0xbd, 0xff, 0x23, 0x80, 0xbd, 0x21, 0xcf, 0xd5, 0xbd, 0xf4, 0x56, 0x22, 0x3e, 0x18, 0x22, 0x5d, 0xbd, 0xf6, 0xe1, 0x5a, 0xbe, 0x2e, 0x34, 0xe5, 0xbe, 0xde, 0x94, 0xb0, 0x3e, 0x60, 0x45, 0xd9, 0xbe, 0x2e, 0x64, 0xcf, 0xbe, 0xea, 0xb2, 0xfb, 0xbe, 0x1c, 0x18, 0x9e, 0x3e, 0xca, 0x00, 0x54, 0xbc, 0xc1, 0xb6, 0xdd, 0xbd, 0xa6, 0xe8, 0x1e, 0x3c, 0xbe, 0x5a, 0xd6, 0x3e, 0x14, 0x08, 0x5e, 0x3e, 0x1b, 0x8f, 0x82, 0xbe, 0x7c, 0x6f, 0x16, 0xbe, 0xd3, 0xb8, 0xe2, 0x3e, 0xc1, 0x8d, 0x78, 0xbd, 0xbf, 0x17, 0xbb, 0xbe, 0xf9, 0xd1, 0x7a, 0xbe, 0x6d, 0x6e, 0x72, 0x3e, 0x3a, 0xcd, 0xa9, 0xbe, 0x05, 0xd6, 0xb7, 0xbe, 0xf0, 0x0c, 0xa0, 0xbe, 0x82, 0x02, 0xc7, 0xbd, 0xf8, 0x7c, 0x6e, 0x3c, 0x1e, 0xb9, 0xfc, 0xbd, 0x77, 0x4b, 0x51, 0xbd, 0xa3, 0x24, 0x38, 0x3e, 0x3b, 0xab, 0x72, 0xbe, 0x38, 0x40, 0x50, 0xbe, 0x37, 0xef, 0xde, 0xbe, 0xd1, 0xd9, 0x86, 0xbc, 0xb6, 0x50, 0x46, 0xbd, 0x46, 0x50, 0x78, 0x3d, 0x80, 0xf9, 0xab, 0x3d, 0xd9, 0xbd, 0xa0, 0x3e, 0x66, 0x96, 0xe7, 0xbb, 0xaf, 0xad, 0xfb, 0x3d, 0xfa, 0x1f, 0xa7, 0xbe, 0x9e, 0x24, 0x12, 0x3e, 0x96, 0x4b, 0xde, 0xbe, 0x24, 0x3c, 0x8e, 0xbe, 0xd1, 0xe2, 0x41, 0xbe, 0x52, 0x55, 0xd4, 0x3e, 0x28, 0x42, 0x63, 0xbe, 0x28, 0x0b, 0xa0, 0x3d, 0xc2, 0x4b, 0x36, 0xbe, 0x0a, 0x1d, 0x5d, 0x3e, 0xff, 0x9b, 0x09, 0xbd, 0x9a, 0x7b, 0xc6, 0xbd, 0x7e, 0xcb, 0x86, 0xbd, 0x0a, 0x86, 0xa8, 0x3e, 0x4b, 0xfe, 0x88, 0xbe, 0x89, 0x35, 0x29, 0xbe, 0x83, 0x6c, 0xca, 0xbe, 0x15, 0x69, 0xa6, 0x3e, 0x4e, 0xe3, 0xff, 0xff, 0x04, 0x00, 0x00, 0x00, 0x40, 0x02, 0x00, 0x00, 0x65, 0x1b, 0xdc, 0xbd, 0x65, 0xd4, 0x8e, 0x3d, 0xaf, 0xfc, 0x70, 0x3e, 0x02, 0xf3, 0x0a, 0xbe, 0x69, 0x6c, 0x38, 0xbe, 0x1e, 0x76, 0xa0, 0xba, 0x25, 0x55, 0xe8, 0xbd, 0x74, 0xab, 0x69, 0x3d, 0x66, 0xb1, 0x20, 0x3e, 0xe3, 0x13, 0xbf, 0x3e, 0x0e, 0x3e, 0x10, 0x3d, 0x37, 0x8c, 0x0b, 0xbd, 0x6e, 0xca, 0x19, 0xbe, 0x12, 0x95, 0x33, 0x3d, 0xc3, 0xe6, 0xac, 0xbe, 0x22, 0xa0, 0x8d, 0xbd, 0x34, 0xd9, 0xce, 0xbd, 0xce, 0xe2, 0xd9, 0x3d, 0x34, 0x10, 0x49, 0x3c, 0xc1, 0xfa, 0x73, 0x3d, 0xa4, 0xec, 0xe8, 0xbe, 0xc4, 0x92, 0x09, 0x3e, 0xf2, 0xe4, 0xcf, 0xbe, 0x9a, 0xc3, 0xa6, 0x3d, 0x5a, 0x9b, 0x19, 0xbe, 0x97, 0x10, 0xc7, 0x3d, 0xa9, 0x6f, 0xa9, 0xbe, 0x49, 0x56, 0xad, 0x3e, 0x1a, 0x68, 0x8a, 0x3b, 0x36, 0x24, 0xbf, 0xbe, 0x2f, 0x76, 0x3f, 0xbe, 0x14, 0x95, 0x3d, 0x3e, 0x5d, 0xd2, 0x84, 0xbe, 0x68, 0x6e, 0xb6, 0xbe, 0xf4, 0x1b, 0x73, 0xbe, 0x23, 0xc6, 0x87, 0xbe, 0xf3, 0xc4, 0x63, 0xbe, 0xc7, 0x78, 0x84, 0xbe, 0xd1, 0xab, 0xc7, 0xbd, 0x28, 0x3e, 0x8e, 0x3e, 0x85, 0xa4, 0xbc, 0x3e, 0x31, 0x7d, 0x72, 0xbd, 0x91, 0x00, 0x5e, 0x3e, 0x19, 0xd6, 0x3d, 0x3e, 0x29, 0x44, 0x91, 0x3d, 0xed, 0x51, 0x19, 0xbe, 0x6f, 0x56, 0x88, 0x3d, 0x42, 0x18, 0x1c, 0x3e, 0x6c, 0xa6, 0x9c, 0xb7, 0xcb, 0x71, 0x29, 0xbe, 0x1c, 0xb1, 0x90, 0x3d, 0x8c, 0x93, 0xba, 0xbe, 0x87, 0x77, 0xd6, 0xbe, 0x52, 0xf1, 0xc5, 0x3e, 0x34, 0xb2, 0x1a, 0xba, 0x16, 0x99, 0x5b, 0xbe, 0x80, 0x87, 0x80, 0x3e, 0x17, 0x1d, 0x6f, 0x3d, 0xad, 0xcc, 0x64, 0x3d, 0x0a, 0xe1, 0xde, 0x3c, 0x6d, 0x0b, 0x39, 0x3e, 0x16, 0x97, 0x05, 0xbe, 0x9a, 0xe2, 0x71, 0xbe, 0xd3, 0x12, 0xda, 0x3c, 0x6a, 0x82, 0xc3, 0xbd, 0x39, 0x2c, 0x19, 0xbe, 0x23, 0x7c, 0xf9, 0xbb, 0xf6, 0xd7, 0xb7, 0x3d, 0xcd, 0xb9, 0xb8, 0xbd, 0x37, 0x5a, 0x86, 0xbd, 0x87, 0xb0, 0x56, 0xbe, 0x15, 0xba, 0x91, 0x3e, 0xc9, 0xc3, 0x82, 0xbe, 0xcf, 0xf3, 0x03, 0x3e, 0x10, 0x13, 0x96, 0xbe, 0x46, 0x95, 0x32, 0xbe, 0xbb, 0x14, 0x7a, 0x3e, 0xce, 0x9c, 0xac, 0xbe, 0x5b, 0xe5, 0xc8, 0xbd, 0x62, 0xcf, 0x3a, 0x3e, 0x97, 0x45, 0xa6, 0xbe, 0x57, 0x58, 0x85, 0xbe, 0xc3, 0x96, 0x71, 0xbe, 0xb2, 0x30, 0x1d, 0xbe, 0x6a, 0x89, 0x2f, 0x3d, 0x8d, 0x35, 0x9b, 0xbc, 0x52, 0x18, 0x91, 0x3c, 0x0c, 0x54, 0x37, 0xbe, 0xe7, 0x0e, 0x20, 0x3c, 0x2d, 0x10, 0xe0, 0xbd, 0xcd, 0x0a, 0xef, 0x3d, 0xf4, 0x13, 0x87, 0xbe, 0x8f, 0xc9, 0xa4, 0x3e, 0x09, 0x6a, 0x92, 0x3d, 0xe8, 0x6e, 0x84, 0xbd, 0x5d, 0xbf, 0x51, 0xbe, 0xb5, 0xae, 0x8c, 0x3e, 0x5c, 0xce, 0x67, 0x3e, 0xd2, 0x92, 0xa0, 0x3c, 0xe3, 0xed, 0x11, 0x3e, 0x19, 0x71, 0xe5, 0xbe, 0x62, 0x98, 0x0e, 0xbd, 0xf2, 0x86, 0x2c, 0x3c, 0xcd, 0xb6, 0x8d, 0xbe, 0x04, 0x73, 0xab, 0x3d, 0x7a, 0x6a, 0x29, 0xbe, 0xfc, 0x07, 0x88, 0x3e, 0xbc, 0xb2, 0x97, 0xbd, 0xa6, 0x3d, 0x96, 0xbd, 0x8a, 0xcd, 0xb5, 0xbe, 0xee, 0xf0, 0xfe, 0xbd, 0xb8, 0xf6, 0xa7, 0x3d, 0x38, 0x5b, 0x7c, 0x3e, 0x35, 0xa3, 0xfd, 0x3d, 0x65, 0x32, 0xd5, 0x3d, 0x12, 0x26, 0xca, 0x3d, 0xf9, 0xe3, 0x8e, 0xbe, 0x54, 0x07, 0x1f, 0xbe, 0xd8, 0xfb, 0x39, 0xbe, 0xd4, 0xd9, 0xa0, 0x3e, 0x8e, 0xbb, 0x9f, 0x3e, 0x66, 0xf7, 0x27, 0xbe, 0x93, 0x82, 0xb0, 0x3d, 0x31, 0xb3, 0xa5, 0x3e, 0x40, 0x89, 0x83, 0x3e, 0xea, 0x80, 0x9e, 0xbe, 0x65, 0x0b, 0xa3, 0xbe, 0x9f, 0xdc, 0x65, 0xbd, 0x39, 0xf6, 0xb0, 0xbd, 0xdd, 0xe6, 0xb5, 0xbe, 0x46, 0x41, 0xbb, 0xbd, 0xa6, 0x73, 0xc6, 0x3d, 0x27, 0xea, 0x21, 0x3d, 0x6e, 0x3f, 0xc2, 0x3b, 0xf2, 0xa3, 0x9b, 0x3d, 0x88, 0x03, 0x28, 0x3e, 0xcb, 0x00, 0xdc, 0xbe, 0x9d, 0x58, 0xc4, 0xbd, 0x15, 0xf4, 0xaf, 0x3e, 0xde, 0x60, 0x7f, 0xbe, 0xd7, 0x2f, 0xa6, 0x3e, 0x25, 0x47, 0xb7, 0xbd, 0x4c, 0xdf, 0xa5, 0x3e, 0xc6, 0xf6, 0x0f, 0x3d, 0x9a, 0xe5, 0xff, 0xff, 0x04, 0x00, 0x00, 0x00, 0x40, 0x02, 0x00, 0x00, 0xb7, 0x53, 0xae, 0xbe, 0xde, 0xa3, 0xab, 0xbe, 0x9d, 0xa4, 0xda, 0xbe, 0x29, 0xfb, 0xa0, 0x3d, 0x2a, 0xea, 0x75, 0x3d, 0xa3, 0xc7, 0x27, 0xbe, 0x06, 0xb1, 0xbe, 0xbe, 0x13, 0x27, 0x01, 0xbe, 0x8d, 0xa0, 0x7d, 0xbe, 0x40, 0x80, 0x6b, 0x3d, 0xb5, 0x40, 0xb2, 0xbd, 0x86, 0x8a, 0xd0, 0x3e, 0xd2, 0x6d, 0x9b, 0x3d, 0xb8, 0x00, 0x01, 0x3e, 0x20, 0x18, 0xf7, 0xbe, 0x1c, 0x33, 0xbf, 0x3e, 0x60, 0xfb, 0x55, 0x3c, 0x61, 0x53, 0x33, 0xbe, 0x42, 0x6f, 0xfe, 0x3d, 0xa3, 0x7d, 0x63, 0xbe, 0x3a, 0xc1, 0xae, 0xbe, 0x19, 0x31, 0xbb, 0xbe, 0x61, 0x3e, 0x42, 0xbe, 0x43, 0xd2, 0xfe, 0x3d, 0x4e, 0xb9, 0x3f, 0x3e, 0x55, 0xee, 0x8d, 0xbe, 0xfd, 0xf2, 0xd0, 0xbe, 0x39, 0x9f, 0x3f, 0x3e, 0xe4, 0x5f, 0xdd, 0x3e, 0x66, 0x9d, 0xef, 0xbe, 0xd9, 0x28, 0xe9, 0xbe, 0x3f, 0x3f, 0xd1, 0x3e, 0xaf, 0x9d, 0x9b, 0xbc, 0xa4, 0x4b, 0x55, 0x3d, 0xce, 0xef, 0xa7, 0x3d, 0xce, 0x19, 0xcb, 0x3e, 0x2f, 0xfa, 0xb5, 0x3d, 0xed, 0xc4, 0x80, 0xbe, 0x8a, 0x7e, 0x65, 0xbd, 0x1e, 0xc8, 0x65, 0xbd, 0x1e, 0xcf, 0x7d, 0x3e, 0xb4, 0xde, 0xdb, 0xbe, 0x54, 0x5a, 0xd9, 0xba, 0xec, 0x9c, 0xdc, 0xbd, 0xa6, 0x65, 0xe4, 0x3d, 0x3a, 0x08, 0x32, 0xbe, 0x6f, 0x8f, 0x9b, 0xbe, 0x5e, 0x5b, 0x51, 0xbd, 0x21, 0x85, 0xbc, 0xbd, 0x0d, 0xfb, 0x32, 0xbe, 0x7a, 0xeb, 0xaa, 0xbe, 0x96, 0xc7, 0xb6, 0x3e, 0x45, 0xb8, 0x8c, 0xbc, 0x5c, 0xe6, 0x02, 0xbf, 0x54, 0x7f, 0x91, 0x3c, 0xe5, 0xbc, 0x40, 0xbd, 0xf5, 0xe4, 0x1b, 0x3e, 0xd1, 0x4c, 0x1b, 0xbe, 0x8c, 0x63, 0xa3, 0xbe, 0x76, 0x14, 0xaf, 0x3c, 0xb4, 0x85, 0x1e, 0x3e, 0xfa, 0x74, 0x0c, 0xbe, 0x65, 0xf3, 0x69, 0x3d, 0x8f, 0x72, 0x8b, 0x3e, 0x61, 0x7e, 0x5b, 0x3e, 0x8a, 0x79, 0x13, 0xbe, 0x5a, 0x2e, 0x54, 0xbd, 0xa9, 0xa8, 0xc1, 0x3e, 0xea, 0x6f, 0xc2, 0x3d, 0x01, 0xb2, 0x77, 0xbe, 0x98, 0xeb, 0xbc, 0xbe, 0x08, 0xf8, 0x93, 0xbd, 0x59, 0x0a, 0x17, 0x3e, 0x9d, 0x62, 0xb8, 0x3c, 0xeb, 0x73, 0x8f, 0x3c, 0x77, 0xca, 0xe0, 0x3d, 0xcd, 0xff, 0xcd, 0x3e, 0x8e, 0xd1, 0x5e, 0xbe, 0xb1, 0xf2, 0x3f, 0xbe, 0xd5, 0x33, 0xb5, 0x3e, 0x1a, 0x1f, 0x91, 0xbd, 0x27, 0x4d, 0x48, 0xbd, 0xa7, 0x51, 0x64, 0xbe, 0xf1, 0x22, 0x9d, 0x3c, 0x08, 0x09, 0xee, 0x3d, 0x18, 0x47, 0x94, 0xbe, 0xa0, 0xad, 0x63, 0xbd, 0xf9, 0x07, 0x0a, 0x3e, 0xa8, 0xb4, 0x88, 0x3d, 0x41, 0xa2, 0x12, 0x3b, 0xc4, 0xae, 0x86, 0xbd, 0xd7, 0x3b, 0xc3, 0x3e, 0x53, 0x76, 0x07, 0x3e, 0x9b, 0xc6, 0xa1, 0xbe, 0x23, 0xd5, 0xd7, 0xbe, 0xcf, 0xc9, 0xcd, 0x3e, 0xb0, 0xb7, 0xa8, 0x3d, 0x27, 0x6e, 0x97, 0xbe, 0x1f, 0x06, 0x84, 0xbe, 0x10, 0xb1, 0xa7, 0x3d, 0xb3, 0x32, 0x56, 0x3e, 0x8e, 0xca, 0xb3, 0x3c, 0x8a, 0x71, 0x9f, 0xbe, 0x25, 0xf8, 0x04, 0xbc, 0x82, 0xe2, 0x4c, 0x3e, 0xb7, 0x7d, 0x7e, 0xbe, 0x41, 0x77, 0x9c, 0xbd, 0xeb, 0xbb, 0x14, 0xbe, 0xa5, 0xa9, 0x86, 0xbd, 0x4d, 0x81, 0x85, 0xbe, 0x02, 0xd8, 0x3b, 0xbe, 0xce, 0x17, 0x9d, 0x3e, 0xb5, 0x69, 0xce, 0x3e, 0x02, 0x85, 0x65, 0xbe, 0x6c, 0x04, 0x01, 0xbd, 0x88, 0xfe, 0x4a, 0xbe, 0x94, 0x73, 0x1e, 0x3e, 0x52, 0xf1, 0xae, 0xbd, 0x2c, 0xb1, 0x79, 0x3e, 0x47, 0x6a, 0xb9, 0x3e, 0x57, 0xf7, 0x91, 0x3d, 0x73, 0xa9, 0x4b, 0x3c, 0xdf, 0xde, 0xf9, 0xbe, 0x19, 0xac, 0xc2, 0x3d, 0xdb, 0x23, 0xdf, 0x3e, 0x8f, 0x05, 0xbf, 0xbe, 0x79, 0x0f, 0xaf, 0x3d, 0xf0, 0x64, 0x12, 0xbd, 0x59, 0x16, 0x9b, 0x3d, 0x6e, 0x32, 0xc9, 0xbe, 0x2d, 0x2f, 0x82, 0xbd, 0x21, 0xe8, 0xdc, 0x3e, 0x8c, 0xf1, 0xb0, 0xbd, 0x9a, 0xe9, 0xc2, 0xbd, 0x69, 0xf5, 0xd9, 0xbe, 0xb1, 0xe7, 0x47, 0xbd, 0x53, 0x7f, 0xa9, 0x3e, 0x6b, 0x75, 0xf6, 0xbe, 0x4e, 0x3f, 0x81, 0xbe, 0x04, 0x99, 0xb7, 0x3c, 0xcb, 0x0f, 0x2a, 0xbe, 0xdd, 0x79, 0x82, 0xbe, 0x86, 0x1b, 0x6b, 0x3e, 0xff, 0xee, 0x3c, 0xbe, 0xe6, 0xe7, 0xff, 0xff, 0x04, 0x00, 0x00, 0x00, 0x40, 0x02, 0x00, 0x00, 0x96, 0x7c, 0x48, 0x3d, 0x0e, 0x3b, 0xb2, 0xbe, 0x75, 0x52, 0xa1, 0xbe, 0xbf, 0xcb, 0x9c, 0x3d, 0x80, 0x41, 0x85, 0xbc, 0x7e, 0xa0, 0xe4, 0xbe, 0xc1, 0x95, 0x1b, 0x3e, 0xe8, 0x16, 0xb3, 0x3e, 0x37, 0xa0, 0x27, 0xbd, 0xa9, 0x63, 0x9b, 0xbe, 0xd6, 0xe2, 0x4c, 0xbe, 0x28, 0xd3, 0xa9, 0x3e, 0x4e, 0xaf, 0x97, 0xbe, 0xb3, 0x43, 0x3d, 0xbc, 0x86, 0x69, 0x69, 0x3d, 0xd3, 0x0d, 0x09, 0x3e, 0x8c, 0xc8, 0x6d, 0x3e, 0xf3, 0x5c, 0x75, 0xbd, 0xb0, 0xbb, 0x9e, 0xbc, 0xd4, 0xc7, 0x4a, 0x3d, 0x05, 0x5c, 0xb4, 0xbd, 0x54, 0xbe, 0xfc, 0xbd, 0x7e, 0xd8, 0x63, 0x3d, 0x46, 0x76, 0x9a, 0x3e, 0x3f, 0x59, 0x06, 0xbe, 0xa2, 0x82, 0x40, 0x3d, 0xc1, 0xc0, 0x9a, 0xbe, 0xe7, 0x88, 0x7f, 0x3e, 0xbf, 0xb1, 0x89, 0x3d, 0x3c, 0x05, 0x00, 0xbe, 0xce, 0x8f, 0xe4, 0xbe, 0x87, 0x51, 0x1b, 0x3e, 0x86, 0x06, 0x81, 0xbe, 0xa6, 0x1a, 0x11, 0xbd, 0xfd, 0xf4, 0xd9, 0xbe, 0xcf, 0xfc, 0x2f, 0xbe, 0x3a, 0xaa, 0x47, 0xbd, 0xbd, 0x28, 0xc7, 0xbe, 0xa4, 0xa7, 0xb2, 0xba, 0x8b, 0xcb, 0xcb, 0x3d, 0x24, 0x70, 0x6b, 0x3d, 0x8c, 0x76, 0x06, 0xbe, 0xcc, 0xaf, 0x01, 0xbc, 0x33, 0x28, 0x3e, 0xbd, 0xda, 0x58, 0xc8, 0xbe, 0x01, 0x8a, 0x1f, 0x3c, 0xb4, 0x76, 0xdc, 0xbe, 0x04, 0xe3, 0x0e, 0x3d, 0x2b, 0x60, 0x3c, 0x3e, 0xed, 0x3f, 0x8f, 0xbe, 0x21, 0x2d, 0xa0, 0xbd, 0xb7, 0xb0, 0xc1, 0x3d, 0xf2, 0x6a, 0xda, 0x3d, 0xa2, 0xb8, 0x98, 0xbd, 0xe3, 0x3a, 0x00, 0x3d, 0xf6, 0x5d, 0x0b, 0x3e, 0x4a, 0x2a, 0x9a, 0xbc, 0x18, 0x68, 0x94, 0xbe, 0x41, 0x03, 0x0b, 0xbd, 0x4c, 0x63, 0xfb, 0x3d, 0xaf, 0xfb, 0x46, 0xbd, 0x6a, 0x6c, 0xc6, 0x3d, 0x3f, 0x9b, 0x9b, 0xbe, 0x6d, 0x4c, 0x55, 0xbd, 0x95, 0xfe, 0xe9, 0x3d, 0xf0, 0x56, 0x56, 0xbe, 0x5a, 0xb2, 0xe7, 0xbe, 0xf1, 0xb3, 0x72, 0x3e, 0x66, 0x42, 0x81, 0x3d, 0x91, 0x18, 0x51, 0x3d, 0x72, 0xff, 0x02, 0xbd, 0x9b, 0x6b, 0xd8, 0x3e, 0x04, 0x2f, 0x65, 0xbe, 0x63, 0x22, 0xe9, 0xbe, 0x8f, 0x91, 0xd0, 0xbb, 0x28, 0x84, 0x17, 0xbe, 0x31, 0x39, 0xe5, 0x3b, 0xa8, 0x6f, 0xc1, 0xbe, 0x25, 0x6d, 0xe0, 0xbe, 0xb0, 0x7b, 0xdf, 0x3d, 0x08, 0x82, 0xb6, 0xbe, 0x85, 0x9c, 0x91, 0xbd, 0x23, 0x1b, 0x45, 0x3d, 0xf4, 0xb4, 0xd9, 0x3c, 0x7f, 0x8a, 0xe7, 0xbd, 0x69, 0x4b, 0xd4, 0xbe, 0x90, 0x6f, 0xdc, 0xbe, 0xa4, 0x63, 0xca, 0x3e, 0xdc, 0xd1, 0xc1, 0x3e, 0x3e, 0x84, 0x7f, 0xbd, 0x01, 0xce, 0xb4, 0xbd, 0xe7, 0x8c, 0x64, 0xbe, 0x9c, 0x59, 0x88, 0xbe, 0xb0, 0x36, 0xc0, 0x3b, 0x2b, 0x87, 0x64, 0xbe, 0x68, 0xdf, 0x0e, 0xbe, 0x06, 0x36, 0xcf, 0xbe, 0xf6, 0x3a, 0xc4, 0xbe, 0x1f, 0xd0, 0x02, 0x3d, 0x8d, 0x63, 0x6d, 0x3d, 0xb4, 0x7f, 0x09, 0x3e, 0x7b, 0x2d, 0x0d, 0x39, 0xd0, 0x70, 0x43, 0xbe, 0xdc, 0x49, 0xa8, 0x3e, 0x2f, 0xa5, 0xd2, 0xbe, 0x23, 0x1a, 0xc7, 0x3c, 0x91, 0xcc, 0x04, 0xbe, 0x1b, 0xba, 0xe8, 0x3e, 0xbc, 0x09, 0xf2, 0xbd, 0xf7, 0x5c, 0x33, 0x3d, 0xe5, 0xdf, 0x46, 0xbd, 0x7a, 0x76, 0xbf, 0xbc, 0xc5, 0x5e, 0xda, 0x3e, 0xf0, 0xf1, 0xe1, 0xbd, 0xe1, 0xe5, 0xf2, 0x3a, 0x89, 0xc3, 0x93, 0x3e, 0x8f, 0xbe, 0xa4, 0xbe, 0xed, 0x70, 0x7d, 0xbe, 0xe4, 0x04, 0x1c, 0xbe, 0x4a, 0xee, 0xa7, 0x3e, 0x26, 0xef, 0xdc, 0xbc, 0x1b, 0x29, 0x9b, 0xbb, 0xb7, 0xb1, 0x71, 0xbe, 0xf6, 0xc6, 0xb8, 0x3e, 0xcf, 0x73, 0xed, 0x3e, 0x7f, 0x27, 0x9c, 0xbe, 0xe2, 0xbc, 0xf9, 0xbd, 0x44, 0x46, 0x94, 0xbc, 0xf2, 0x62, 0xad, 0xbd, 0xf5, 0xa0, 0x32, 0xbd, 0xe1, 0xf2, 0x71, 0xbe, 0x1a, 0x7a, 0x3e, 0xbd, 0xfb, 0xe3, 0x19, 0xbe, 0x8b, 0x40, 0xeb, 0xbe, 0x67, 0xb4, 0xeb, 0xbe, 0x8e, 0x51, 0x44, 0x3d, 0xd4, 0x85, 0xa2, 0x3e, 0xc6, 0xd4, 0xf8, 0xbd, 0xb6, 0x3d, 0x9a, 0xbe, 0x0f, 0x18, 0x17, 0xbe, 0x96, 0x4e, 0x45, 0x3c, 0x9a, 0x3a, 0xf3, 0x3c, 0x81, 0x8f, 0x33, 0xbe, 0x58, 0xb8, 0x46, 0x3e, 0x32, 0xea, 0xff, 0xff, 0x04, 0x00, 0x00, 0x00, 0x30, 0x00, 0x00, 0x00, 0xb8, 0x9f, 0x01, 0x3e, 0x5f, 0xda, 0x2b, 0x3e, 0x47, 0x55, 0x0b, 0x3e, 0x2c, 0x61, 0x0c, 0x3e, 0xac, 0xcf, 0x0a, 0x3e, 0x29, 0x85, 0xf8, 0x3d, 0xbd, 0xc2, 0x1e, 0x3e, 0xb1, 0x7c, 0xe9, 0x3d, 0xd4, 0xa1, 0x0a, 0x3e, 0xf3, 0x86, 0xcb, 0x3d, 0xdd, 0x23, 0x0e, 0x3e, 0x8e, 0x7c, 0x1c, 0x3e, 0x6e, 0xea, 0xff, 0xff, 0x04, 0x00, 0x00, 0x00, 0x30, 0x00, 0x00, 0x00, 0xe1, 0x22, 0xfb, 0xbc, 0x97, 0x13, 0x91, 0x3d, 0xd7, 0xbd, 0x04, 0xbd, 0x9b, 0x47, 0x48, 0x3c, 0xe6, 0xdc, 0x0b, 0x3b, 0xdc, 0x74, 0xbf, 0x3c, 0x34, 0xf1, 0x9a, 0xbc, 0xd5, 0x57, 0x18, 0xbb, 0x42, 0xbf, 0x8a, 0xbd, 0x26, 0xfe, 0x6f, 0xbd, 0x8e, 0xd3, 0x08, 0xbc, 0x07, 0x51, 0x2e, 0xbd, 0xaa, 0xea, 0xff, 0xff, 0x04, 0x00, 0x00, 0x00, 0x30, 0x00, 0x00, 0x00, 0x1e, 0x09, 0x8d, 0x3f, 0x9f, 0xca, 0x89, 0x3f, 0x78, 0x8f, 0x8c, 0x3f, 0xdd, 0x29, 0x93, 0x3f, 0x17, 0x8a, 0x8f, 0x3f, 0x36, 0x61, 0x8e, 0x3f, 0x99, 0x59, 0x8c, 0x3f, 0xa0, 0xfe, 0x8a, 0x3f, 0x81, 0xc3, 0x83, 0x3f, 0x4d, 0x0d, 0x8e, 0x3f, 0x8d, 0x48, 0x8f, 0x3f, 0x42, 0x21, 0x8a, 0x3f, 0xe6, 0xea, 0xff, 0xff, 0x04, 0x00, 0x00, 0x00, 0x30, 0x00, 0x00, 0x00, 0x69, 0xa7, 0x13, 0x3d, 0x49, 0x27, 0x02, 0x3e, 0xd4, 0x1b, 0xb2, 0x3d, 0x90, 0xef, 0xde, 0x3d, 0xbc, 0x72, 0xd5, 0x3d, 0xc0, 0x7b, 0xca, 0x3d, 0x76, 0x4c, 0x80, 0x3d, 0x9b, 0x59, 0x8a, 0x3d, 0x9e, 0x12, 0xb3, 0x3d, 0x62, 0x46, 0x2d, 0x3d, 0x48, 0x1a, 0xcb, 0x3d, 0xe6, 0x70, 0x0f, 0x3e, 0x22, 0xeb, 0xff, 0xff, 0x04, 0x00, 0x00, 0x00, 0x40, 0x02, 0x00, 0x00, 0x09, 0x11, 0xb1, 0xbd, 0xdf, 0x9f, 0xe1, 0x3e, 0x41, 0xa3, 0xba, 0x3e, 0x7b, 0xec, 0x8a, 0x3e, 0xb7, 0xc7, 0x7e, 0xbd, 0x0c, 0xb8, 0x4d, 0x3e, 0xc7, 0x03, 0x3d, 0x3e, 0xef, 0x0e, 0xcc, 0xbe, 0x88, 0x4f, 0x8b, 0xbe, 0xb2, 0x54, 0xa1, 0x3e, 0xa5, 0xaf, 0x98, 0x3d, 0x01, 0xcd, 0x67, 0xbe, 0x25, 0x20, 0x57, 0xbe, 0x0f, 0x55, 0x55, 0x3e, 0xd0, 0xdf, 0x76, 0x3e, 0x9a, 0x73, 0xb4, 0x3e, 0x80, 0xaa, 0xd1, 0xbe, 0xe7, 0xcb, 0x9a, 0x3e, 0xf3, 0xf4, 0x6b, 0x3e, 0x3a, 0xe6, 0xb9, 0xbe, 0x07, 0x39, 0x76, 0xbe, 0x95, 0x96, 0x14, 0x3e, 0xc7, 0xa7, 0xca, 0x3e, 0xdd, 0x49, 0x60, 0xbe, 0x17, 0x61, 0x43, 0xbe, 0xae, 0x02, 0x5b, 0x3e, 0xa6, 0x26, 0xc1, 0x3d, 0xa9, 0xe7, 0xa5, 0x3e, 0xc6, 0x92, 0x6a, 0xbe, 0x70, 0x2e, 0x9a, 0x3e, 0x3e, 0x00, 0x89, 0x3e, 0x8d, 0x5d, 0xeb, 0xbe, 0x6c, 0x78, 0x9f, 0xbe, 0x99, 0xec, 0x99, 0x3e, 0xc2, 0xdf, 0x71, 0x3e, 0x5e, 0x6d, 0x6c, 0xbe, 0x1a, 0x42, 0x86, 0xbe, 0x75, 0x5f, 0x88, 0x3e, 0x6c, 0xed, 0x89, 0x3e, 0xa9, 0x53, 0xb0, 0x3e, 0x0a, 0xb5, 0x8c, 0xbe, 0x0c, 0x9b, 0xc5, 0x3e, 0x9c, 0x78, 0x79, 0x3e, 0xed, 0x9f, 0x6f, 0xbe, 0xaa, 0xee, 0x15, 0xbe, 0xd7, 0xa1, 0x8f, 0x3e, 0x33, 0x9b, 0x33, 0x3e, 0x92, 0xa5, 0x88, 0xbc, 0x3a, 0x68, 0x3e, 0xbe, 0xa2, 0xc6, 0xb9, 0x3d, 0x3f, 0xc4, 0xc0, 0x3e, 0x83, 0xbc, 0xf6, 0xbd, 0xc0, 0x68, 0x0b, 0xbe, 0xd8, 0xec, 0x6b, 0x3e, 0x87, 0xa2, 0xe0, 0x3e, 0xfa, 0xb2, 0x07, 0xbe, 0x14, 0x66, 0xb3, 0xbe, 0x1d, 0xaa, 0xe5, 0x3e, 0x77, 0xf1, 0x98, 0x3e, 0x41, 0x5f, 0x00, 0xbe, 0xb2, 0xe3, 0x4c, 0xbe, 0x18, 0x86, 0x05, 0x3e, 0x5f, 0xef, 0x58, 0x3e, 0x72, 0x64, 0x03, 0x3e, 0x71, 0x7c, 0x4d, 0xbe, 0xcd, 0xcd, 0x64, 0x3e, 0x3c, 0xc0, 0xfc, 0x3d, 0xa6, 0x37, 0x91, 0xbe, 0x8a, 0xe6, 0xa3, 0xbe, 0xe7, 0xaa, 0xde, 0x3e, 0x0f, 0xa2, 0x81, 0x3e, 0x47, 0x37, 0xcb, 0xbe, 0x66, 0xf5, 0xbc, 0xbe, 0x88, 0xbb, 0x8f, 0xbd, 0xba, 0xfe, 0x44, 0x3d, 0xf7, 0x66, 0x08, 0xbd, 0x4f, 0x6d, 0x06, 0xbf, 0xc7, 0x70, 0x84, 0xbd, 0xd2, 0x1e, 0x63, 0x3e, 0x1e, 0x7e, 0x73, 0xbe, 0x09, 0x03, 0x46, 0xbe, 0xb8, 0xe7, 0xef, 0x3e, 0x47, 0x21, 0x4a, 0x3e, 0x7b, 0x17, 0x59, 0xbe, 0xc9, 0x30, 0xa1, 0xbe, 0x6f, 0x13, 0x69, 0x3e, 0x6f, 0xfc, 0x93, 0xbb, 0x1e, 0xd3, 0x1b, 0x3e, 0xb6, 0xbc, 0x4e, 0xbe, 0x39, 0xaf, 0x8f, 0x3e, 0xe2, 0x95, 0xd0, 0x3e, 0x09, 0xa0, 0x35, 0xbe, 0x0d, 0xb3, 0x00, 0xbe, 0x5a, 0x26, 0x9e, 0x3e, 0xd0, 0x21, 0xab, 0x3e, 0xdb, 0x76, 0x78, 0xbe, 0x26, 0x02, 0xd1, 0xbe, 0x8a, 0xb0, 0xd2, 0x3e, 0x39, 0x3e, 0x00, 0x3e, 0x67, 0x46, 0xd2, 0x3e, 0x68, 0x05, 0x06, 0xbe, 0x4e, 0xe4, 0xb6, 0x3e, 0x73, 0xa2, 0x93, 0x3e, 0x58, 0x79, 0x08, 0x3d, 0x73, 0xb5, 0x17, 0xbe, 0xd1, 0x54, 0x83, 0x3e, 0x14, 0xde, 0x0c, 0x3d, 0x70, 0x6b, 0xdc, 0xbd, 0x0c, 0x00, 0xa9, 0xbe, 0xdf, 0xa0, 0x80, 0x3e, 0x68, 0x76, 0x18, 0x3e, 0x17, 0x08, 0xe1, 0x3d, 0x9c, 0xe2, 0x11, 0xbe, 0x92, 0xf9, 0xe6, 0x3e, 0x96, 0x2d, 0x1f, 0x3e, 0x59, 0x1e, 0xe2, 0xbd, 0xc1, 0x87, 0x96, 0xbe, 0x7f, 0x5a, 0xf3, 0x3e, 0xd2, 0x4a, 0x80, 0x3e, 0x14, 0xaa, 0x04, 0xbf, 0xe8, 0x2b, 0x01, 0xbe, 0xc2, 0x2b, 0x26, 0x3e, 0xc3, 0x1f, 0x06, 0x3f, 0x52, 0x6b, 0xca, 0x3e, 0xab, 0x03, 0xa4, 0xbe, 0x57, 0xd1, 0x9d, 0x3d, 0x0f, 0x10, 0xb6, 0x3e, 0xf4, 0x73, 0x8c, 0xbe, 0x14, 0x26, 0xd2, 0xbd, 0x2e, 0x7e, 0x47, 0x3d, 0x22, 0x36, 0x6e, 0x3e, 0x3b, 0xe8, 0xa1, 0xbe, 0x16, 0xd9, 0xda, 0xbe, 0x13, 0x98, 0x79, 0x3e, 0x47, 0x18, 0x32, 0x3e, 0xa4, 0xd7, 0x84, 0x3e, 0x88, 0xb5, 0xc8, 0xbe, 0xeb, 0xd9, 0xaa, 0x3e, 0x05, 0x51, 0x57, 0x3e, 0xb7, 0x99, 0x39, 0x3d, 0x6f, 0xa2, 0x73, 0xbe, 0x48, 0x7b, 0xa1, 0x3e, 0x3d, 0x38, 0x00, 0x3f, 0x9a, 0xc4, 0x88, 0xbe, 0x6e, 0xed, 0xff, 0xff, 0x04, 0x00, 0x00, 0x00, 0x40, 0x02, 0x00, 0x00, 0x6f, 0x74, 0x17, 0x3e, 0xa2, 0x47, 0x1f, 0xbe, 0x60, 0x8d, 0x3b, 0xbc, 0x5e, 0x7d, 0x46, 0xbe, 0xf8, 0x0b, 0xda, 0xbd, 0xf7, 0x4d, 0x89, 0x3d, 0x75, 0xbf, 0x1e, 0xbe, 0x40, 0x7a, 0x3f, 0x3e, 0x03, 0x91, 0x92, 0xbe, 0x3c, 0x55, 0x1e, 0xbe, 0x37, 0xc6, 0x06, 0xbe, 0x42, 0x0d, 0x8c, 0x3e, 0xea, 0xf1, 0x81, 0xbb, 0x0b, 0xf4, 0xad, 0x3d, 0xeb, 0xd8, 0x4b, 0x3e, 0x96, 0x33, 0x57, 0x3e, 0x5a, 0xbc, 0xd4, 0x3d, 0x3e, 0x30, 0x0f, 0x3e, 0x8c, 0x6b, 0xb4, 0x3e, 0xab, 0x94, 0x86, 0xbe, 0x68, 0xd4, 0x0d, 0xbe, 0x9c, 0x6c, 0x9c, 0x3e, 0xa6, 0x5e, 0x01, 0x3f, 0xcc, 0x69, 0x88, 0x3e, 0xda, 0xac, 0x94, 0xbe, 0xfd, 0xf9, 0x95, 0xbe, 0x03, 0x08, 0x60, 0x3e, 0xb9, 0xa4, 0x7f, 0x3e, 0x33, 0x5a, 0x8c, 0xbd, 0x87, 0x16, 0x2b, 0x3e, 0x8e, 0x84, 0x9d, 0xbc, 0xb0, 0x0f, 0x85, 0xbd, 0x54, 0x05, 0x8a, 0x3e, 0x8f, 0x11, 0x6b, 0x3e, 0x69, 0x2a, 0x32, 0xbd, 0x02, 0xa7, 0x80, 0x3e, 0x39, 0xf5, 0x06, 0x3d, 0xe4, 0xfb, 0x5b, 0xbd, 0x72, 0x7f, 0xf3, 0xbe, 0xef, 0x64, 0xb8, 0x3e, 0xde, 0x02, 0x37, 0xbe, 0x3c, 0x99, 0xda, 0xbd, 0xf4, 0x8c, 0x05, 0x3d, 0x19, 0xe9, 0x5f, 0xbe, 0xd9, 0xa0, 0x3d, 0xbe, 0x8a, 0x2f, 0x72, 0x3e, 0x55, 0x71, 0x8c, 0x3e, 0xa6, 0x48, 0xc6, 0x3b, 0x36, 0x9d, 0x8e, 0x3d, 0xd2, 0x0c, 0x45, 0x3e, 0x11, 0x17, 0x77, 0xbe, 0x63, 0x4d, 0x79, 0xbe, 0xe2, 0xca, 0x45, 0x3e, 0x1f, 0xb9, 0x28, 0x3e, 0xed, 0x0d, 0x20, 0xbe, 0xae, 0x3d, 0x93, 0x3e, 0xf0, 0xfa, 0x6f, 0xbd, 0xbe, 0xa9, 0x59, 0xbd, 0x55, 0xac, 0x2f, 0xbe, 0x1e, 0x7b, 0x12, 0xbe, 0xce, 0xf0, 0x38, 0xbe, 0x7f, 0x1c, 0x17, 0x3e, 0x68, 0x18, 0x26, 0x3e, 0x0d, 0xcf, 0xca, 0xbd, 0x3c, 0x29, 0xc7, 0xbd, 0x3d, 0x16, 0xff, 0x3d, 0xb7, 0x97, 0xab, 0x3e, 0x00, 0x82, 0x59, 0x3c, 0x01, 0xcc, 0xe4, 0x3a, 0x52, 0xe9, 0x81, 0xbc, 0x3f, 0x00, 0x2a, 0x3e, 0x9b, 0xce, 0x0b, 0xbc, 0x79, 0x54, 0xd7, 0x3d, 0xfd, 0x23, 0xa0, 0x3d, 0xbb, 0x5c, 0x70, 0x3e, 0xd9, 0x2f, 0xab, 0x3e, 0xd9, 0x68, 0x1f, 0xbe, 0x8c, 0xfd, 0xd4, 0xbd, 0x8a, 0x46, 0x2b, 0xbd, 0xaa, 0xa5, 0xdc, 0x3c, 0x82, 0x38, 0x4a, 0xbd, 0x17, 0xc9, 0x5a, 0x3e, 0x95, 0x48, 0x53, 0x3d, 0x21, 0x5d, 0xd9, 0xbd, 0x66, 0x3c, 0x92, 0x3e, 0x21, 0x47, 0x42, 0x3e, 0x5d, 0xea, 0xd2, 0xbd, 0xae, 0x01, 0xa1, 0xbe, 0x5a, 0x1e, 0x22, 0x3e, 0xe1, 0x11, 0x1a, 0xbe, 0x34, 0x33, 0x46, 0xbe, 0xe2, 0xd9, 0x55, 0x3e, 0x7b, 0x90, 0x4e, 0xbe, 0x66, 0x54, 0x84, 0xbd, 0x69, 0x12, 0x10, 0xbe, 0xef, 0x77, 0x27, 0x3d, 0x63, 0xd3, 0xfc, 0x3e, 0x8e, 0x9e, 0x1c, 0xbe, 0xb5, 0xda, 0x2c, 0xbe, 0x17, 0x67, 0xc5, 0xbb, 0xbe, 0xd5, 0x34, 0x3e, 0x9b, 0x5b, 0x6b, 0x3c, 0xc8, 0x7d, 0x03, 0xbe, 0x0a, 0xf8, 0x18, 0x3e, 0xd8, 0xd2, 0xd1, 0x3b, 0xb4, 0xf5, 0x57, 0xbe, 0xaf, 0xbe, 0x7f, 0x3c, 0xeb, 0xe2, 0x3e, 0xbe, 0xae, 0x74, 0xed, 0xba, 0x89, 0x65, 0x2c, 0xbe, 0xbb, 0xea, 0xd1, 0x3d, 0x9d, 0x89, 0x4b, 0x3e, 0x46, 0x8e, 0x55, 0xbc, 0x11, 0x85, 0x39, 0xbe, 0x20, 0x16, 0xb7, 0x3d, 0x4b, 0x75, 0x4e, 0x3e, 0x41, 0xca, 0x9c, 0xbe, 0x5a, 0xe0, 0x94, 0x3e, 0x3a, 0x7b, 0xf6, 0xbd, 0x81, 0xfd, 0x65, 0xbe, 0x0c, 0x28, 0x18, 0x3e, 0xbc, 0x2e, 0x1d, 0xbe, 0xf3, 0x58, 0xaa, 0xbd, 0x78, 0x70, 0x80, 0x3b, 0x1d, 0xea, 0x1b, 0xbd, 0x55, 0x95, 0x02, 0x3e, 0xd3, 0xcc, 0x5d, 0x3e, 0x8f, 0x2a, 0x62, 0xbe, 0x20, 0x31, 0xc8, 0x3d, 0x81, 0x5f, 0xb0, 0x3e, 0x38, 0x33, 0x4e, 0xbe, 0x33, 0x5f, 0x68, 0x3e, 0xeb, 0x04, 0xa6, 0x3e, 0x6c, 0xbf, 0x08, 0xbe, 0x8b, 0x08, 0x93, 0xbd, 0x06, 0xef, 0x81, 0xbe, 0x0b, 0xbf, 0x43, 0xbd, 0xe9, 0x50, 0x29, 0x3a, 0xf4, 0x97, 0x26, 0xbd, 0xb7, 0xde, 0x4d, 0x3d, 0xa3, 0x4c, 0xf4, 0xbd, 0xec, 0xf1, 0xb5, 0xbe, 0x59, 0x1f, 0x56, 0xbe, 0x67, 0x45, 0x11, 0x3e, 0xba, 0xef, 0xff, 0xff, 0x04, 0x00, 0x00, 0x00, 0x40, 0x02, 0x00, 0x00, 0x72, 0xfb, 0x8b, 0xbe, 0xc7, 0xe3, 0x93, 0x3e, 0x6f, 0x04, 0x12, 0x3e, 0xfc, 0x7a, 0x05, 0xbe, 0xf5, 0xf5, 0xc6, 0xbd, 0x98, 0xfb, 0x2c, 0x3d, 0x5c, 0xe2, 0xff, 0x3d, 0x9c, 0x4c, 0xb7, 0xbe, 0xa1, 0x68, 0x91, 0xbe, 0xdb, 0x34, 0x3a, 0x3d, 0x8b, 0x47, 0x8e, 0x3e, 0xd9, 0xca, 0x40, 0xbe, 0xa5, 0xbd, 0xbb, 0xbd, 0xf2, 0x83, 0x6b, 0x3e, 0x5f, 0xd0, 0x3c, 0x3e, 0x9d, 0x19, 0x94, 0xbd, 0x19, 0xdb, 0x72, 0x3c, 0x61, 0xd0, 0x8c, 0x3e, 0xf9, 0x9e, 0x68, 0x3c, 0x90, 0x81, 0xa4, 0xbe, 0xb4, 0x88, 0x2e, 0xbe, 0xb9, 0xc4, 0x6e, 0x3e, 0x32, 0x7a, 0xaf, 0x3e, 0x4e, 0x6e, 0x66, 0xbe, 0x56, 0x2a, 0x21, 0xbe, 0xa6, 0x9b, 0xa1, 0x3b, 0x8b, 0x34, 0x88, 0x3d, 0x5e, 0xdc, 0xe6, 0x3d, 0xae, 0xb4, 0xcd, 0xba, 0x0b, 0x23, 0x08, 0x3e, 0x27, 0x65, 0x9d, 0xbc, 0x55, 0x17, 0x66, 0xbe, 0x0a, 0x3c, 0x98, 0x3b, 0xa3, 0x47, 0xff, 0xbc, 0x5e, 0x32, 0x66, 0x3e, 0xb8, 0xa7, 0xa9, 0xbe, 0x8b, 0xfc, 0xd1, 0xbd, 0x92, 0x5d, 0x81, 0x3e, 0x5b, 0x7c, 0x61, 0x3e, 0x76, 0x36, 0x84, 0x3e, 0x3a, 0x82, 0x89, 0xbe, 0xa3, 0x96, 0x04, 0x3e, 0xe7, 0xe4, 0x15, 0x3d, 0x82, 0xe2, 0x92, 0xbe, 0xa5, 0x5a, 0x89, 0xbe, 0xeb, 0x74, 0x99, 0x3e, 0xf8, 0xdd, 0x4d, 0x3e, 0x7b, 0x0d, 0xb0, 0x3d, 0xc1, 0xf7, 0x3c, 0xbe, 0x86, 0xe1, 0xb9, 0x3d, 0x65, 0x3c, 0xa6, 0x3e, 0x5d, 0x63, 0x34, 0x3e, 0xa7, 0x43, 0x34, 0xbe, 0x8c, 0x6f, 0xf3, 0x3d, 0x1f, 0xce, 0x33, 0x3e, 0xed, 0x3c, 0x30, 0xbe, 0x4b, 0xc7, 0x20, 0xbe, 0x5a, 0x08, 0x2a, 0x3e, 0x45, 0xd2, 0xbe, 0x3c, 0x4c, 0xb1, 0x8a, 0xbe, 0x68, 0x93, 0xb1, 0xbe, 0x6a, 0xf5, 0x80, 0x3e, 0x5b, 0xfc, 0xa5, 0x3e, 0x5e, 0xd0, 0x1c, 0x3e, 0xec, 0x72, 0x74, 0xbe, 0xba, 0xcb, 0x16, 0xbe, 0xe2, 0x35, 0x55, 0x3e, 0x55, 0xd7, 0x6e, 0xbe, 0x32, 0x22, 0x29, 0xbe, 0xcf, 0x5a, 0x85, 0x3e, 0x66, 0x63, 0x13, 0x3e, 0x1c, 0xcb, 0xe0, 0xbe, 0x8c, 0x55, 0x5c, 0xbe, 0xe1, 0x65, 0x9a, 0x3e, 0x29, 0x22, 0x1f, 0x3e, 0xb8, 0x83, 0x51, 0x3e, 0x40, 0xb3, 0x1b, 0xbd, 0x7d, 0xcb, 0x4d, 0x3e, 0x1b, 0x99, 0x27, 0x3e, 0xae, 0x67, 0x43, 0xbc, 0x94, 0x93, 0x33, 0xbe, 0x36, 0x5c, 0xef, 0x3e, 0xce, 0x97, 0xbf, 0x3e, 0xab, 0xf9, 0x5d, 0xbe, 0xae, 0xb6, 0x52, 0xbe, 0x2f, 0x12, 0xbc, 0xbd, 0x65, 0x1a, 0x98, 0x3e, 0x44, 0x2b, 0xf0, 0x3d, 0xde, 0xdb, 0xeb, 0xbe, 0x67, 0xf9, 0x90, 0x3d, 0x2e, 0x52, 0x18, 0x3e, 0x5b, 0x84, 0x58, 0xbe, 0x18, 0x6b, 0x3d, 0xbe, 0x1f, 0xa0, 0xbe, 0x3e, 0xdc, 0xdb, 0xad, 0x3e, 0x2a, 0x5a, 0xed, 0xbc, 0x7f, 0x99, 0xa6, 0xbd, 0xab, 0x89, 0xad, 0x3d, 0x55, 0xf5, 0x4b, 0x3e, 0xdc, 0x6e, 0x54, 0xbc, 0x85, 0xa4, 0x9d, 0xbe, 0x3f, 0xfb, 0x23, 0x3e, 0x81, 0x01, 0xb6, 0x3e, 0x8b, 0xe5, 0x57, 0xbe, 0xee, 0x7f, 0x78, 0xbd, 0x60, 0x5a, 0x9d, 0x3e, 0xcc, 0x3e, 0xd1, 0x3d, 0xba, 0xd3, 0xe1, 0xbe, 0x81, 0x9c, 0xa7, 0xbe, 0xbc, 0xed, 0xd2, 0x3c, 0xff, 0x41, 0x82, 0x3e, 0xbd, 0x71, 0x86, 0x3e, 0x42, 0x3f, 0xb8, 0x3d, 0xa5, 0xe9, 0xb1, 0xbd, 0x93, 0x64, 0x6b, 0x3e, 0xec, 0xab, 0x53, 0xbe, 0x40, 0x7a, 0xc5, 0xbe, 0xb3, 0xd0, 0x99, 0x3d, 0xa2, 0x4b, 0xa1, 0x3e, 0x1d, 0x7c, 0x43, 0xbd, 0x0f, 0xb8, 0x05, 0xbe, 0x0e, 0x17, 0x81, 0x3e, 0xea, 0xfe, 0xab, 0x3d, 0x06, 0x90, 0x42, 0x3e, 0x84, 0x3b, 0x88, 0xbe, 0xa8, 0x27, 0x1a, 0x3d, 0x2c, 0x16, 0x82, 0x3e, 0x14, 0xc7, 0x6c, 0xbd, 0xd8, 0x35, 0xa6, 0xbe, 0x1c, 0x4f, 0x15, 0x3e, 0xb9, 0x90, 0x81, 0x3c, 0x6a, 0xe5, 0x41, 0xbd, 0x2a, 0x2a, 0x97, 0xbe, 0x5d, 0x26, 0x8b, 0x3e, 0xc3, 0xbb, 0xcd, 0xbc, 0xcb, 0x07, 0xb0, 0x3d, 0x6b, 0xc1, 0x3c, 0xbe, 0xf6, 0x8a, 0x03, 0x3e, 0x9e, 0xd2, 0x89, 0x3e, 0xbb, 0x74, 0xa4, 0xbe, 0x18, 0xdd, 0x58, 0xbe, 0x38, 0xb1, 0x67, 0x3e, 0xab, 0xc9, 0x39, 0xbe, 0x25, 0x2b, 0x5d, 0xbe, 0x06, 0xf2, 0xff, 0xff, 0x04, 0x00, 0x00, 0x00, 0x40, 0x02, 0x00, 0x00, 0xe5, 0xc9, 0x06, 0x3d, 0x72, 0x76, 0x3a, 0x3e, 0x03, 0xaa, 0x7d, 0x3d, 0x4a, 0x18, 0x8b, 0x3e, 0x06, 0x1d, 0x83, 0x3c, 0x20, 0x15, 0xeb, 0x3d, 0x32, 0x0d, 0x84, 0x3e, 0x4b, 0x87, 0x8c, 0x3d, 0xf9, 0xef, 0x95, 0xbe, 0xb9, 0x15, 0x42, 0x3e, 0x56, 0x4b, 0x6d, 0xbc, 0x03, 0x57, 0x69, 0xbe, 0x18, 0xc1, 0x96, 0xbe, 0x90, 0x15, 0x08, 0xbd, 0xd2, 0x64, 0xa3, 0x3e, 0x1c, 0xb0, 0x85, 0x3e, 0xbe, 0x51, 0x41, 0xbe, 0xc7, 0xf3, 0x9c, 0x3c, 0x51, 0xe5, 0xa5, 0x3e, 0xcc, 0x66, 0x8c, 0xbe, 0x0f, 0xde, 0x98, 0xbd, 0xef, 0x1f, 0x78, 0x3e, 0x38, 0xd5, 0xa5, 0x3e, 0xab, 0xb8, 0xf5, 0xbd, 0x0c, 0x03, 0x01, 0xbe, 0xc0, 0x9f, 0x39, 0xbe, 0x7d, 0xf8, 0x5e, 0x3d, 0x96, 0xac, 0x0e, 0x3e, 0x0b, 0xa7, 0x99, 0xbe, 0x85, 0x71, 0xbe, 0x3e, 0x67, 0xf7, 0x88, 0x3e, 0x91, 0x8c, 0x85, 0xbe, 0x9e, 0xef, 0x53, 0xbd, 0x05, 0x8c, 0xd4, 0x3d, 0xc6, 0xf8, 0xe6, 0xbd, 0xe9, 0xb8, 0x00, 0xbd, 0xc3, 0xc6, 0xa1, 0xbd, 0x13, 0x39, 0x81, 0x3d, 0x52, 0x59, 0xf1, 0x3d, 0xf0, 0xf1, 0x75, 0x3e, 0x4e, 0xef, 0xbf, 0xbe, 0x2b, 0xd0, 0x3e, 0x3e, 0x91, 0xff, 0x3f, 0xbd, 0x40, 0xb9, 0x21, 0xbc, 0xd7, 0x96, 0x7d, 0xbe, 0xdf, 0xcd, 0x33, 0x3e, 0xb2, 0xe5, 0x56, 0x3e, 0x39, 0x9c, 0x5e, 0xbd, 0x55, 0x7e, 0x8d, 0xbd, 0x24, 0xda, 0x2e, 0xbd, 0xdf, 0xf2, 0xd7, 0x3e, 0x32, 0xab, 0x32, 0x3e, 0xac, 0x5d, 0xc4, 0xbd, 0xe4, 0x77, 0xb8, 0x3e, 0xca, 0x5e, 0x55, 0xbe, 0x08, 0x06, 0x16, 0xbe, 0xad, 0x3d, 0x8e, 0xbe, 0x3d, 0x22, 0x6e, 0x3e, 0xc1, 0xac, 0xae, 0x3d, 0x1b, 0x87, 0x35, 0xbe, 0x05, 0xaf, 0x4f, 0xbd, 0xc8, 0x73, 0x90, 0x3e, 0x87, 0xbf, 0x86, 0x3e, 0x71, 0x4b, 0xd3, 0x3c, 0xad, 0xdf, 0xb2, 0xbe, 0xe2, 0x91, 0x21, 0x3e, 0x48, 0x73, 0xc3, 0x3e, 0xd7, 0x48, 0x1b, 0x3e, 0xa9, 0x2c, 0x23, 0xbe, 0x56, 0x9a, 0xca, 0x3d, 0xbf, 0x14, 0x42, 0x3e, 0x19, 0x8c, 0x16, 0xbc, 0xd5, 0x48, 0x8e, 0xbe, 0x8d, 0x10, 0xf7, 0x3d, 0x41, 0x5e, 0x0c, 0x3d, 0xab, 0x87, 0x91, 0x3d, 0x54, 0x4f, 0xbe, 0xbe, 0x63, 0x3b, 0x10, 0x3e, 0x83, 0xa8, 0x5f, 0xbe, 0x61, 0x3b, 0x92, 0xbc, 0xc6, 0x06, 0xb9, 0xbd, 0xcb, 0x01, 0x30, 0xbd, 0x62, 0x0d, 0x41, 0x3e, 0x4e, 0xb9, 0x9a, 0xbd, 0x03, 0x70, 0xf3, 0x3d, 0x0e, 0xfe, 0x8a, 0x3d, 0x6f, 0xc3, 0x12, 0x3d, 0xa4, 0x3c, 0x26, 0x3e, 0x41, 0x11, 0xa0, 0xbe, 0x05, 0x0d, 0x88, 0x3e, 0x39, 0xdb, 0x84, 0x3e, 0xb0, 0x0c, 0x6b, 0xbe, 0x94, 0xe0, 0x9d, 0x3d, 0xd5, 0x7c, 0xbd, 0x3d, 0x6d, 0x62, 0x99, 0x3e, 0x36, 0xbf, 0x46, 0xbe, 0xa9, 0x5e, 0xc3, 0x3d, 0x53, 0x7c, 0xcd, 0x3d, 0x13, 0x78, 0xec, 0x3d, 0x23, 0xd1, 0x2a, 0x3e, 0x0e, 0xeb, 0xa4, 0xbe, 0xd8, 0x67, 0x9f, 0x3d, 0xfa, 0x67, 0xa1, 0x3e, 0x2e, 0x37, 0xbf, 0x3c, 0xb6, 0x9e, 0x29, 0x3e, 0x51, 0xd8, 0x59, 0x3d, 0xfb, 0x58, 0x9d, 0x3e, 0x67, 0xf0, 0xc4, 0xbd, 0x34, 0xb4, 0xad, 0xbe, 0x56, 0x9f, 0x82, 0x3d, 0x90, 0xb8, 0x1d, 0x3c, 0x51, 0xa3, 0x25, 0x3e, 0x1e, 0x0d, 0x26, 0xbd, 0x5c, 0x7d, 0x2e, 0x3e, 0x15, 0x9a, 0xa0, 0x3e, 0x86, 0x25, 0x59, 0xbe, 0xaa, 0xb9, 0x12, 0xbf, 0xf6, 0xeb, 0x55, 0xbe, 0xff, 0xbf, 0x2d, 0x3d, 0xee, 0x7d, 0x8a, 0xbe, 0x4e, 0xdc, 0x90, 0xbe, 0xed, 0xf3, 0xcb, 0xbe, 0x3e, 0x52, 0xc6, 0x3d, 0xa6, 0xaf, 0x64, 0x3e, 0xb5, 0x82, 0x46, 0x3a, 0x1a, 0x84, 0x9a, 0x3e, 0xd7, 0xd3, 0x95, 0x3e, 0xc1, 0x2e, 0x4e, 0x3d, 0xcd, 0x99, 0x38, 0xbe, 0xde, 0xa0, 0xa8, 0x3d, 0xc1, 0xc1, 0x9a, 0x3e, 0x42, 0xe1, 0x86, 0xbd, 0x1f, 0xf7, 0x10, 0xbd, 0x45, 0x19, 0x6e, 0xbe, 0x47, 0xa7, 0x8a, 0x3d, 0xdb, 0x55, 0x67, 0x3e, 0x49, 0x1c, 0x3a, 0xbd, 0x7d, 0x6e, 0x05, 0x3d, 0x32, 0x38, 0x96, 0x3e, 0x32, 0xb9, 0x36, 0x3d, 0x40, 0x44, 0x84, 0x3d, 0x62, 0x66, 0x2c, 0x3e, 0x3c, 0x60, 0x93, 0x3d, 0xa1, 0x0a, 0x17, 0xbe, 0x52, 0xf4, 0xff, 0xff, 0x04, 0x00, 0x00, 0x00, 0x30, 0x00, 0x00, 0x00, 0x7a, 0xc7, 0x0e, 0xbe, 0xcd, 0x2f, 0x8d, 0x3e, 0x0b, 0x96, 0x9b, 0xbd, 0x7e, 0xae, 0xa4, 0x3b, 0xc2, 0xa7, 0x9d, 0xbd, 0x7b, 0xbe, 0xa1, 0xbd, 0x74, 0x92, 0x8f, 0x3e, 0x22, 0x98, 0x67, 0x3e, 0xd2, 0x8d, 0x8c, 0x3e, 0x30, 0x22, 0xa6, 0x3b, 0x3e, 0x03, 0x42, 0xbe, 0x22, 0x43, 0x69, 0x3e, 0x8e, 0xf4, 0xff, 0xff, 0x04, 0x00, 0x00, 0x00, 0x30, 0x00, 0x00, 0x00, 0x37, 0xb8, 0x58, 0xbd, 0xc2, 0xe2, 0x19, 0xbe, 0x1f, 0x5a, 0x65, 0xbe, 0x87, 0x99, 0x80, 0x3e, 0x0b, 0x90, 0x0d, 0x3e, 0x3d, 0xdf, 0x11, 0xbe, 0xf7, 0x61, 0x9d, 0xbd, 0xfa, 0x9f, 0x44, 0x3e, 0x51, 0xf5, 0x00, 0xbe, 0x29, 0xd6, 0x2d, 0xbe, 0x65, 0xeb, 0x52, 0x3d, 0x38, 0x78, 0xfb, 0x3d, 0xca, 0xf4, 0xff, 0xff, 0x04, 0x00, 0x00, 0x00, 0x30, 0x00, 0x00, 0x00, 0x4d, 0x87, 0x77, 0x3e, 0xae, 0x62, 0x99, 0xbd, 0x7e, 0xc1, 0x2a, 0xbd, 0x4a, 0xa8, 0x6d, 0x3e, 0x0e, 0x7e, 0xa1, 0x3d, 0xb3, 0xe8, 0xcc, 0x3d, 0xea, 0x51, 0x3a, 0x3e, 0x82, 0xa7, 0xa7, 0x3b, 0x17, 0x44, 0x51, 0x3e, 0x0c, 0x3f, 0xba, 0x3e, 0x51, 0x38, 0xba, 0xbd, 0xdb, 0xdb, 0x03, 0xbe, 0x06, 0xf5, 0xff, 0xff, 0x04, 0x00, 0x00, 0x00, 0x30, 0x00, 0x00, 0x00, 0x55, 0xa7, 0x31, 0x3e, 0xdd, 0xb1, 0x97, 0x3b, 0x35, 0x44, 0x20, 0x3e, 0x7d, 0x30, 0x22, 0x3e, 0x87, 0x39, 0x11, 0x3e, 0x4f, 0x42, 0x8e, 0x3e, 0xf7, 0xd5, 0xb5, 0xbd, 0xae, 0xc5, 0x00, 0x3d, 0x4e, 0x98, 0xb2, 0x3e, 0xc5, 0x17, 0xb9, 0x3e, 0xf3, 0xac, 0x4e, 0xbe, 0xe2, 0x7e, 0x4d, 0x3e, 0x42, 0xf5, 0xff, 0xff, 0x04, 0x00, 0x00, 0x00, 0x30, 0x00, 0x00, 0x00, 0x37, 0x45, 0x64, 0x3d, 0xd0, 0xca, 0x12, 0xbd, 0x26, 0xa9, 0x13, 0x3e, 0x45, 0xb4, 0x01, 0x3d, 0x39, 0x7f, 0x13, 0x3e, 0x2a, 0xf8, 0x1b, 0x3e, 0x4f, 0x8a, 0xe6, 0x3c, 0x24, 0x55, 0x7a, 0x3d, 0x7c, 0x37, 0x9d, 0x3d, 0x46, 0xd0, 0x59, 0x3d, 0x74, 0xfe, 0xf1, 0x3d, 0x17, 0xcc, 0x1d, 0x3d, 0x7e, 0xf5, 0xff, 0xff, 0x04, 0x00, 0x00, 0x00, 0x30, 0x00, 0x00, 0x00, 0x6c, 0x2e, 0x46, 0xba, 0x54, 0x31, 0x50, 0x3e, 0xe4, 0x18, 0x13, 0x3e, 0x38, 0x5f, 0x25, 0xbe, 0x24, 0x2f, 0xd5, 0xbd, 0x1b, 0xb2, 0x02, 0x3e, 0x4e, 0x68, 0x81, 0x3d, 0x07, 0x68, 0xdd, 0xbd, 0xb8, 0x9f, 0x4f, 0x3d, 0xca, 0xd3, 0xe0, 0x3d, 0x7d, 0x25, 0x84, 0x3e, 0xf2, 0xae, 0x09, 0xbe, 0xba, 0xf5, 0xff, 0xff, 0x04, 0x00, 0x00, 0x00, 0x30, 0x00, 0x00, 0x00, 0x09, 0x4f, 0x71, 0x3f, 0x29, 0xfb, 0x8b, 0x3f, 0x30, 0x72, 0x8d, 0x3f, 0xf8, 0x06, 0x86, 0x3f, 0xc0, 0xfa, 0x87, 0x3f, 0x7e, 0x1c, 0x88, 0x3f, 0x47, 0x2b, 0x87, 0x3f, 0xeb, 0xb8, 0x81, 0x3f, 0x7c, 0xc7, 0x86, 0x3f, 0xf0, 0x0f, 0x87, 0x3f, 0x64, 0xf7, 0x91, 0x3f, 0x64, 0xa3, 0x8e, 0x3f, 0xf6, 0xf5, 0xff, 0xff, 0x04, 0x00, 0x00, 0x00, 0x30, 0x00, 0x00, 0x00, 0x07, 0xb7, 0x47, 0xbd, 0x31, 0x85, 0x17, 0xbd, 0x46, 0x86, 0x29, 0x3d, 0xad, 0x42, 0x88, 0x3c, 0xb1, 0x15, 0x45, 0x3d, 0x1c, 0xd5, 0x22, 0xbc, 0xfb, 0xb6, 0x16, 0x3e, 0x7a, 0x1a, 0xcc, 0x3d, 0xb4, 0x3d, 0xa0, 0xbb, 0x04, 0x5e, 0xf6, 0xbc, 0xb3, 0xe2, 0xe5, 0x3d, 0x52, 0xcf, 0x6c, 0x3c, 0x32, 0xf6, 0xff, 0xff, 0x04, 0x00, 0x00, 0x00, 0x40, 0x02, 0x00, 0x00, 0xd7, 0x22, 0x4a, 0xbe, 0x27, 0x16, 0x5f, 0xbe, 0x14, 0xc0, 0x84, 0xbe, 0x40, 0xf1, 0xb6, 0x3e, 0x45, 0x0f, 0xd5, 0x3d, 0x0b, 0x53, 0xef, 0xbe, 0x2e, 0x39, 0x2d, 0x3e, 0xe2, 0xc5, 0xf7, 0x3d, 0x91, 0x89, 0x5d, 0xbe, 0xe4, 0x40, 0xc0, 0x3d, 0x3b, 0xcd, 0x52, 0xbd, 0xce, 0x1d, 0xc3, 0x3e, 0x64, 0xee, 0xc9, 0x3d, 0x56, 0x23, 0xb9, 0xbd, 0x54, 0xa9, 0x1f, 0xbe, 0x18, 0x7c, 0x89, 0xbd, 0x83, 0x40, 0xc8, 0x3d, 0x88, 0x0a, 0xcd, 0xbd, 0x45, 0xf8, 0xaf, 0xbd, 0x7d, 0xf0, 0xee, 0xbd, 0x0d, 0x82, 0x81, 0x3e, 0xfd, 0x70, 0x6f, 0xbd, 0x96, 0x8d, 0xf2, 0x3d, 0xef, 0x97, 0x82, 0x3e, 0x64, 0x3a, 0x9d, 0xbe, 0xc8, 0x38, 0x4c, 0xbb, 0xfe, 0x58, 0xa8, 0xbe, 0x31, 0xf3, 0xc3, 0x3e, 0x33, 0x9f, 0xb5, 0x3e, 0x65, 0x65, 0x43, 0xbe, 0x47, 0x62, 0xf7, 0xbe, 0x54, 0x64, 0xf1, 0x3d, 0x8f, 0xd7, 0xb7, 0xbe, 0x68, 0xc4, 0x82, 0xbe, 0x05, 0x62, 0x82, 0xbe, 0x40, 0xe9, 0xc1, 0x3e, 0x05, 0x2f, 0x10, 0x3f, 0x14, 0x8b, 0x37, 0xbd, 0xb1, 0xa4, 0x33, 0xbd, 0x8e, 0xa7, 0xb1, 0x3c, 0xb5, 0x76, 0x8c, 0x3e, 0xf1, 0x66, 0x8b, 0x3d, 0x9b, 0x67, 0x87, 0xbd, 0x51, 0xed, 0xad, 0xbd, 0x76, 0x5b, 0xd0, 0xbb, 0x90, 0xd4, 0x49, 0xbd, 0x37, 0xe0, 0x56, 0xbe, 0xc7, 0xec, 0x46, 0x3e, 0x52, 0xfb, 0x14, 0x3d, 0x5a, 0xbd, 0x1f, 0xbe, 0x00, 0x7d, 0xb8, 0xbd, 0x57, 0xf8, 0x0f, 0x3e, 0xd2, 0x71, 0x21, 0xbd, 0xfd, 0x0b, 0x73, 0xbe, 0xba, 0xaf, 0x84, 0xbe, 0x81, 0x87, 0xfa, 0x3e, 0x51, 0xe1, 0x20, 0xbe, 0xb6, 0xc8, 0x40, 0xbe, 0x71, 0x93, 0xde, 0xbe, 0x4f, 0xee, 0x86, 0x3e, 0x22, 0x4d, 0x23, 0xbe, 0x9e, 0x64, 0xff, 0xbe, 0xce, 0x5f, 0x57, 0xbe, 0x88, 0x26, 0x48, 0x3d, 0x35, 0x4f, 0x7b, 0x3e, 0x3c, 0x1c, 0x73, 0xbd, 0x52, 0x34, 0x7d, 0xbe, 0x23, 0x5b, 0xd7, 0x3e, 0xb6, 0x7c, 0xb2, 0xbe, 0x7e, 0xd6, 0xb9, 0xbe, 0x48, 0x43, 0xdc, 0xbe, 0x2b, 0xf8, 0x0b, 0x3f, 0x1b, 0x52, 0xc3, 0x3c, 0x0b, 0xa8, 0x11, 0xbe, 0xa8, 0x03, 0x6f, 0xbb, 0x07, 0xc8, 0x67, 0x3e, 0xa0, 0xae, 0x88, 0x3e, 0x4c, 0x03, 0x1a, 0xbd, 0xff, 0x52, 0x1a, 0x3d, 0xfb, 0x59, 0x0a, 0x3e, 0x08, 0x70, 0x82, 0xbe, 0x51, 0x84, 0x2b, 0xbe, 0x45, 0xd7, 0x67, 0xbb, 0x68, 0x96, 0x1b, 0x3e, 0xa5, 0x9e, 0x17, 0x3e, 0xa2, 0xb1, 0x50, 0xbe, 0xbc, 0xea, 0x90, 0xbd, 0x60, 0xaa, 0x99, 0x3e, 0x0c, 0x0e, 0xc3, 0x3d, 0x21, 0x64, 0x79, 0xbe, 0xa2, 0x72, 0x9b, 0xbe, 0x6a, 0x4d, 0xb8, 0x3e, 0x6e, 0x94, 0x52, 0xbd, 0x02, 0xe5, 0x94, 0xbd, 0x1f, 0x44, 0x4f, 0xbe, 0x6d, 0xa6, 0x18, 0xbd, 0xc0, 0x3d, 0x8d, 0x3d, 0x52, 0x23, 0x09, 0xbe, 0x1e, 0xff, 0x6d, 0xbe, 0x8f, 0x1d, 0x1c, 0x3e, 0xc5, 0x87, 0xcc, 0x3d, 0x63, 0x54, 0x1b, 0xbe, 0xfe, 0xa5, 0x71, 0x3d, 0x00, 0xa7, 0xd4, 0x3e, 0xf9, 0x58, 0x3c, 0xbe, 0x3d, 0x42, 0xd1, 0x3c, 0xe3, 0x31, 0x35, 0xbe, 0xaf, 0x1b, 0x90, 0xbc, 0x38, 0x65, 0x8c, 0x3d, 0x43, 0x71, 0xa9, 0xbe, 0x28, 0x60, 0x98, 0xbd, 0xe7, 0x8f, 0x87, 0xbe, 0x57, 0xc3, 0x10, 0x3e, 0xd3, 0xd9, 0x14, 0xbe, 0x7a, 0x7d, 0x71, 0xbe, 0x75, 0xb3, 0x8a, 0x3d, 0xa0, 0x60, 0xb8, 0xbd, 0xd8, 0x73, 0xcc, 0x3e, 0xf7, 0xd2, 0x13, 0xbf, 0x1f, 0x02, 0x14, 0x3c, 0x23, 0xae, 0x5e, 0xbe, 0x6f, 0x6d, 0xd6, 0xbd, 0xfe, 0xe5, 0x31, 0x3d, 0x86, 0x9d, 0x5a, 0x3e, 0x9b, 0xea, 0xf2, 0xbd, 0x2e, 0x42, 0xc0, 0xbd, 0x32, 0x89, 0x61, 0xbe, 0xa2, 0x82, 0xf4, 0x3d, 0xd9, 0x6d, 0x5e, 0x3e, 0xef, 0x47, 0x16, 0x3e, 0x17, 0xd3, 0x82, 0x3e, 0x3b, 0x3a, 0xc5, 0x3d, 0x99, 0x1f, 0x4d, 0xbd, 0xe8, 0xe5, 0xe7, 0x3b, 0x35, 0x57, 0x30, 0xbe, 0xb2, 0x6e, 0x38, 0x3d, 0x73, 0x23, 0x36, 0x3e, 0xbc, 0xcd, 0x9e, 0xbd, 0xf7, 0x87, 0x5c, 0xbe, 0xc8, 0x2d, 0x68, 0x3d, 0x7e, 0xaa, 0x9e, 0x3c, 0xa1, 0x50, 0x03, 0xbe, 0xcc, 0x7c, 0x23, 0xbe, 0xc5, 0xbd, 0x4c, 0x3e, 0x7e, 0xf8, 0xff, 0xff, 0x04, 0x00, 0x00, 0x00, 0x40, 0x02, 0x00, 0x00, 0xf3, 0xba, 0xba, 0xbd, 0x6b, 0xd7, 0xf1, 0xbc, 0xd8, 0x62, 0x8e, 0x3d, 0xe3, 0x1d, 0x75, 0x3d, 0x9d, 0x56, 0xa2, 0xbd, 0x4e, 0x1f, 0x90, 0xbe, 0xcb, 0x11, 0x91, 0xbd, 0x72, 0x8f, 0x91, 0xbd, 0x0f, 0x98, 0x71, 0x3d, 0x82, 0x47, 0x24, 0xbe, 0x63, 0x75, 0xc9, 0x3e, 0x04, 0x77, 0x56, 0xbe, 0x0c, 0xa8, 0xa7, 0xbe, 0xdb, 0x3e, 0x93, 0xbd, 0x1c, 0xca, 0x25, 0x3e, 0xd0, 0xc8, 0x84, 0xbd, 0x3e, 0x28, 0xeb, 0x3d, 0x52, 0xab, 0x9d, 0xbd, 0xc5, 0x63, 0x00, 0xbd, 0x76, 0x26, 0x95, 0xbc, 0xf8, 0x13, 0x12, 0xbe, 0xb9, 0x0d, 0x06, 0xbd, 0xaf, 0xa0, 0xc1, 0x3e, 0x69, 0x01, 0x0c, 0x3d, 0x35, 0xb3, 0x11, 0xbe, 0xb9, 0x94, 0x18, 0xbe, 0x88, 0x3c, 0x71, 0x3e, 0x2f, 0x7e, 0x1f, 0x3e, 0xc8, 0x83, 0x8f, 0x3c, 0x16, 0x3a, 0x70, 0x3e, 0x51, 0xb6, 0x22, 0x3e, 0x9c, 0x3b, 0x31, 0x3e, 0xd3, 0x05, 0x0a, 0x3e, 0x58, 0x04, 0xc6, 0x3d, 0xe4, 0x41, 0x85, 0x3c, 0x4a, 0x51, 0x3a, 0xbc, 0x4c, 0x70, 0xf4, 0xbd, 0xf4, 0xb0, 0x00, 0x3e, 0x3c, 0x14, 0x03, 0xbc, 0x5a, 0xb6, 0x60, 0xbe, 0x65, 0x86, 0x59, 0x3d, 0x43, 0xe3, 0x46, 0xbe, 0x25, 0x64, 0xb2, 0xbd, 0x5d, 0x0d, 0xd0, 0x3d, 0x21, 0x39, 0x33, 0xbc, 0x8c, 0x34, 0xcb, 0x3d, 0x53, 0x67, 0x1d, 0xbd, 0x9b, 0x5e, 0xed, 0x3e, 0xdd, 0xf7, 0x62, 0x3e, 0x77, 0xba, 0x61, 0xbd, 0xde, 0x79, 0x98, 0xbb, 0xb9, 0x54, 0x87, 0xbd, 0x83, 0x2e, 0x85, 0xbc, 0xcb, 0x9c, 0xb7, 0x3c, 0x10, 0xec, 0x21, 0xbe, 0x6e, 0x0d, 0x87, 0x3d, 0x98, 0xe9, 0x8d, 0x3e, 0xd3, 0x2d, 0x5d, 0xbe, 0xf3, 0x2c, 0x22, 0xbe, 0xca, 0x1f, 0x27, 0xbc, 0x2c, 0xce, 0xbc, 0xbd, 0x01, 0x83, 0x1b, 0xbe, 0xab, 0x34, 0x44, 0xbd, 0xc7, 0xe7, 0xaf, 0x3d, 0xd3, 0x8b, 0x26, 0xbe, 0x81, 0x41, 0x94, 0x3c, 0xe7, 0x9a, 0x0e, 0xbe, 0xff, 0x49, 0xff, 0x3d, 0x85, 0x7f, 0x49, 0x3e, 0x44, 0x5c, 0xa5, 0x3d, 0x64, 0x8b, 0x12, 0x3d, 0xdb, 0x13, 0x98, 0x3e, 0x12, 0x59, 0x6e, 0x3d, 0x78, 0x64, 0x80, 0x3c, 0x29, 0x43, 0x5b, 0xbe, 0x0f, 0x18, 0xb8, 0xbe, 0xa9, 0x2e, 0x3d, 0xbe, 0x3e, 0x34, 0x61, 0x3e, 0x9c, 0xe3, 0x35, 0xbd, 0x82, 0x44, 0x79, 0xbe, 0x72, 0x2f, 0x9a, 0x3d, 0xd8, 0x4b, 0xb5, 0x3d, 0x29, 0x8c, 0xb0, 0x3e, 0x5c, 0xa7, 0x82, 0xbe, 0xb1, 0x40, 0xb4, 0x3e, 0xe7, 0x5e, 0x98, 0x3e, 0xc2, 0x54, 0x66, 0x3e, 0x84, 0x23, 0xeb, 0x3d, 0x09, 0xe3, 0x54, 0x3d, 0x05, 0xd9, 0x58, 0xbe, 0x5d, 0x4a, 0xa3, 0xbd, 0x2b, 0xbf, 0x1e, 0x3e, 0x0c, 0x8e, 0xef, 0xbd, 0xf1, 0x82, 0x99, 0xbc, 0xff, 0x01, 0x87, 0xbe, 0x41, 0x41, 0xdd, 0x3d, 0x06, 0x58, 0x5f, 0xbe, 0x90, 0x44, 0x7c, 0xbc, 0xe2, 0xb1, 0xfe, 0xbd, 0x76, 0x58, 0x73, 0x3e, 0x33, 0x9a, 0x90, 0x3e, 0xfa, 0x75, 0x70, 0x3e, 0x34, 0x04, 0x81, 0x3c, 0x4c, 0x17, 0x2d, 0xbd, 0x6b, 0xb8, 0xaa, 0x3c, 0xc0, 0x50, 0x22, 0xbd, 0xe8, 0x02, 0x6d, 0x3e, 0xfb, 0xdb, 0x56, 0x3e, 0x0f, 0x40, 0x83, 0xbd, 0xec, 0xc0, 0x67, 0x3d, 0xa5, 0xfb, 0xe5, 0x3b, 0x3d, 0x6a, 0x49, 0x3e, 0xea, 0x34, 0xc4, 0xbd, 0xca, 0x1a, 0xce, 0xbd, 0x5d, 0xc0, 0x46, 0xbe, 0x93, 0xee, 0xfe, 0xbd, 0xa1, 0xf5, 0x17, 0xba, 0x17, 0x2d, 0x37, 0x3e, 0xc6, 0xa8, 0xc3, 0x3d, 0xcf, 0xa9, 0x8d, 0xbc, 0x54, 0x36, 0xe9, 0xbd, 0x8b, 0x44, 0x28, 0x3d, 0x9f, 0xde, 0x7b, 0x3e, 0xe7, 0xb3, 0xb8, 0x3d, 0x2e, 0x38, 0x01, 0x3d, 0x6e, 0x6a, 0xaa, 0x3c, 0x77, 0xa9, 0x32, 0xbd, 0xf7, 0xfd, 0xb9, 0xbe, 0xa7, 0x2a, 0xf9, 0xbd, 0x5a, 0xdc, 0x90, 0x3c, 0xc6, 0x03, 0xe3, 0xbb, 0xba, 0x5b, 0xfe, 0xbd, 0xc3, 0xb7, 0xba, 0xbd, 0xd4, 0xa2, 0xdd, 0xbd, 0x87, 0xbd, 0x22, 0xbe, 0x61, 0xd2, 0x77, 0xbd, 0xee, 0xe0, 0x91, 0xbe, 0x27, 0x54, 0xd0, 0xbc, 0xbd, 0x82, 0x44, 0x3e, 0xc6, 0x4b, 0xcf, 0xbd, 0xcc, 0xaf, 0x45, 0xbd, 0x94, 0x8c, 0x00, 0xbe, 0x4f, 0x83, 0xce, 0x3d, 0x8b, 0x12, 0xde, 0xbd, 0xca, 0xfa, 0xff, 0xff, 0x04, 0x00, 0x00, 0x00, 0x40, 0x02, 0x00, 0x00, 0xe9, 0x72, 0xd6, 0xbd, 0x11, 0x64, 0x52, 0xbe, 0x94, 0x61, 0x17, 0xbe, 0x4d, 0x40, 0xc1, 0xbd, 0xbc, 0x69, 0xed, 0x3d, 0x58, 0x3e, 0x24, 0xbe, 0x4c, 0x72, 0x1a, 0xbe, 0xf6, 0xfc, 0x66, 0x3e, 0x1c, 0x56, 0xac, 0xbe, 0xb4, 0xc7, 0x88, 0x3d, 0xf6, 0x2f, 0xd1, 0x3e, 0x4f, 0x28, 0x2d, 0x3c, 0x0e, 0x5b, 0x3e, 0xbe, 0x27, 0xd5, 0x43, 0xbe, 0xec, 0x5f, 0x8c, 0xbe, 0xac, 0x5e, 0xcd, 0x3e, 0x7e, 0x25, 0x90, 0x3e, 0x8a, 0x6c, 0xcf, 0xbe, 0x11, 0x94, 0xa2, 0xbe, 0x35, 0xd4, 0x7b, 0x3e, 0x5a, 0x4e, 0x05, 0xbf, 0xb9, 0xcc, 0x89, 0xbd, 0x25, 0xce, 0x13, 0xbe, 0xe4, 0x9a, 0x1d, 0x3e, 0xf4, 0x0c, 0x81, 0xbe, 0xef, 0x1a, 0x89, 0xbe, 0x3d, 0xe4, 0xb8, 0xbe, 0x35, 0xc7, 0x47, 0x3e, 0x8c, 0x44, 0xdd, 0x3d, 0xf2, 0x41, 0xd5, 0xbd, 0xc2, 0x3b, 0x06, 0xbf, 0xcd, 0xad, 0x11, 0x3e, 0xbc, 0xcf, 0xec, 0xbe, 0xd8, 0xf7, 0x87, 0xbe, 0xce, 0xdb, 0x59, 0xbe, 0x1e, 0x67, 0xb8, 0x3e, 0xe2, 0x91, 0x46, 0x3e, 0x91, 0xbc, 0x1b, 0xbe, 0x85, 0x71, 0xae, 0xbe, 0xc2, 0xde, 0xe4, 0x3d, 0x9d, 0x7b, 0x84, 0x3e, 0xb0, 0x3e, 0x7e, 0xbe, 0x2e, 0xc5, 0xc3, 0x3c, 0x24, 0x93, 0x02, 0xbd, 0x30, 0x85, 0xbe, 0xbd, 0x27, 0x71, 0x3c, 0x3d, 0x4b, 0xda, 0x88, 0xbe, 0x31, 0x83, 0x91, 0x3e, 0xf5, 0x53, 0xf1, 0x3d, 0xe2, 0xa7, 0x9e, 0xbe, 0xd8, 0x94, 0x93, 0xbe, 0x7e, 0x0e, 0x20, 0x3e, 0x56, 0xa3, 0x30, 0xbe, 0xfb, 0xef, 0x9f, 0xbd, 0x17, 0x54, 0x03, 0x3d, 0x74, 0xf4, 0xa5, 0x3e, 0x7f, 0x9a, 0xc5, 0xbe, 0x5e, 0x8d, 0x0b, 0xbe, 0x92, 0x3d, 0xbc, 0x3d, 0xac, 0x2b, 0xf9, 0x3e, 0xba, 0x35, 0xaf, 0x3d, 0xe7, 0x07, 0x35, 0xbe, 0xcc, 0x35, 0x02, 0xbe, 0x01, 0x83, 0x89, 0x3e, 0xee, 0xb2, 0x91, 0x3c, 0x65, 0xed, 0xe9, 0xbd, 0x61, 0xf5, 0x0b, 0xbe, 0x42, 0xa5, 0x94, 0x3e, 0xfb, 0x77, 0xfc, 0xbe, 0x96, 0x35, 0x5f, 0xbe, 0x7f, 0x76, 0x4c, 0xbe, 0xa1, 0xcd, 0x84, 0x3e, 0xa3, 0xac, 0x1e, 0x3e, 0xc6, 0x11, 0xde, 0xbe, 0x98, 0xf5, 0xa1, 0xbb, 0x44, 0xb3, 0x8e, 0x3e, 0xff, 0x7b, 0x01, 0x3e, 0xeb, 0x97, 0x4e, 0xbe, 0x31, 0xba, 0x96, 0xbe, 0xb8, 0x78, 0x87, 0x3e, 0x17, 0x7b, 0xdd, 0xbd, 0x3c, 0x95, 0x03, 0xbe, 0xa3, 0x2a, 0xcd, 0x3b, 0x8b, 0x46, 0x92, 0x3e, 0xa6, 0xaa, 0x8e, 0x3d, 0x14, 0x33, 0x8a, 0xbe, 0x05, 0xb1, 0x2e, 0xbe, 0x72, 0x6d, 0xd1, 0x3e, 0xc8, 0x10, 0x29, 0x3e, 0x67, 0xa3, 0x57, 0x3b, 0xf6, 0x14, 0x6f, 0xbe, 0x00, 0x6b, 0x19, 0x3e, 0x94, 0x71, 0xb8, 0xbe, 0x69, 0x8a, 0x12, 0xbe, 0x54, 0x74, 0xe9, 0xbd, 0xb9, 0x80, 0x3f, 0x3e, 0xe0, 0x86, 0xdb, 0x3d, 0xbd, 0x76, 0x8c, 0xbe, 0xfa, 0x0a, 0xf1, 0xbc, 0x26, 0x14, 0x23, 0x3e, 0x08, 0xba, 0x11, 0x3e, 0xc1, 0xf5, 0x3b, 0xbc, 0x31, 0xee, 0x83, 0xbe, 0xdd, 0xe7, 0x92, 0x3e, 0xbc, 0x32, 0xb1, 0xbd, 0x12, 0x79, 0x5a, 0xbe, 0x32, 0xd2, 0x86, 0x3d, 0xa2, 0xb5, 0xda, 0x3d, 0x3d, 0xe6, 0xdc, 0x3b, 0xdb, 0xde, 0xce, 0xbe, 0x43, 0x4a, 0x9b, 0xbe, 0xec, 0x03, 0x97, 0x3d, 0x68, 0x35, 0x6c, 0x3e, 0x02, 0xb4, 0x39, 0xbe, 0x89, 0x0a, 0x16, 0xbe, 0x34, 0x7c, 0x0e, 0x3e, 0x5f, 0x87, 0x69, 0xbe, 0xa4, 0xc1, 0xe3, 0xbe, 0x23, 0x63, 0x21, 0xbe, 0x60, 0x92, 0x78, 0x3d, 0xb9, 0xde, 0x56, 0x3d, 0xa3, 0x66, 0x31, 0xbe, 0xe3, 0xf7, 0xcc, 0xbd, 0x6b, 0x82, 0x2b, 0x3e, 0xa8, 0xe1, 0x8b, 0xbe, 0xf0, 0x22, 0xcf, 0xbd, 0xbf, 0x75, 0x98, 0xbd, 0x4e, 0x83, 0x1b, 0xbe, 0xee, 0xa2, 0xcb, 0xbd, 0xbb, 0x88, 0x60, 0xba, 0x22, 0x10, 0xb6, 0x3c, 0xea, 0x26, 0x95, 0x3e, 0x1e, 0xed, 0xc4, 0x3d, 0xa0, 0xcc, 0xbb, 0xbe, 0x16, 0x59, 0xa4, 0xbe, 0x1e, 0x23, 0x40, 0x3e, 0xfe, 0x1d, 0xe7, 0x3e, 0x89, 0x9d, 0x95, 0xbe, 0x0d, 0x40, 0x8c, 0xbe, 0xa9, 0xe4, 0x8f, 0x3e, 0xa3, 0xac, 0x0b, 0xbf, 0x7e, 0xb4, 0xe3, 0xbd, 0xaa, 0x0e, 0x81, 0xbd, 0x04, 0x73, 0xbd, 0x3e, 0x16, 0xfd, 0xff, 0xff, 0x04, 0x00, 0x00, 0x00, 0x40, 0x02, 0x00, 0x00, 0xcc, 0x48, 0x9d, 0x3c, 0xe6, 0xcf, 0x40, 0xbe, 0x94, 0xf9, 0x42, 0x3e, 0x25, 0xf1, 0x1b, 0xbc, 0xa6, 0x18, 0x7c, 0x3d, 0xa1, 0x54, 0xf6, 0x3d, 0x4f, 0x5f, 0x05, 0xbd, 0x53, 0xf9, 0xc1, 0xbd, 0xb4, 0x05, 0x10, 0xbe, 0x64, 0xf5, 0x26, 0x3e, 0x36, 0xa3, 0x42, 0xbe, 0x51, 0x86, 0x1e, 0x3e, 0x86, 0x29, 0x8b, 0x3e, 0x46, 0xec, 0x0a, 0x3e, 0x61, 0x8b, 0xe8, 0x3d, 0xe1, 0x9f, 0xaf, 0xbe, 0x62, 0x89, 0xa5, 0x3d, 0x9f, 0x88, 0x0e, 0xbe, 0xea, 0xf8, 0xb6, 0x3e, 0x4f, 0xc8, 0x6d, 0x3d, 0xcb, 0xc3, 0x2f, 0x3e, 0x57, 0x01, 0x8d, 0xbc, 0xd1, 0xdd, 0x9f, 0xbe, 0x73, 0x96, 0x3d, 0xbe, 0x9f, 0xf4, 0x2e, 0x3e, 0xd8, 0xef, 0xca, 0xbb, 0x89, 0xdc, 0x51, 0xbe, 0xea, 0x19, 0x97, 0xbd, 0xaf, 0xd2, 0x07, 0x3e, 0x85, 0x3e, 0x04, 0x3d, 0x82, 0x96, 0x58, 0xbe, 0x21, 0x49, 0x37, 0x3e, 0xa3, 0x16, 0xef, 0xbd, 0x62, 0x17, 0x4f, 0x3d, 0x35, 0x76, 0xb5, 0xbd, 0xd9, 0x61, 0x36, 0x3e, 0x80, 0xaa, 0x96, 0x3e, 0xd2, 0x8f, 0x9e, 0x3d, 0x16, 0x25, 0x03, 0x3e, 0xd1, 0xdf, 0xe0, 0xbd, 0x42, 0x65, 0x88, 0xba, 0xf1, 0x1c, 0xda, 0xbd, 0xd5, 0xce, 0xa6, 0xbe, 0x68, 0x1d, 0x03, 0x3d, 0x54, 0x94, 0xd4, 0xbd, 0xd7, 0x81, 0x71, 0xbc, 0xc6, 0x21, 0x53, 0xbe, 0xb2, 0x61, 0xa0, 0x3d, 0xb1, 0xd4, 0x8d, 0x3e, 0x43, 0x82, 0x7d, 0x3d, 0x3c, 0x26, 0xa2, 0x3e, 0x72, 0x12, 0x33, 0xbe, 0x55, 0x35, 0xd1, 0x3a, 0x1e, 0xb0, 0xe0, 0xbd, 0x37, 0x6f, 0x05, 0xbc, 0xb0, 0x54, 0xab, 0x3d, 0xe5, 0xe6, 0x40, 0xbe, 0x44, 0x70, 0xf4, 0xbd, 0xe4, 0xd4, 0x8d, 0xbd, 0x84, 0xee, 0x79, 0x3e, 0x46, 0x3c, 0x93, 0x3e, 0xc3, 0x1d, 0xda, 0xbd, 0xf2, 0x79, 0x5b, 0x3e, 0x7c, 0xe6, 0x4b, 0xbd, 0x32, 0x9c, 0xce, 0xbd, 0x1c, 0xd4, 0x17, 0x3e, 0x28, 0xc6, 0xf1, 0xbc, 0xeb, 0x37, 0x0d, 0x3d, 0xb9, 0x71, 0x51, 0x3c, 0x13, 0xee, 0x06, 0xbe, 0x40, 0xff, 0x77, 0xbe, 0xb2, 0xcc, 0x2c, 0x3c, 0x3a, 0xb4, 0x86, 0xbc, 0xd4, 0x70, 0xcc, 0xbe, 0xbc, 0x75, 0x3c, 0xbe, 0xec, 0xef, 0x80, 0x3e, 0xf1, 0x22, 0x6a, 0x3e, 0x41, 0x2a, 0x69, 0xbe, 0x26, 0x0f, 0xd5, 0xbe, 0x2f, 0xae, 0x82, 0x3e, 0x00, 0xaf, 0x2a, 0xbf, 0x5a, 0x77, 0xd7, 0xbe, 0xef, 0x2b, 0xd2, 0xbe, 0x95, 0xb4, 0xc1, 0x3e, 0x99, 0x10, 0xdc, 0xbc, 0x09, 0x60, 0x48, 0xbe, 0xab, 0x91, 0x6a, 0xbd, 0x3b, 0xbe, 0x25, 0xbd, 0xaf, 0xb8, 0x19, 0x3e, 0x74, 0x93, 0x9a, 0xbe, 0x1e, 0x35, 0x9b, 0xbd, 0x58, 0x57, 0x89, 0x3e, 0x4a, 0xd3, 0x85, 0xbe, 0x3b, 0x30, 0xbb, 0xbd, 0x7c, 0x7d, 0xd0, 0xbe, 0x71, 0xea, 0x7f, 0x3e, 0x7e, 0xfb, 0x3a, 0x3e, 0x22, 0x58, 0xbf, 0x3c, 0x76, 0x64, 0x31, 0xbe, 0x7e, 0xde, 0x0f, 0x3e, 0xe3, 0x34, 0x4d, 0xbe, 0xef, 0x7e, 0x64, 0xbe, 0x23, 0xd6, 0x9c, 0xbd, 0xc5, 0x99, 0xcb, 0xbd, 0x4d, 0x4e, 0x8e, 0x3d, 0x1c, 0x21, 0x3b, 0xbe, 0x5d, 0x54, 0x8a, 0xbe, 0xbe, 0x6c, 0x78, 0xbd, 0xc4, 0x40, 0xb3, 0x3e, 0x11, 0x30, 0x99, 0x3d, 0x06, 0x7e, 0x25, 0xbc, 0x52, 0xc1, 0xd7, 0xbd, 0x21, 0x60, 0x29, 0xbe, 0x46, 0x05, 0x7c, 0xbe, 0x88, 0xf4, 0x2e, 0x3d, 0xf3, 0x98, 0x1b, 0x3c, 0x84, 0xef, 0x3f, 0xbe, 0xac, 0xb6, 0xa1, 0xbe, 0xcf, 0x7d, 0xeb, 0xbd, 0x9c, 0xab, 0x78, 0x3e, 0x56, 0x90, 0x04, 0xbe, 0x63, 0x5f, 0xa7, 0xbd, 0xd3, 0x1b, 0xb0, 0x3d, 0x3f, 0x57, 0x15, 0xbe, 0x06, 0xf4, 0x7f, 0xbe, 0x58, 0x08, 0x94, 0x3d, 0x5d, 0x3a, 0x13, 0xbd, 0xd2, 0xae, 0x4a, 0xbd, 0x5d, 0x9c, 0x01, 0xbd, 0x5b, 0xfc, 0x51, 0x3e, 0x1d, 0x6b, 0x25, 0xbc, 0x45, 0x42, 0x0c, 0xbe, 0x8e, 0x76, 0x59, 0x3d, 0x93, 0xa8, 0xa0, 0x3e, 0x4f, 0x7d, 0x61, 0xbe, 0x56, 0xad, 0x29, 0xbc, 0xa6, 0x28, 0xd4, 0xbd, 0x29, 0x33, 0x8c, 0x3e, 0x90, 0x99, 0xcc, 0x3b, 0xda, 0xc6, 0x90, 0x3e, 0xac, 0x5e, 0xfe, 0xbd, 0xff, 0x41, 0xb8, 0x3a, 0xb5, 0x74, 0x7c, 0xbe, 0xf1, 0x2a, 0xff, 0x3d, 0x62, 0xff, 0xff, 0xff, 0x04, 0x00, 0x00, 0x00, 0x04, 0x00, 0x00, 0x00, 0x43, 0xcb, 0xa5, 0x3e, 0x72, 0xff, 0xff, 0xff, 0x04, 0x00, 0x00, 0x00, 0x80, 0x00, 0x00, 0x00, 0x00, 0x00, 0x00, 0x00, 0x00, 0x00, 0x00, 0x00, 0x39, 0x77, 0x2b, 0xbd, 0x00, 0x00, 0x00, 0x00, 0x00, 0x00, 0x00, 0x00, 0x00, 0x00, 0x00, 0x00, 0x00, 0x00, 0x00, 0x00, 0xad, 0xa4, 0x9e, 0x3e, 0x52, 0x4a, 0xa4, 0x3e, 0x00, 0x00, 0x00, 0x00, 0xc2, 0x7d, 0xa3, 0x3e, 0x00, 0x00, 0x00, 0x00, 0xc7, 0xb6, 0xa1, 0x3e, 0x00, 0x00, 0x00, 0x00, 0xba, 0x5f, 0x12, 0xbd, 0xc0, 0x86, 0x4d, 0xbd, 0x4e, 0x88, 0x69, 0xbd, 0x00, 0x00, 0x00, 0x00, 0xa3, 0xa7, 0xae, 0xbc, 0x28, 0x15, 0x6c, 0xbc, 0xa8, 0xeb, 0x7d, 0xbc, 0x00, 0x00, 0x00, 0x00, 0x62, 0x90, 0xa1, 0x3e, 0xe5, 0x57, 0xdc, 0xbc, 0x02, 0x7a, 0xa2, 0x3e, 0x00, 0x00, 0x00, 0x00, 0x00, 0x00, 0x00, 0x00, 0x00, 0x00, 0x00, 0x00, 0x8e, 0x26, 0xa2, 0x3e, 0x17, 0x16, 0x8c, 0x3c, 0x17, 0xa0, 0x1c, 0xbc, 0xde, 0x56, 0xa3, 0x3e, 0x00, 0x00, 0x06, 0x00, 0x08, 0x00, 0x04, 0x00, 0x06, 0x00, 0x00, 0x00, 0x04, 0x00, 0x00, 0x00, 0x30, 0x00, 0x00, 0x00, 0x00, 0x00, 0x00, 0x00, 0x00, 0x00, 0x00, 0x00, 0x00, 0x00, 0x00, 0x00, 0x00, 0x00, 0x00, 0x00, 0x00, 0x00, 0x00, 0x00, 0x00, 0x00, 0x00, 0x00, 0x00, 0x00, 0x00, 0x00, 0x00, 0x00, 0x00, 0x00, 0x00, 0x00, 0x00, 0x00, 0x00, 0x00, 0x00, 0x00, 0x00, 0x00, 0x00, 0x00, 0x00, 0x00, 0x00, 0x00, 0xe8, 0xf1, 0xff, 0xff, 0xec, 0xf1, 0xff, 0xff, 0x0f, 0x00, 0x00, 0x00, 0x4d, 0x4c, 0x49, 0x52, 0x20, 0x43, 0x6f, 0x6e, 0x76, 0x65, 0x72, 0x74, 0x65, 0x64, 0x2e, 0x00, 0x01, 0x00, 0x00, 0x00, 0x14, 0x00, 0x00, 0x00, 0x00, 0x00, 0x0e, 0x00, 0x18, 0x00, 0x14, 0x00, 0x10, 0x00, 0x0c, 0x00, 0x08, 0x00, 0x04, 0x00, 0x0e, 0x00, 0x00, 0x00, 0x14, 0x00, 0x00, 0x00, 0x1c, 0x00, 0x00, 0x00, 0x50, 0x02, 0x00, 0x00, 0x54, 0x02, 0x00, 0x00, 0x58, 0x02, 0x00, 0x00, 0x04, 0x00, 0x00, 0x00, 0x6d, 0x61, 0x69, 0x6e, 0x00, 0x00, 0x00, 0x00, 0x05, 0x00, 0x00, 0x00, 0x98, 0x01, 0x00, 0x00, 0xe8, 0x00, 0x00, 0x00, 0x90, 0x00, 0x00, 0x00, 0x3c, 0x00, 0x00, 0x00, 0x04, 0x00, 0x00, 0x00, 0x8a, 0xff, 0xff, 0xff, 0x14, 0x00, 0x00, 0x00, 0x00, 0x00, 0x00, 0x08, 0x10, 0x00, 0x00, 0x00, 0x14, 0x00, 0x00, 0x00, 0x02, 0x00, 0x00, 0x00, 0x70, 0xf2, 0xff, 0xff, 0x01, 0x00, 0x00, 0x00, 0x28, 0x00, 0x00, 0x00, 0x03, 0x00, 0x00, 0x00, 0x27, 0x00, 0x00, 0x00, 0x1d, 0x00, 0x00, 0x00, 0x03, 0x00, 0x00, 0x00, 0xbe, 0xff, 0xff, 0xff, 0x1c, 0x00, 0x00, 0x00, 0x00, 0x00, 0x00, 0x08, 0x1c, 0x00, 0x00, 0x00, 0x20, 0x00, 0x00, 0x00, 0x02, 0x00, 0x00, 0x00, 0x00, 0x00, 0x06, 0x00, 0x08, 0x00, 0x07, 0x00, 0x06, 0x00, 0x00, 0x00, 0x00, 0x00, 0x00, 0x01, 0x01, 0x00, 0x00, 0x00, 0x27, 0x00, 0x00, 0x00, 0x03, 0x00, 0x00, 0x00, 0x26, 0x00, 0x00, 0x00, 0x1c, 0x00, 0x00, 0x00, 0x02, 0x00, 0x00, 0x00, 0x00, 0x00, 0x0e, 0x00, 0x1a, 0x00, 0x14, 0x00, 0x10, 0x00, 0x0c, 0x00, 0x0b, 0x00, 0x04, 0x00, 0x0e, 0x00, 0x00, 0x00, 0x24, 0x00, 0x00, 0x00, 0x00, 0x00, 0x00, 0x20, 0x2c, 0x00, 0x00, 0x00, 0x30, 0x00, 0x00, 0x00, 0x01, 0x00, 0x00, 0x00, 0x00, 0x00, 0x0e, 0x00, 0x10, 0x00, 0x0c, 0x00, 0x08, 0x00, 0x00, 0x00, 0x00, 0x00, 0x04, 0x00, 0x0e, 0x00, 0x00, 0x00, 0x02, 0x00, 0x00, 0x00, 0x05, 0x00, 0x00, 0x00, 0x05, 0x00, 0x00, 0x00, 0x01, 0x00, 0x00, 0x00, 0x26, 0x00, 0x00, 0x00, 0x04, 0x00, 0x00, 0x00, 0x25, 0x00, 0x00, 0x00, 0x1e, 0x00, 0x00, 0x00, 0x1f, 0x00, 0x00, 0x00, 0x20, 0x00, 0x00, 0x00, 0x6a, 0xff, 0xff, 0xff, 0x14, 0x00, 0x00, 0x00, 0x14, 0x00, 0x00, 0x00, 0x00, 0x00, 0x00, 0x47, 0x18, 0x00, 0x00, 0x00, 0x1c, 0x00, 0x00, 0x00, 0x00, 0x00, 0x00, 0x00, 0x54, 0xff, 0xff, 0xff, 0x00, 0x00, 0x20, 0x41, 0x00, 0x00, 0x00, 0x04, 0x01, 0x00, 0x00, 0x00, 0x25, 0x00, 0x00, 0x00, 0x18, 0x00, 0x00, 0x00, 0x22, 0x00, 0x00, 0x00, 0x18, 0x00, 0x00, 0x00, 0x19, 0x00, 0x00, 0x00, 0x1a, 0x00, 0x00, 0x00, 0x1b, 0x00, 0x00, 0x00, 0x10, 0x00, 0x00, 0x00, 0x11, 0x00, 0x00, 0x00, 0x12, 0x00, 0x00, 0x00, 0x13, 0x00, 0x00, 0x00, 0xff, 0xff, 0xff, 0xff, 0xff, 0xff, 0xff, 0xff, 0xff, 0xff, 0xff, 0xff, 0x14, 0x00, 0x00, 0x00, 0x15, 0x00, 0x00, 0x00, 0x16, 0x00, 0x00, 0x00, 0x17, 0x00, 0x00, 0x00, 0xff, 0xff, 0xff, 0xff, 0xff, 0xff, 0xff, 0xff, 0x23, 0x00, 0x00, 0x00, 0x24, 0x00, 0x00, 0x00, 0xff, 0xff, 0xff, 0xff, 0xff, 0xff, 0xff, 0xff, 0xff, 0xff, 0xff, 0xff, 0xff, 0xff, 0xff, 0xff, 0x00, 0x00, 0x16, 0x00, 0x18, 0x00, 0x00, 0x00, 0x14, 0x00, 0x10, 0x00, 0x0f, 0x00, 0x08, 0x00, 0x00, 0x00, 0x00, 0x00, 0x00, 0x00, 0x04, 0x00, 0x16, 0x00, 0x00, 0x00, 0x14, 0x00, 0x00, 0x00, 0x1c, 0x00, 0x00, 0x00, 0x00, 0x00, 0x00, 0x47, 0x20, 0x00, 0x00, 0x00, 0x24, 0x00, 0x00, 0x00, 0x00, 0x00, 0x00, 0x00, 0x08, 0x00, 0x0c, 0x00, 0x0b, 0x00, 0x04, 0x00, 0x08, 0x00, 0x00, 0x00, 0x00, 0x00, 0x20, 0x41, 0x00, 0x00, 0x00, 0x04, 0x01, 0x00, 0x00, 0x00, 0x22, 0x00, 0x00, 0x00, 0x18, 0x00, 0x00, 0x00, 0x00, 0x00, 0x00, 0x00, 0x0c, 0x00, 0x00, 0x00, 0x0d, 0x00, 0x00, 0x00, 0x0e, 0x00, 0x00, 0x00, 0x0f, 0x00, 0x00, 0x00, 0x04, 0x00, 0x00, 0x00, 0x05, 0x00, 0x00, 0x00, 0x06, 0x00, 0x00, 0x00, 0x07, 0x00, 0x00, 0x00, 0xff, 0xff, 0xff, 0xff, 0xff, 0xff, 0xff, 0xff, 0xff, 0xff, 0xff, 0xff, 0x08, 0x00, 0x00, 0x00, 0x09, 0x00, 0x00, 0x00, 0x0a, 0x00, 0x00, 0x00, 0x0b, 0x00, 0x00, 0x00, 0xff, 0xff, 0xff, 0xff, 0xff, 0xff, 0xff, 0xff, 0x01, 0x00, 0x00, 0x00, 0x21, 0x00, 0x00, 0x00, 0xff, 0xff, 0xff, 0xff, 0xff, 0xff, 0xff, 0xff, 0xff, 0xff, 0xff, 0xff, 0xff, 0xff, 0xff, 0xff, 0x01, 0x00, 0x00, 0x00, 0x28, 0x00, 0x00, 0x00, 0x01, 0x00, 0x00, 0x00, 0x00, 0x00, 0x00, 0x00, 0x29, 0x00, 0x00, 0x00, 0x5c, 0x0b, 0x00, 0x00, 0xfc, 0x0a, 0x00, 0x00, 0x8c, 0x0a, 0x00, 0x00, 0x34, 0x0a, 0x00, 0x00, 0xf4, 0x09, 0x00, 0x00, 0xb4, 0x09, 0x00, 0x00, 0x74, 0x09, 0x00, 0x00, 0x34, 0x09, 0x00, 0x00, 0xf8, 0x08, 0x00, 0x00, 0xbc, 0x08, 0x00, 0x00, 0x80, 0x08, 0x00, 0x00, 0x44, 0x08, 0x00, 0x00, 0x04, 0x08, 0x00, 0x00, 0xc4, 0x07, 0x00, 0x00, 0x80, 0x07, 0x00, 0x00, 0x3c, 0x07, 0x00, 0x00, 0xf8, 0x06, 0x00, 0x00, 0xb4, 0x06, 0x00, 0x00, 0x70, 0x06, 0x00, 0x00, 0x2c, 0x06, 0x00, 0x00, 0xec, 0x05, 0x00, 0x00, 0xac, 0x05, 0x00, 0x00, 0x6c, 0x05, 0x00, 0x00, 0x2c, 0x05, 0x00, 0x00, 0xe8, 0x04, 0x00, 0x00, 0xa4, 0x04, 0x00, 0x00, 0x60, 0x04, 0x00, 0x00, 0x1c, 0x04, 0x00, 0x00, 0xd0, 0x03, 0x00, 0x00, 0x84, 0x03, 0x00, 0x00, 0x40, 0x03, 0x00, 0x00, 0xe4, 0x02, 0x00, 0x00, 0xa0, 0x02, 0x00, 0x00, 0x58, 0x02, 0x00, 0x00, 0x00, 0x02, 0x00, 0x00, 0xb8, 0x01, 0x00, 0x00, 0x70, 0x01, 0x00, 0x00, 0x18, 0x01, 0x00, 0x00, 0xd4, 0x00, 0x00, 0x00, 0x50, 0x00, 0x00, 0x00, 0x04, 0x00, 0x00, 0x00, 0x5e, 0xf5, 0xff, 0xff, 0x00, 0x00, 0x00, 0x01, 0x10, 0x00, 0x00, 0x00, 0x10, 0x00, 0x00, 0x00, 0x29, 0x00, 0x00, 0x00, 0x28, 0x00, 0x00, 0x00, 0x48, 0xf5, 0xff, 0xff, 0x19, 0x00, 0x00, 0x00, 0x53, 0x74, 0x61, 0x74, 0x65, 0x66, 0x75, 0x6c, 0x50, 0x61, 0x72, 0x74, 0x69, 0x74, 0x69, 0x6f, 0x6e, 0x65, 0x64, 0x43, 0x61, 0x6c, 0x6c, 0x3a, 0x30, 0x00, 0x00, 0x00, 0x02, 0x00, 0x00, 0x00, 0x01, 0x00, 0x00, 0x00, 0x01, 0x00, 0x00, 0x00, 0xa6, 0xf5, 0xff, 0xff, 0x00, 0x00, 0x00, 0x01, 0x10, 0x00, 0x00, 0x00, 0x10, 0x00, 0x00, 0x00, 0x28, 0x00, 0x00, 0x00, 0x60, 0x00, 0x00, 0x00, 0x90, 0xf5, 0xff, 0xff, 0x52, 0x00, 0x00, 0x00, 0x73, 0x65, 0x71, 0x75, 0x65, 0x6e, 0x74, 0x69, 0x61, 0x6c, 0x5f, 0x31, 0x2f, 0x64, 0x65, 0x6e, 0x73, 0x65, 0x5f, 0x32, 0x2f, 0x4d, 0x61, 0x74, 0x4d, 0x75, 0x6c, 0x3b, 0x73, 0x65, 0x71, 0x75, 0x65, 0x6e, 0x74, 0x69, 0x61, 0x6c, 0x5f, 0x31, 0x2f, 0x64, 0x65, 0x6e, 0x73, 0x65, 0x5f, 0x32, 0x2f, 0x52, 0x65, 0x6c, 0x75, 0x3b, 0x73, 0x65, 0x71, 0x75, 0x65, 0x6e, 0x74, 0x69, 0x61, 0x6c, 0x5f, 0x31, 0x2f, 0x64, 0x65, 0x6e, 0x73, 0x65, 0x5f, 0x32, 0x2f, 0x42, 0x69, 0x61, 0x73, 0x41, 0x64, 0x64, 0x00, 0x00, 0x02, 0x00, 0x00, 0x00, 0x01, 0x00, 0x00, 0x00, 0x20, 0x00, 0x00, 0x00, 0x26, 0xf6, 0xff, 0xff, 0x00, 0x00, 0x00, 0x01, 0x10, 0x00, 0x00, 0x00, 0x10, 0x00, 0x00, 0x00, 0x27, 0x00, 0x00, 0x00, 0x20, 0x00, 0x00, 0x00, 0x10, 0xf6, 0xff, 0xff, 0x11, 0x00, 0x00, 0x00, 0x74, 0x66, 0x6c, 0x2e, 0x73, 0x74, 0x72, 0x69, 0x64, 0x65, 0x64, 0x5f, 0x73, 0x6c, 0x69, 0x63, 0x65, 0x00, 0x00, 0x00, 0x02, 0x00, 0x00, 0x00, 0x01, 0x00, 0x00, 0x00, 0x0c, 0x00, 0x00, 0x00, 0x66, 0xf6, 0xff, 0xff, 0x00, 0x00, 0x00, 0x01, 0x10, 0x00, 0x00, 0x00, 0x10, 0x00, 0x00, 0x00, 0x26, 0x00, 0x00, 0x00, 0x30, 0x00, 0x00, 0x00, 0x50, 0xf6, 0xff, 0xff, 0x21, 0x00, 0x00, 0x00, 0x74, 0x66, 0x6c, 0x2e, 0x75, 0x6e, 0x69, 0x64, 0x69, 0x72, 0x65, 0x63, 0x74, 0x69, 0x6f, 0x6e, 0x61, 0x6c, 0x5f, 0x73, 0x65, 0x71, 0x75, 0x65, 0x6e, 0x63, 0x65, 0x5f, 0x6c, 0x73, 0x74, 0x6d, 0x31, 0x00, 0x00, 0x00, 0x03, 0x00, 0x00, 0x00, 0x01, 0x00, 0x00, 0x00, 0x03, 0x00, 0x00, 0x00, 0x0c, 0x00, 0x00, 0x00, 0x16, 0xf7, 0xff, 0xff, 0x00, 0x00, 0x01, 0x01, 0x0c, 0x00, 0x00, 0x00, 0x0c, 0x00, 0x00, 0x00, 0x28, 0x00, 0x00, 0x00, 0xa0, 0xf6, 0xff, 0xff, 0x1a, 0x00, 0x00, 0x00, 0x73, 0x65, 0x71, 0x75, 0x65, 0x6e, 0x74, 0x69, 0x61, 0x6c, 0x5f, 0x31, 0x2f, 0x6c, 0x73, 0x74, 0x6d, 0x5f, 0x32, 0x2f, 0x7a, 0x65, 0x72, 0x6f, 0x73, 0x33, 0x00, 0x00, 0x02, 0x00, 0x00, 0x00, 0x01, 0x00, 0x00, 0x00, 0x0c, 0x00, 0x00, 0x00, 0x5a, 0xf7, 0xff, 0xff, 0x00, 0x00, 0x01, 0x01, 0x0c, 0x00, 0x00, 0x00, 0x0c, 0x00, 0x00, 0x00, 0x28, 0x00, 0x00, 0x00, 0xe4, 0xf6, 0xff, 0xff, 0x1a, 0x00, 0x00, 0x00, 0x73, 0x65, 0x71, 0x75, 0x65, 0x6e, 0x74, 0x69, 0x61, 0x6c, 0x5f, 0x31, 0x2f, 0x6c, 0x73, 0x74, 0x6d, 0x5f, 0x32, 0x2f, 0x7a, 0x65, 0x72, 0x6f, 0x73, 0x32, 0x00, 0x00, 0x02, 0x00, 0x00, 0x00, 0x01, 0x00, 0x00, 0x00, 0x0c, 0x00, 0x00, 0x00, 0x42, 0xf7, 0xff, 0xff, 0x00, 0x00, 0x00, 0x01, 0x10, 0x00, 0x00, 0x00, 0x10, 0x00, 0x00, 0x00, 0x23, 0x00, 0x00, 0x00, 0x30, 0x00, 0x00, 0x00, 0x2c, 0xf7, 0xff, 0xff, 0x20, 0x00, 0x00, 0x00, 0x74, 0x66, 0x6c, 0x2e, 0x75, 0x6e, 0x69, 0x64, 0x69, 0x72, 0x65, 0x63, 0x74, 0x69, 0x6f, 0x6e, 0x61, 0x6c, 0x5f, 0x73, 0x65, 0x71, 0x75, 0x65, 0x6e, 0x63, 0x65, 0x5f, 0x6c, 0x73, 0x74, 0x6d, 0x00, 0x00, 0x00, 0x00, 0x03, 0x00, 0x00, 0x00, 0x01, 0x00, 0x00, 0x00, 0x03, 0x00, 0x00, 0x00, 0x0c, 0x00, 0x00, 0x00, 0xf2, 0xf7, 0xff, 0xff, 0x00, 0x00, 0x01, 0x01, 0x0c, 0x00, 0x00, 0x00, 0x0c, 0x00, 0x00, 0x00, 0x28, 0x00, 0x00, 0x00, 0x7c, 0xf7, 0xff, 0xff, 0x1a, 0x00, 0x00, 0x00, 0x73, 0x65, 0x71, 0x75, 0x65, 0x6e, 0x74, 0x69, 0x61, 0x6c, 0x5f, 0x31, 0x2f, 0x6c, 0x73, 0x74, 0x6d, 0x5f, 0x32, 0x2f, 0x7a, 0x65, 0x72, 0x6f, 0x73, 0x31, 0x00, 0x00, 0x02, 0x00, 0x00, 0x00, 0x01, 0x00, 0x00, 0x00, 0x0c, 0x00, 0x00, 0x00, 0x7e, 0xff, 0xff, 0xff, 0x00, 0x00, 0x00, 0x01, 0x14, 0x00, 0x00, 0x00, 0x14, 0x00, 0x00, 0x00, 0x21, 0x00, 0x00, 0x00, 0x00, 0x00, 0x00, 0x02, 0x20, 0x00, 0x00, 0x00, 0xc8, 0xf7, 0xff, 0xff, 0x10, 0x00, 0x00, 0x00, 0x61, 0x72, 0x69, 0x74, 0x68, 0x2e, 0x63, 0x6f, 0x6e, 0x73, 0x74, 0x61, 0x6e, 0x74, 0x32, 0x36, 0x00, 0x00, 0x00, 0x00, 0x01, 0x00, 0x00, 0x00, 0x03, 0x00, 0x00, 0x00, 0xbe, 0xff, 0xff, 0xff, 0x00, 0x00, 0x00, 0x01, 0x14, 0x00, 0x00, 0x00, 0x14, 0x00, 0x00, 0x00, 0x20, 0x00, 0x00, 0x00, 0x00, 0x00, 0x00, 0x02, 0x20, 0x00, 0x00, 0x00, 0x08, 0xf8, 0xff, 0xff, 0x10, 0x00, 0x00, 0x00, 0x61, 0x72, 0x69, 0x74, 0x68, 0x2e, 0x63, 0x6f, 0x6e, 0x73, 0x74, 0x61, 0x6e, 0x74, 0x32, 0x35, 0x00, 0x00, 0x00, 0x00, 0x01, 0x00, 0x00, 0x00, 0x03, 0x00, 0x00, 0x00, 0x00, 0x00, 0x16, 0x00, 0x1c, 0x00, 0x18, 0x00, 0x17, 0x00, 0x10, 0x00, 0x0c, 0x00, 0x08, 0x00, 0x00, 0x00, 0x00, 0x00, 0x00, 0x00, 0x07, 0x00, 0x16, 0x00, 0x00, 0x00, 0x00, 0x00, 0x00, 0x01, 0x14, 0x00, 0x00, 0x00, 0x14, 0x00, 0x00, 0x00, 0x1f, 0x00, 0x00, 0x00, 0x00, 0x00, 0x00, 0x02, 0x20, 0x00, 0x00, 0x00, 0x60, 0xf8, 0xff, 0xff, 0x10, 0x00, 0x00, 0x00, 0x61, 0x72, 0x69, 0x74, 0x68, 0x2e, 0x63, 0x6f, 0x6e, 0x73, 0x74, 0x61, 0x6e, 0x74, 0x32, 0x34, 0x00, 0x00, 0x00, 0x00, 0x01, 0x00, 0x00, 0x00, 0x03, 0x00, 0x00, 0x00, 0xb2, 0xf8, 0xff, 0xff, 0x00, 0x00, 0x00, 0x01, 0x10, 0x00, 0x00, 0x00, 0x10, 0x00, 0x00, 0x00, 0x1e, 0x00, 0x00, 0x00, 0x28, 0x00, 0x00, 0x00, 0x9c, 0xf8, 0xff, 0xff, 0x1b, 0x00, 0x00, 0x00, 0x73, 0x65, 0x71, 0x75, 0x65, 0x6e, 0x74, 0x69, 0x61, 0x6c, 0x5f, 0x31, 0x2f, 0x64, 0x65, 0x6e, 0x73, 0x65, 0x5f, 0x33, 0x2f, 0x4d, 0x61, 0x74, 0x4d, 0x75, 0x6c, 0x00, 0x02, 0x00, 0x00, 0x00, 0x01, 0x00, 0x00, 0x00, 0x20, 0x00, 0x00, 0x00, 0xfa, 0xf8, 0xff, 0xff, 0x00, 0x00, 0x00, 0x01, 0x10, 0x00, 0x00, 0x00, 0x10, 0x00, 0x00, 0x00, 0x1d, 0x00, 0x00, 0x00, 0x28, 0x00, 0x00, 0x00, 0xe4, 0xf8, 0xff, 0xff, 0x1b, 0x00, 0x00, 0x00, 0x73, 0x65, 0x71, 0x75, 0x65, 0x6e, 0x74, 0x69, 0x61, 0x6c, 0x5f, 0x31, 0x2f, 0x64, 0x65, 0x6e, 0x73, 0x65, 0x5f, 0x32, 0x2f, 0x4d, 0x61, 0x74, 0x4d, 0x75, 0x6c, 0x00, 0x02, 0x00, 0x00, 0x00, 0x20, 0x00, 0x00, 0x00, 0x0c, 0x00, 0x00, 0x00, 0x42, 0xf9, 0xff, 0xff, 0x00, 0x00, 0x00, 0x01, 0x10, 0x00, 0x00, 0x00, 0x10, 0x00, 0x00, 0x00, 0x1c, 0x00, 0x00, 0x00, 0x20, 0x00, 0x00, 0x00, 0x2c, 0xf9, 0xff, 0xff, 0x10, 0x00, 0x00, 0x00, 0x61, 0x72, 0x69, 0x74, 0x68, 0x2e, 0x63, 0x6f, 0x6e, 0x73, 0x74, 0x61, 0x6e, 0x74, 0x32, 0x33, 0x00, 0x00, 0x00, 0x00, 0x02, 0x00, 0x00, 0x00, 0x0c, 0x00, 0x00, 0x00, 0x0c, 0x00, 0x00, 0x00, 0x82, 0xf9, 0xff, 0xff, 0x00, 0x00, 0x00, 0x01, 0x10, 0x00, 0x00, 0x00, 0x10, 0x00, 0x00, 0x00, 0x1b, 0x00, 0x00, 0x00, 0x20, 0x00, 0x00, 0x00, 0x6c, 0xf9, 0xff, 0xff, 0x10, 0x00, 0x00, 0x00, 0x61, 0x72, 0x69, 0x74, 0x68, 0x2e, 0x63, 0x6f, 0x6e, 0x73, 0x74, 0x61, 0x6e, 0x74, 0x32, 0x32, 0x00, 0x00, 0x00, 0x00, 0x02, 0x00, 0x00, 0x00, 0x0c, 0x00, 0x00, 0x00, 0x0c, 0x00, 0x00, 0x00, 0xc2, 0xf9, 0xff, 0xff, 0x00, 0x00, 0x00, 0x01, 0x10, 0x00, 0x00, 0x00, 0x10, 0x00, 0x00, 0x00, 0x1a, 0x00, 0x00, 0x00, 0x20, 0x00, 0x00, 0x00, 0xac, 0xf9, 0xff, 0xff, 0x10, 0x00, 0x00, 0x00, 0x61, 0x72, 0x69, 0x74, 0x68, 0x2e, 0x63, 0x6f, 0x6e, 0x73, 0x74, 0x61, 0x6e, 0x74, 0x32, 0x31, 0x00, 0x00, 0x00, 0x00, 0x02, 0x00, 0x00, 0x00, 0x0c, 0x00, 0x00, 0x00, 0x0c, 0x00, 0x00, 0x00, 0x02, 0xfa, 0xff, 0xff, 0x00, 0x00, 0x00, 0x01, 0x10, 0x00, 0x00, 0x00, 0x10, 0x00, 0x00, 0x00, 0x19, 0x00, 0x00, 0x00, 0x20, 0x00, 0x00, 0x00, 0xec, 0xf9, 0xff, 0xff, 0x10, 0x00, 0x00, 0x00, 0x61, 0x72, 0x69, 0x74, 0x68, 0x2e, 0x63, 0x6f, 0x6e, 0x73, 0x74, 0x61, 0x6e, 0x74, 0x32, 0x30, 0x00, 0x00, 0x00, 0x00, 0x02, 0x00, 0x00, 0x00, 0x0c, 0x00, 0x00, 0x00, 0x0c, 0x00, 0x00, 0x00, 0x42, 0xfa, 0xff, 0xff, 0x00, 0x00, 0x00, 0x01, 0x10, 0x00, 0x00, 0x00, 0x10, 0x00, 0x00, 0x00, 0x18, 0x00, 0x00, 0x00, 0x20, 0x00, 0x00, 0x00, 0x2c, 0xfa, 0xff, 0xff, 0x10, 0x00, 0x00, 0x00, 0x61, 0x72, 0x69, 0x74, 0x68, 0x2e, 0x63, 0x6f, 0x6e, 0x73, 0x74, 0x61, 0x6e, 0x74, 0x31, 0x39, 0x00, 0x00, 0x00, 0x00, 0x01, 0x00, 0x00, 0x00, 0x0c, 0x00, 0x00, 0x00, 0x7e, 0xfa, 0xff, 0xff, 0x00, 0x00, 0x00, 0x01, 0x10, 0x00, 0x00, 0x00, 0x10, 0x00, 0x00, 0x00, 0x17, 0x00, 0x00, 0x00, 0x20, 0x00, 0x00, 0x00, 0x68, 0xfa, 0xff, 0xff, 0x10, 0x00, 0x00, 0x00, 0x61, 0x72, 0x69, 0x74, 0x68, 0x2e, 0x63, 0x6f, 0x6e, 0x73, 0x74, 0x61, 0x6e, 0x74, 0x31, 0x38, 0x00, 0x00, 0x00, 0x00, 0x01, 0x00, 0x00, 0x00, 0x0c, 0x00, 0x00, 0x00, 0xba, 0xfa, 0xff, 0xff, 0x00, 0x00, 0x00, 0x01, 0x10, 0x00, 0x00, 0x00, 0x10, 0x00, 0x00, 0x00, 0x16, 0x00, 0x00, 0x00, 0x20, 0x00, 0x00, 0x00, 0xa4, 0xfa, 0xff, 0xff, 0x10, 0x00, 0x00, 0x00, 0x61, 0x72, 0x69, 0x74, 0x68, 0x2e, 0x63, 0x6f, 0x6e, 0x73, 0x74, 0x61, 0x6e, 0x74, 0x31, 0x37, 0x00, 0x00, 0x00, 0x00, 0x01, 0x00, 0x00, 0x00, 0x0c, 0x00, 0x00, 0x00, 0xf6, 0xfa, 0xff, 0xff, 0x00, 0x00, 0x00, 0x01, 0x10, 0x00, 0x00, 0x00, 0x10, 0x00, 0x00, 0x00, 0x15, 0x00, 0x00, 0x00, 0x20, 0x00, 0x00, 0x00, 0xe0, 0xfa, 0xff, 0xff, 0x10, 0x00, 0x00, 0x00, 0x61, 0x72, 0x69, 0x74, 0x68, 0x2e, 0x63, 0x6f, 0x6e, 0x73, 0x74, 0x61, 0x6e, 0x74, 0x31, 0x36, 0x00, 0x00, 0x00, 0x00, 0x01, 0x00, 0x00, 0x00, 0x0c, 0x00, 0x00, 0x00, 0x32, 0xfb, 0xff, 0xff, 0x00, 0x00, 0x00, 0x01, 0x10, 0x00, 0x00, 0x00, 0x10, 0x00, 0x00, 0x00, 0x14, 0x00, 0x00, 0x00, 0x20, 0x00, 0x00, 0x00, 0x1c, 0xfb, 0xff, 0xff, 0x10, 0x00, 0x00, 0x00, 0x61, 0x72, 0x69, 0x74, 0x68, 0x2e, 0x63, 0x6f, 0x6e, 0x73, 0x74, 0x61, 0x6e, 0x74, 0x31, 0x35, 0x00, 0x00, 0x00, 0x00, 0x02, 0x00, 0x00, 0x00, 0x0c, 0x00, 0x00, 0x00, 0x0c, 0x00, 0x00, 0x00, 0x72, 0xfb, 0xff, 0xff, 0x00, 0x00, 0x00, 0x01, 0x10, 0x00, 0x00, 0x00, 0x10, 0x00, 0x00, 0x00, 0x13, 0x00, 0x00, 0x00, 0x20, 0x00, 0x00, 0x00, 0x5c, 0xfb, 0xff, 0xff, 0x10, 0x00, 0x00, 0x00, 0x61, 0x72, 0x69, 0x74, 0x68, 0x2e, 0x63, 0x6f, 0x6e, 0x73, 0x74, 0x61, 0x6e, 0x74, 0x31, 0x34, 0x00, 0x00, 0x00, 0x00, 0x02, 0x00, 0x00, 0x00, 0x0c, 0x00, 0x00, 0x00, 0x0c, 0x00, 0x00, 0x00, 0xb2, 0xfb, 0xff, 0xff, 0x00, 0x00, 0x00, 0x01, 0x10, 0x00, 0x00, 0x00, 0x10, 0x00, 0x00, 0x00, 0x12, 0x00, 0x00, 0x00, 0x20, 0x00, 0x00, 0x00, 0x9c, 0xfb, 0xff, 0xff, 0x10, 0x00, 0x00, 0x00, 0x61, 0x72, 0x69, 0x74, 0x68, 0x2e, 0x63, 0x6f, 0x6e, 0x73, 0x74, 0x61, 0x6e, 0x74, 0x31, 0x33, 0x00, 0x00, 0x00, 0x00, 0x02, 0x00, 0x00, 0x00, 0x0c, 0x00, 0x00, 0x00, 0x0c, 0x00, 0x00, 0x00, 0xf2, 0xfb, 0xff, 0xff, 0x00, 0x00, 0x00, 0x01, 0x10, 0x00, 0x00, 0x00, 0x10, 0x00, 0x00, 0x00, 0x11, 0x00, 0x00, 0x00, 0x20, 0x00, 0x00, 0x00, 0xdc, 0xfb, 0xff, 0xff, 0x10, 0x00, 0x00, 0x00, 0x61, 0x72, 0x69, 0x74, 0x68, 0x2e, 0x63, 0x6f, 0x6e, 0x73, 0x74, 0x61, 0x6e, 0x74, 0x31, 0x32, 0x00, 0x00, 0x00, 0x00, 0x02, 0x00, 0x00, 0x00, 0x0c, 0x00, 0x00, 0x00, 0x0c, 0x00, 0x00, 0x00, 0x32, 0xfc, 0xff, 0xff, 0x00, 0x00, 0x00, 0x01, 0x10, 0x00, 0x00, 0x00, 0x10, 0x00, 0x00, 0x00, 0x10, 0x00, 0x00, 0x00, 0x20, 0x00, 0x00, 0x00, 0x1c, 0xfc, 0xff, 0xff, 0x10, 0x00, 0x00, 0x00, 0x61, 0x72, 0x69, 0x74, 0x68, 0x2e, 0x63, 0x6f, 0x6e, 0x73, 0x74, 0x61, 0x6e, 0x74, 0x31, 0x31, 0x00, 0x00, 0x00, 0x00, 0x02, 0x00, 0x00, 0x00, 0x0c, 0x00, 0x00, 0x00, 0x01, 0x00, 0x00, 0x00, 0x72, 0xfc, 0xff, 0xff, 0x00, 0x00, 0x00, 0x01, 0x10, 0x00, 0x00, 0x00, 0x10, 0x00, 0x00, 0x00, 0x0f, 0x00, 0x00, 0x00, 0x20, 0x00, 0x00, 0x00, 0x5c, 0xfc, 0xff, 0xff, 0x10, 0x00, 0x00, 0x00, 0x61, 0x72, 0x69, 0x74, 0x68, 0x2e, 0x63, 0x6f, 0x6e, 0x73, 0x74, 0x61, 0x6e, 0x74, 0x31, 0x30, 0x00, 0x00, 0x00, 0x00, 0x02, 0x00, 0x00, 0x00, 0x0c, 0x00, 0x00, 0x00, 0x01, 0x00, 0x00, 0x00, 0xb2, 0xfc, 0xff, 0xff, 0x00, 0x00, 0x00, 0x01, 0x10, 0x00, 0x00, 0x00, 0x10, 0x00, 0x00, 0x00, 0x0e, 0x00, 0x00, 0x00, 0x1c, 0x00, 0x00, 0x00, 0x9c, 0xfc, 0xff, 0xff, 0x0f, 0x00, 0x00, 0x00, 0x61, 0x72, 0x69, 0x74, 0x68, 0x2e, 0x63, 0x6f, 0x6e, 0x73, 0x74, 0x61, 0x6e, 0x74, 0x39, 0x00, 0x02, 0x00, 0x00, 0x00, 0x0c, 0x00, 0x00, 0x00, 0x01, 0x00, 0x00, 0x00, 0xee, 0xfc, 0xff, 0xff, 0x00, 0x00, 0x00, 0x01, 0x10, 0x00, 0x00, 0x00, 0x10, 0x00, 0x00, 0x00, 0x0d, 0x00, 0x00, 0x00, 0x1c, 0x00, 0x00, 0x00, 0xd8, 0xfc, 0xff, 0xff, 0x0f, 0x00, 0x00, 0x00, 0x61, 0x72, 0x69, 0x74, 0x68, 0x2e, 0x63, 0x6f, 0x6e, 0x73, 0x74, 0x61, 0x6e, 0x74, 0x38, 0x00, 0x02, 0x00, 0x00, 0x00, 0x0c, 0x00, 0x00, 0x00, 0x01, 0x00, 0x00, 0x00, 0x2a, 0xfd, 0xff, 0xff, 0x00, 0x00, 0x00, 0x01, 0x10, 0x00, 0x00, 0x00, 0x10, 0x00, 0x00, 0x00, 0x0c, 0x00, 0x00, 0x00, 0x1c, 0x00, 0x00, 0x00, 0x14, 0xfd, 0xff, 0xff, 0x0f, 0x00, 0x00, 0x00, 0x61, 0x72, 0x69, 0x74, 0x68, 0x2e, 0x63, 0x6f, 0x6e, 0x73, 0x74, 0x61, 0x6e, 0x74, 0x37, 0x00, 0x01, 0x00, 0x00, 0x00, 0x0c, 0x00, 0x00, 0x00, 0x62, 0xfd, 0xff, 0xff, 0x00, 0x00, 0x00, 0x01, 0x10, 0x00, 0x00, 0x00, 0x10, 0x00, 0x00, 0x00, 0x0b, 0x00, 0x00, 0x00, 0x1c, 0x00, 0x00, 0x00, 0x4c, 0xfd, 0xff, 0xff, 0x0f, 0x00, 0x00, 0x00, 0x61, 0x72, 0x69, 0x74, 0x68, 0x2e, 0x63, 0x6f, 0x6e, 0x73, 0x74, 0x61, 0x6e, 0x74, 0x36, 0x00, 0x01, 0x00, 0x00, 0x00, 0x0c, 0x00, 0x00, 0x00, 0x9a, 0xfd, 0xff, 0xff, 0x00, 0x00, 0x00, 0x01, 0x10, 0x00, 0x00, 0x00, 0x10, 0x00, 0x00, 0x00, 0x0a, 0x00, 0x00, 0x00, 0x1c, 0x00, 0x00, 0x00, 0x84, 0xfd, 0xff, 0xff, 0x0f, 0x00, 0x00, 0x00, 0x61, 0x72, 0x69, 0x74, 0x68, 0x2e, 0x63, 0x6f, 0x6e, 0x73, 0x74, 0x61, 0x6e, 0x74, 0x35, 0x00, 0x01, 0x00, 0x00, 0x00, 0x0c, 0x00, 0x00, 0x00, 0xd2, 0xfd, 0xff, 0xff, 0x00, 0x00, 0x00, 0x01, 0x10, 0x00, 0x00, 0x00, 0x10, 0x00, 0x00, 0x00, 0x09, 0x00, 0x00, 0x00, 0x1c, 0x00, 0x00, 0x00, 0xbc, 0xfd, 0xff, 0xff, 0x0f, 0x00, 0x00, 0x00, 0x61, 0x72, 0x69, 0x74, 0x68, 0x2e, 0x63, 0x6f, 0x6e, 0x73, 0x74, 0x61, 0x6e, 0x74, 0x34, 0x00, 0x01, 0x00, 0x00, 0x00, 0x0c, 0x00, 0x00, 0x00, 0x0a, 0xfe, 0xff, 0xff, 0x00, 0x00, 0x00, 0x01, 0x10, 0x00, 0x00, 0x00, 0x10, 0x00, 0x00, 0x00, 0x08, 0x00, 0x00, 0x00, 0x1c, 0x00, 0x00, 0x00, 0xf4, 0xfd, 0xff, 0xff, 0x0f, 0x00, 0x00, 0x00, 0x61, 0x72, 0x69, 0x74, 0x68, 0x2e, 0x63, 0x6f, 0x6e, 0x73, 0x74, 0x61, 0x6e, 0x74, 0x33, 0x00, 0x02, 0x00, 0x00, 0x00, 0x0c, 0x00, 0x00, 0x00, 0x0c, 0x00, 0x00, 0x00, 0x46, 0xfe, 0xff, 0xff, 0x00, 0x00, 0x00, 0x01, 0x10, 0x00, 0x00, 0x00, 0x10, 0x00, 0x00, 0x00, 0x07, 0x00, 0x00, 0x00, 0x1c, 0x00, 0x00, 0x00, 0x30, 0xfe, 0xff, 0xff, 0x0f, 0x00, 0x00, 0x00, 0x61, 0x72, 0x69, 0x74, 0x68, 0x2e, 0x63, 0x6f, 0x6e, 0x73, 0x74, 0x61, 0x6e, 0x74, 0x32, 0x00, 0x02, 0x00, 0x00, 0x00, 0x0c, 0x00, 0x00, 0x00, 0x0c, 0x00, 0x00, 0x00, 0x82, 0xfe, 0xff, 0xff, 0x00, 0x00, 0x00, 0x01, 0x10, 0x00, 0x00, 0x00, 0x10, 0x00, 0x00, 0x00, 0x06, 0x00, 0x00, 0x00, 0x1c, 0x00, 0x00, 0x00, 0x6c, 0xfe, 0xff, 0xff, 0x0f, 0x00, 0x00, 0x00, 0x61, 0x72, 0x69, 0x74, 0x68, 0x2e, 0x63, 0x6f, 0x6e, 0x73, 0x74, 0x61, 0x6e, 0x74, 0x31, 0x00, 0x02, 0x00, 0x00, 0x00, 0x0c, 0x00, 0x00, 0x00, 0x0c, 0x00, 0x00, 0x00, 0xbe, 0xfe, 0xff, 0xff, 0x00, 0x00, 0x00, 0x01, 0x10, 0x00, 0x00, 0x00, 0x10, 0x00, 0x00, 0x00, 0x05, 0x00, 0x00, 0x00, 0x1c, 0x00, 0x00, 0x00, 0xa8, 0xfe, 0xff, 0xff, 0x0e, 0x00, 0x00, 0x00, 0x61, 0x72, 0x69, 0x74, 0x68, 0x2e, 0x63, 0x6f, 0x6e, 0x73, 0x74, 0x61, 0x6e, 0x74, 0x00, 0x00, 0x02, 0x00, 0x00, 0x00, 0x0c, 0x00, 0x00, 0x00, 0x0c, 0x00, 0x00, 0x00, 0xfa, 0xfe, 0xff, 0xff, 0x00, 0x00, 0x00, 0x01, 0x10, 0x00, 0x00, 0x00, 0x10, 0x00, 0x00, 0x00, 0x04, 0x00, 0x00, 0x00, 0x38, 0x00, 0x00, 0x00, 0xe4, 0xfe, 0xff, 0xff, 0x2b, 0x00, 0x00, 0x00, 0x73, 0x65, 0x71, 0x75, 0x65, 0x6e, 0x74, 0x69, 0x61, 0x6c, 0x5f, 0x31, 0x2f, 0x64, 0x65, 0x6e, 0x73, 0x65, 0x5f, 0x33, 0x2f, 0x42, 0x69, 0x61, 0x73, 0x41, 0x64, 0x64, 0x2f, 0x52, 0x65, 0x61, 0x64, 0x56, 0x61, 0x72, 0x69, 0x61, 0x62, 0x6c, 0x65, 0x4f, 0x70, 0x00, 0x01, 0x00, 0x00, 0x00, 0x01, 0x00, 0x00, 0x00, 0x4e, 0xff, 0xff, 0xff, 0x00, 0x00, 0x00, 0x01, 0x10, 0x00, 0x00, 0x00, 0x10, 0x00, 0x00, 0x00, 0x03, 0x00, 0x00, 0x00, 0x38, 0x00, 0x00, 0x00, 0x38, 0xff, 0xff, 0xff, 0x2b, 0x00, 0x00, 0x00, 0x73, 0x65, 0x71, 0x75, 0x65, 0x6e, 0x74, 0x69, 0x61, 0x6c, 0x5f, 0x31, 0x2f, 0x64, 0x65, 0x6e, 0x73, 0x65, 0x5f, 0x32, 0x2f, 0x42, 0x69, 0x61, 0x73, 0x41, 0x64, 0x64, 0x2f, 0x52, 0x65, 0x61, 0x64, 0x56, 0x61, 0x72, 0x69, 0x61, 0x62, 0x6c, 0x65, 0x4f, 0x70, 0x00, 0x01, 0x00, 0x00, 0x00, 0x20, 0x00, 0x00, 0x00, 0x00, 0x00, 0x16, 0x00, 0x14, 0x00, 0x10, 0x00, 0x00, 0x00, 0x00, 0x00, 0x0c, 0x00, 0x08, 0x00, 0x07, 0x00, 0x00, 0x00, 0x00, 0x00, 0x06, 0x00, 0x16, 0x00, 0x00, 0x00, 0x00, 0x00, 0x01, 0x01, 0x0c, 0x00, 0x00, 0x00, 0x0c, 0x00, 0x00, 0x00, 0x28, 0x00, 0x00, 0x00, 0xa0, 0xff, 0xff, 0xff, 0x19, 0x00, 0x00, 0x00, 0x73, 0x65, 0x71, 0x75, 0x65, 0x6e, 0x74, 0x69, 0x61, 0x6c, 0x5f, 0x31, 0x2f, 0x6c, 0x73, 0x74, 0x6d, 0x5f, 0x32, 0x2f, 0x7a, 0x65, 0x72, 0x6f, 0x73, 0x00, 0x00, 0x00, 0x02, 0x00, 0x00, 0x00, 0x01, 0x00, 0x00, 0x00, 0x0c, 0x00, 0x00, 0x00, 0x00, 0x00, 0x16, 0x00, 0x18, 0x00, 0x14, 0x00, 0x00, 0x00, 0x10, 0x00, 0x0c, 0x00, 0x08, 0x00, 0x00, 0x00, 0x00, 0x00, 0x00, 0x00, 0x07, 0x00, 0x16, 0x00, 0x00, 0x00, 0x00, 0x00, 0x00, 0x01, 0x14, 0x00, 0x00, 0x00, 0x14, 0x00, 0x00, 0x00, 0x01, 0x00, 0x00, 0x00, 0x24, 0x00, 0x00, 0x00, 0x04, 0x00, 0x04, 0x00, 0x04, 0x00, 0x00, 0x00, 0x13, 0x00, 0x00, 0x00, 0x73, 0x65, 0x72, 0x76, 0x69, 0x6e, 0x67, 0x5f, 0x64, 0x65, 0x66, 0x61, 0x75, 0x6c, 0x74, 0x5f, 0x78, 0x3a, 0x30, 0x00, 0x03, 0x00, 0x00, 0x00, 0x01, 0x00, 0x00, 0x00, 0x03, 0x00, 0x00, 0x00, 0x01, 0x00, 0x00, 0x00, 0x03, 0x00, 0x00, 0x00, 0x30, 0x00, 0x00, 0x00, 0x14, 0x00, 0x00, 0x00, 0x04, 0x00, 0x00, 0x00, 0xe8, 0xff, 0xff, 0xff, 0x09, 0x00, 0x00, 0x00, 0x00, 0x00, 0x00, 0x09, 0xf4, 0xff, 0xff, 0xff, 0x2d, 0x00, 0x00, 0x00, 0x00, 0x00, 0x00, 0x2d, 0x0c, 0x00, 0x0c, 0x00, 0x0b, 0x00, 0x00, 0x00, 0x00, 0x00, 0x04, 0x00, 0x0c, 0x00, 0x00, 0x00, 0x2c, 0x00, 0x00, 0x00, 0x00, 0x00, 0x00, 0x2c };