#pragma once

#ifdef __has_attribute
#define HAVE_ATTRIBUTE(x) __has_attribute(x)
#else
#define HAVE_ATTRIBUTE(x) 0
#endif
#if HAVE_ATTRIBUTE(aligned) || (defined(__GNUC__) && !defined(__clang__))
#define DATA_ALIGN_ATTRIBUTE __attribute__((aligned(4)))
#else
#define DATA_ALIGN_ATTRIBUTE
#endif

// automatically configure network
#define TF_NUM_INPUTS 3
#define TF_NUM_OUTPUTS 1
#define TF_NUM_OPS 21

/**
 * Call this function to register the ops
 * that have been detected
 */
template<class TF>
void registerNetworkOps(TF& nn) {
    nn.resolver.AddSlice();
    nn.resolver.AddTranspose();
    nn.resolver.AddFill();
    nn.resolver.AddSoftmax();
    nn.resolver.AddRelu();
    nn.resolver.AddAdd();
    nn.resolver.AddShape();
    nn.resolver.AddLess();
    nn.resolver.AddUnidirectionalSequenceLSTM();
    nn.resolver.AddMul();
    nn.resolver.AddStridedSlice();
    nn.resolver.AddSplit();
    nn.resolver.AddReshape();
    nn.resolver.AddFullyConnected();
    nn.resolver.AddGather();
    nn.resolver.AddMinimum();
    nn.resolver.AddWhile();
    nn.resolver.AddConcatenation();
    nn.resolver.AddTanh();
    nn.resolver.AddMaximum();
    nn.resolver.AddPack();
    
}




// model data
const unsigned char tfModel[14216] DATA_ALIGN_ATTRIBUTE = { 0x1c, 0x00, 0x00, 0x00, 0x54, 0x46, 0x4c, 0x33, 0x14, 0x00, 0x20, 0x00, 0x1c, 0x00, 0x18, 0x00, 0x14, 0x00, 0x10, 0x00, 0x0c, 0x00, 0x00, 0x00, 0x08, 0x00, 0x04, 0x00, 0x14, 0x00, 0x00, 0x00, 0x1c, 0x00, 0x00, 0x00, 0x8c, 0x00, 0x00, 0x00, 0xe4, 0x00, 0x00, 0x00, 0x00, 0x29, 0x00, 0x00, 0x10, 0x29, 0x00, 0x00, 0x14, 0x37, 0x00, 0x00, 0x03, 0x00, 0x00, 0x00, 0x01, 0x00, 0x00, 0x00, 0x10, 0x00, 0x00, 0x00, 0x00, 0x00, 0x0a, 0x00, 0x10, 0x00, 0x0c, 0x00, 0x08, 0x00, 0x04, 0x00, 0x0a, 0x00, 0x00, 0x00, 0x0c, 0x00, 0x00, 0x00, 0x1c, 0x00, 0x00, 0x00, 0x3c, 0x00, 0x00, 0x00, 0x0f, 0x00, 0x00, 0x00, 0x73, 0x65, 0x72, 0x76, 0x69, 0x6e, 0x67, 0x5f, 0x64, 0x65, 0x66, 0x61, 0x75, 0x6c, 0x74, 0x00, 0x01, 0x00, 0x00, 0x00, 0x04, 0x00, 0x00, 0x00, 0x9c, 0xff, 0xff, 0xff, 0x28, 0x00, 0x00, 0x00, 0x04, 0x00, 0x00, 0x00, 0x08, 0x00, 0x00, 0x00, 0x6f, 0x75, 0x74, 0x70, 0x75, 0x74, 0x5f, 0x30, 0x00, 0x00, 0x00, 0x00, 0x01, 0x00, 0x00, 0x00, 0x04, 0x00, 0x00, 0x00, 0xbe, 0xd7, 0xff, 0xff, 0x04, 0x00, 0x00, 0x00, 0x01, 0x00, 0x00, 0x00, 0x78, 0x00, 0x00, 0x00, 0x02, 0x00, 0x00, 0x00, 0x34, 0x00, 0x00, 0x00, 0x04, 0x00, 0x00, 0x00, 0xdc, 0xff, 0xff, 0xff, 0x2b, 0x00, 0x00, 0x00, 0x04, 0x00, 0x00, 0x00, 0x13, 0x00, 0x00, 0x00, 0x43, 0x4f, 0x4e, 0x56, 0x45, 0x52, 0x53, 0x49, 0x4f, 0x4e, 0x5f, 0x4d, 0x45, 0x54, 0x41, 0x44, 0x41, 0x54, 0x41, 0x00, 0x08, 0x00, 0x0c, 0x00, 0x08, 0x00, 0x04, 0x00, 0x08, 0x00, 0x00, 0x00, 0x2a, 0x00, 0x00, 0x00, 0x04, 0x00, 0x00, 0x00, 0x13, 0x00, 0x00, 0x00, 0x6d, 0x69, 0x6e, 0x5f, 0x72, 0x75, 0x6e, 0x74, 0x69, 0x6d, 0x65, 0x5f, 0x76, 0x65, 0x72, 0x73, 0x69, 0x6f, 0x6e, 0x00, 0x2c, 0x00, 0x00, 0x00, 0x18, 0x28, 0x00, 0x00, 0x10, 0x28, 0x00, 0x00, 0xd0, 0x27, 0x00, 0x00, 0xb4, 0x27, 0x00, 0x00, 0x24, 0x27, 0x00, 0x00, 0xd4, 0x24, 0x00, 0x00, 0x84, 0x22, 0x00, 0x00, 0x34, 0x20, 0x00, 0x00, 0xe4, 0x1d, 0x00, 0x00, 0xa4, 0x1d, 0x00, 0x00, 0x64, 0x1d, 0x00, 0x00, 0x24, 0x1d, 0x00, 0x00, 0xe4, 0x1c, 0x00, 0x00, 0x94, 0x1a, 0x00, 0x00, 0x44, 0x18, 0x00, 0x00, 0xf4, 0x15, 0x00, 0x00, 0xa4, 0x13, 0x00, 0x00, 0x54, 0x11, 0x00, 0x00, 0x04, 0x0f, 0x00, 0x00, 0xb4, 0x0c, 0x00, 0x00, 0x64, 0x0a, 0x00, 0x00, 0x24, 0x0a, 0x00, 0x00, 0xe4, 0x09, 0x00, 0x00, 0xa4, 0x09, 0x00, 0x00, 0x64, 0x09, 0x00, 0x00, 0x24, 0x09, 0x00, 0x00, 0xe4, 0x08, 0x00, 0x00, 0xa4, 0x08, 0x00, 0x00, 0x64, 0x08, 0x00, 0x00, 0x54, 0x02, 0x00, 0x00, 0xc4, 0x01, 0x00, 0x00, 0xa8, 0x01, 0x00, 0x00, 0x8c, 0x01, 0x00, 0x00, 0x70, 0x01, 0x00, 0x00, 0x30, 0x01, 0x00, 0x00, 0x28, 0x01, 0x00, 0x00, 0xe8, 0x00, 0x00, 0x00, 0xa8, 0x00, 0x00, 0x00, 0xa0, 0x00, 0x00, 0x00, 0x98, 0x00, 0x00, 0x00, 0x90, 0x00, 0x00, 0x00, 0x88, 0x00, 0x00, 0x00, 0x68, 0x00, 0x00, 0x00, 0x04, 0x00, 0x00, 0x00, 0xde, 0xd8, 0xff, 0xff, 0x04, 0x00, 0x00, 0x00, 0x54, 0x00, 0x00, 0x00, 0x0c, 0x00, 0x00, 0x00, 0x08, 0x00, 0x0e, 0x00, 0x08, 0x00, 0x04, 0x00, 0x08, 0x00, 0x00, 0x00, 0x10, 0x00, 0x00, 0x00, 0x24, 0x00, 0x00, 0x00, 0x00, 0x00, 0x06, 0x00, 0x08, 0x00, 0x04, 0x00, 0x06, 0x00, 0x00, 0x00, 0x04, 0x00, 0x00, 0x00, 0x00, 0x00, 0x00, 0x00, 0x00, 0x00, 0x0a, 0x00, 0x10, 0x00, 0x0c, 0x00, 0x08, 0x00, 0x04, 0x00, 0x0a, 0x00, 0x00, 0x00, 0x01, 0x00, 0x00, 0x00, 0x02, 0x00, 0x00, 0x00, 0x04, 0x00, 0x00, 0x00, 0x06, 0x00, 0x00, 0x00, 0x32, 0x2e, 0x31, 0x35, 0x2e, 0x30, 0x00, 0x00, 0x3e, 0xd9, 0xff, 0xff, 0x04, 0x00, 0x00, 0x00, 0x10, 0x00, 0x00, 0x00, 0x31, 0x2e, 0x31, 0x33, 0x2e, 0x31, 0x00, 0x00, 0x00, 0x00, 0x00, 0x00, 0x00, 0x00, 0x00, 0x00, 0x24, 0xcb, 0xff, 0xff, 0x28, 0xcb, 0xff, 0xff, 0x2c, 0xcb, 0xff, 0xff, 0x30, 0xcb, 0xff, 0xff, 0x6a, 0xd9, 0xff, 0xff, 0x04, 0x00, 0x00, 0x00, 0x30, 0x00, 0x00, 0x00, 0x00, 0x00, 0x00, 0x00, 0x00, 0x00, 0x00, 0x00, 0x00, 0x00, 0x00, 0x00, 0x00, 0x00, 0x00, 0x00, 0x00, 0x00, 0x00, 0x00, 0x00, 0x00, 0x00, 0x00, 0x00, 0x00, 0x00, 0x00, 0x00, 0x00, 0x00, 0x00, 0x00, 0x00, 0x00, 0x00, 0x00, 0x00, 0x00, 0x00, 0x00, 0x00, 0x00, 0x00, 0x00, 0x00, 0x00, 0x00, 0xa6, 0xd9, 0xff, 0xff, 0x04, 0x00, 0x00, 0x00, 0x30, 0x00, 0x00, 0x00, 0x00, 0x00, 0x00, 0x00, 0x00, 0x00, 0x00, 0x00, 0x00, 0x00, 0x00, 0x00, 0x00, 0x00, 0x00, 0x00, 0x00, 0x00, 0x00, 0x00, 0x00, 0x00, 0x00, 0x00, 0x00, 0x00, 0x00, 0x00, 0x00, 0x00, 0x00, 0x00, 0x00, 0x00, 0x00, 0x00, 0x00, 0x00, 0x00, 0x00, 0x00, 0x00, 0x00, 0x00, 0x00, 0x00, 0x00, 0x00, 0xac, 0xcb, 0xff, 0xff, 0xe6, 0xd9, 0xff, 0xff, 0x04, 0x00, 0x00, 0x00, 0x30, 0x00, 0x00, 0x00, 0x00, 0x00, 0x00, 0x00, 0x00, 0x00, 0x00, 0x00, 0x00, 0x00, 0x00, 0x00, 0x00, 0x00, 0x00, 0x00, 0x00, 0x00, 0x00, 0x00, 0x00, 0x00, 0x00, 0x00, 0x00, 0x00, 0x00, 0x00, 0x00, 0x00, 0x00, 0x00, 0x00, 0x00, 0x00, 0x00, 0x00, 0x00, 0x00, 0x00, 0x00, 0x00, 0x00, 0x00, 0x00, 0x00, 0x00, 0x00, 0x22, 0xda, 0xff, 0xff, 0x04, 0x00, 0x00, 0x00, 0x0c, 0x00, 0x00, 0x00, 0x01, 0x00, 0x00, 0x00, 0x01, 0x00, 0x00, 0x00, 0x01, 0x00, 0x00, 0x00, 0x3a, 0xda, 0xff, 0xff, 0x04, 0x00, 0x00, 0x00, 0x0c, 0x00, 0x00, 0x00, 0x00, 0x00, 0x00, 0x00, 0x00, 0x00, 0x00, 0x00, 0x00, 0x00, 0x00, 0x00, 0x52, 0xda, 0xff, 0xff, 0x04, 0x00, 0x00, 0x00, 0x0c, 0x00, 0x00, 0x00, 0x00, 0x00, 0x00, 0x00, 0xff, 0xff, 0xff, 0xff, 0x00, 0x00, 0x00, 0x00, 0x6a, 0xda, 0xff, 0xff, 0x04, 0x00, 0x00, 0x00, 0x80, 0x00, 0x00, 0x00, 0x23, 0x01, 0xfd, 0x3e, 0x14, 0x28, 0x85, 0xbd, 0x5f, 0x1c, 0xe1, 0x3e, 0x24, 0x8f, 0x15, 0x3f, 0xcc, 0xcb, 0x4e, 0x3e, 0x7e, 0xdd, 0x50, 0xbd, 0xca, 0xd4, 0xd1, 0xbe, 0xa1, 0x20, 0x5c, 0xbc, 0xc9, 0x43, 0x22, 0x3e, 0x00, 0x9e, 0x1b, 0x3e, 0x96, 0x35, 0xa2, 0x3e, 0x74, 0x96, 0x86, 0xbe, 0x1c, 0x9e, 0x1b, 0xbe, 0x67, 0xfb, 0xb9, 0xbe, 0x9a, 0xf6, 0x0b, 0x3f, 0x5f, 0x67, 0x1e, 0x3f, 0x98, 0x45, 0xe4, 0x3e, 0x0c, 0x40, 0x88, 0xbe, 0xcb, 0x5e, 0x08, 0x3f, 0xe4, 0xe5, 0x01, 0x3f, 0x57, 0xbe, 0x5e, 0xbe, 0x81, 0xd4, 0xb6, 0xbe, 0x2b, 0xeb, 0xc2, 0xbe, 0x1c, 0x19, 0x99, 0xbd, 0xb7, 0xd4, 0xac, 0x3e, 0xca, 0x41, 0xb9, 0xbe, 0xb2, 0x73, 0x86, 0x3e, 0xad, 0x1a, 0x03, 0x3f, 0x2e, 0x1f, 0x4c, 0xbe, 0xac, 0x7c, 0x22, 0x3f, 0xd1, 0xe7, 0xa8, 0xbe, 0x58, 0x6f, 0x54, 0x3e, 0xf6, 0xda, 0xff, 0xff, 0x04, 0x00, 0x00, 0x00, 0x00, 0x06, 0x00, 0x00, 0x7b, 0x6b, 0x9f, 0x3d, 0xb4, 0xb9, 0x1a, 0xbf, 0x81, 0xe6, 0x4e, 0x3e, 0xd8, 0x66, 0xc3, 0x3d, 0x7c, 0x48, 0x0d, 0x3f, 0xbc, 0xc3, 0xab, 0x3e, 0x2b, 0x67, 0x1b, 0xbe, 0x0b, 0x68, 0x09, 0x3e, 0x99, 0x9a, 0x9d, 0x3e, 0x06, 0xe1, 0xd0, 0x3e, 0xca, 0x9f, 0x94, 0xbe, 0xa4, 0xa9, 0x6c, 0xbe, 0x70, 0x64, 0x35, 0xbd, 0x10, 0x41, 0xaa, 0xbe, 0x80, 0x9c, 0x46, 0xbe, 0xbc, 0x23, 0xac, 0x3d, 0x84, 0x54, 0xc4, 0xbd, 0x5a, 0x05, 0x46, 0xbe, 0x4a, 0xff, 0x5c, 0x3e, 0xb0, 0x4b, 0xe2, 0x3d, 0xb4, 0xbe, 0x1d, 0xbe, 0xb7, 0x1b, 0x95, 0x3e, 0x13, 0xc5, 0x4a, 0xbe, 0xea, 0xd2, 0x52, 0x3e, 0x1f, 0x62, 0xaf, 0x3c, 0x8e, 0x89, 0x47, 0xbe, 0x3a, 0x2b, 0x6a, 0xbe, 0x7f, 0xd9, 0x37, 0x3e, 0x69, 0x05, 0xe9, 0x3e, 0xe1, 0xef, 0x09, 0x3c, 0x0b, 0x78, 0x4d, 0x3d, 0x65, 0x33, 0xbc, 0x3c, 0x80, 0xe4, 0x79, 0x3e, 0x5e, 0x6f, 0x96, 0x3e, 0xc8, 0x55, 0xf0, 0xbe, 0xce, 0xe1, 0x2d, 0xbe, 0xe5, 0x04, 0x06, 0x3f, 0x62, 0x61, 0x0f, 0xbe, 0xd6, 0xfa, 0x91, 0x3e, 0x23, 0xc2, 0x06, 0xbf, 0xe7, 0xbb, 0x18, 0x3e, 0x89, 0x6e, 0x06, 0x3f, 0x3a, 0xf3, 0x23, 0xbf, 0xa1, 0x81, 0xa9, 0x3e, 0x38, 0x34, 0x04, 0xbd, 0x49, 0x05, 0x07, 0x3f, 0x9a, 0xa5, 0xd1, 0xbe, 0x31, 0x78, 0x21, 0xbf, 0xc8, 0xc8, 0x6c, 0x3d, 0x94, 0xbc, 0x9f, 0x3d, 0x30, 0x5f, 0xae, 0x3d, 0xc9, 0xad, 0xb4, 0x3e, 0xd6, 0x07, 0x67, 0x3e, 0x33, 0x23, 0x88, 0x3e, 0x10, 0x87, 0xb8, 0x3d, 0xc6, 0xd9, 0x4b, 0x3e, 0xd6, 0xdb, 0x8d, 0xbe, 0x72, 0x9a, 0x82, 0xbe, 0x98, 0x85, 0x4d, 0xbd, 0x32, 0x80, 0x69, 0x3e, 0x0a, 0x4e, 0x05, 0x3e, 0x0e, 0x19, 0x32, 0x3d, 0x88, 0x67, 0xf0, 0xbd, 0x33, 0xf0, 0x68, 0xbe, 0x7b, 0x40, 0x05, 0xbe, 0x40, 0xe8, 0x46, 0xbe, 0x03, 0x66, 0x5b, 0x3e, 0xfe, 0x04, 0x5b, 0xbe, 0x78, 0x23, 0x6a, 0xbe, 0xb0, 0x4b, 0xad, 0xbd, 0xc0, 0xa1, 0x1e, 0xbe, 0x44, 0x7d, 0x93, 0xbe, 0x6d, 0xeb, 0x8c, 0x3e, 0xa2, 0xd3, 0x8b, 0x3e, 0x7f, 0xca, 0x0b, 0xbc, 0x57, 0x61, 0x33, 0x3c, 0x00, 0x47, 0xb4, 0xbe, 0x3d, 0xd4, 0x8f, 0x3e, 0x8e, 0x6d, 0x8d, 0x3e, 0x20, 0x22, 0x92, 0x3e, 0x81, 0xfb, 0x73, 0x3e, 0x56, 0x82, 0x8e, 0xbe, 0xd5, 0xb5, 0x68, 0x3e, 0x7b, 0xbc, 0xdb, 0x3c, 0xec, 0x2b, 0x49, 0xbd, 0xe0, 0x26, 0xdf, 0xbc, 0xfd, 0x80, 0xc3, 0x3d, 0x57, 0xd4, 0x6a, 0xbe, 0xb0, 0x9a, 0x1a, 0xbe, 0x07, 0xaf, 0x94, 0x3e, 0x59, 0xf9, 0x07, 0x3e, 0x4d, 0xbc, 0xa8, 0xbd, 0xf9, 0x1e, 0x65, 0xbe, 0x13, 0xa3, 0x8f, 0x3e, 0xd8, 0xb5, 0x0e, 0xbd, 0x8f, 0xf3, 0xbb, 0x3e, 0xd6, 0xb6, 0x57, 0xbe, 0x0b, 0xc2, 0xe2, 0xbe, 0x48, 0x0b, 0x84, 0x3e, 0x65, 0xe4, 0x67, 0xbe, 0x9f, 0xbc, 0xe5, 0xbd, 0x89, 0x22, 0xe6, 0x3e, 0x7a, 0xad, 0x95, 0xbd, 0xab, 0x56, 0xc4, 0x3e, 0xb4, 0x5d, 0x39, 0xbe, 0xc2, 0xb5, 0x8b, 0x3e, 0x42, 0x91, 0x6d, 0xbe, 0x9a, 0x34, 0x63, 0xbd, 0xb1, 0x43, 0xb0, 0x3e, 0x94, 0xe4, 0xcb, 0xbd, 0xae, 0xdf, 0x64, 0x3e, 0x02, 0x02, 0x51, 0x3e, 0x40, 0x95, 0xb9, 0xbe, 0x7b, 0x37, 0xb3, 0xbe, 0x9d, 0xc4, 0xb1, 0x3e, 0x0a, 0x50, 0x77, 0x3e, 0x16, 0xd2, 0xa2, 0xbe, 0x60, 0x01, 0x58, 0x3c, 0x2a, 0xe9, 0x78, 0x3e, 0x06, 0xe6, 0x05, 0x3e, 0x2c, 0x73, 0x8b, 0xbe, 0x8d, 0x9f, 0xa2, 0x3e, 0x08, 0xdf, 0x80, 0xbd, 0x15, 0x5d, 0xb9, 0x3e, 0x6a, 0xd0, 0x5e, 0x3e, 0x28, 0x95, 0x9f, 0xbd, 0x12, 0x02, 0x7d, 0x3e, 0x80, 0xd2, 0xc6, 0xbb, 0xf0, 0x20, 0xba, 0xbe, 0x38, 0x19, 0x36, 0xbd, 0x6f, 0xf7, 0x98, 0x3e, 0x93, 0x45, 0xaa, 0xbe, 0x92, 0xf3, 0x90, 0x3b, 0xd2, 0x41, 0xa6, 0x3d, 0x0a, 0xdd, 0x90, 0x3e, 0x2e, 0x64, 0x0a, 0x3e, 0x58, 0x1d, 0x7a, 0xbe, 0xd1, 0xcf, 0x51, 0xbd, 0x76, 0xc3, 0x06, 0x3e, 0xef, 0x6e, 0x2f, 0x3e, 0x41, 0x70, 0x92, 0x3e, 0xa1, 0x5c, 0xdc, 0xbd, 0x1b, 0x63, 0x24, 0x3d, 0x81, 0x2a, 0xbc, 0xbd, 0x97, 0x52, 0x58, 0xbe, 0x2a, 0xd0, 0x0e, 0xbe, 0x24, 0x62, 0x3d, 0x3e, 0x2c, 0xa3, 0x28, 0xbe, 0xef, 0xf9, 0x9f, 0xbe, 0xce, 0xc6, 0xba, 0xbd, 0x1b, 0x47, 0xad, 0xbd, 0x16, 0x02, 0x2f, 0x3e, 0x3c, 0x4c, 0x26, 0xbe, 0x60, 0x10, 0x89, 0x3e, 0x57, 0x67, 0xdd, 0xbd, 0x0c, 0x7f, 0xa1, 0x3e, 0xb5, 0x2f, 0xa7, 0xbe, 0x1a, 0xd4, 0x18, 0x3e, 0xf7, 0x29, 0xa3, 0x3c, 0xa1, 0xb2, 0x4b, 0xbe, 0xa0, 0x57, 0x5f, 0xbe, 0xe7, 0x48, 0x44, 0xbd, 0x44, 0xd3, 0x37, 0xbd, 0x54, 0x40, 0x14, 0x3e, 0xb0, 0x45, 0x65, 0x3e, 0x6c, 0x5c, 0xa4, 0x3d, 0x47, 0xa5, 0xb2, 0xbc, 0xf9, 0x61, 0xcc, 0xbd, 0xea, 0x36, 0x17, 0x3f, 0xf8, 0x48, 0x1f, 0xbf, 0xf2, 0xd0, 0x07, 0x3f, 0xab, 0xb4, 0x24, 0xbf, 0x95, 0x19, 0xd2, 0xbc, 0x0a, 0xff, 0x03, 0x3f, 0x45, 0xa4, 0xe9, 0xbd, 0xb3, 0xbd, 0x1c, 0xbc, 0x99, 0xd4, 0x2d, 0x3e, 0x82, 0x59, 0x02, 0x3f, 0x92, 0x9c, 0xe6, 0xbe, 0xca, 0x3b, 0x08, 0xbf, 0x6f, 0x93, 0x5d, 0x3e, 0x93, 0xec, 0xd0, 0xbd, 0x14, 0xbb, 0x83, 0x3e, 0xf5, 0xed, 0x1f, 0xbe, 0x95, 0x24, 0x29, 0x3f, 0x3f, 0x7c, 0x11, 0x3e, 0x5b, 0x33, 0xcb, 0xbe, 0x38, 0x69, 0xef, 0x3e, 0xfa, 0x73, 0x7c, 0xbd, 0x3c, 0x3b, 0xfd, 0x3e, 0xa7, 0x29, 0x03, 0xbf, 0x9f, 0xc2, 0xbd, 0xbe, 0x91, 0x72, 0x49, 0xbd, 0x83, 0xf9, 0x57, 0x3d, 0x8a, 0xca, 0xd3, 0x3e, 0xb7, 0xc1, 0x10, 0xbf, 0x7b, 0x56, 0x2a, 0x3e, 0x9d, 0x1c, 0x0b, 0xbd, 0xa1, 0x87, 0x47, 0xbe, 0x72, 0xd3, 0xa9, 0x3c, 0xc2, 0x7f, 0xf2, 0x3e, 0xc2, 0xc1, 0x16, 0x3f, 0x87, 0x5a, 0xd6, 0x3d, 0xe1, 0x1f, 0xcc, 0xbe, 0x89, 0x57, 0x06, 0xbe, 0x42, 0xbe, 0x68, 0xbe, 0x19, 0x12, 0x54, 0xbe, 0xa7, 0xb0, 0x97, 0xbe, 0x9a, 0xcd, 0x9b, 0xbe, 0x8d, 0xa4, 0x49, 0xbe, 0x48, 0xc4, 0xa3, 0x3d, 0x7d, 0x05, 0x0f, 0x3e, 0xef, 0xe7, 0x59, 0xbe, 0x47, 0xfe, 0x82, 0x3e, 0x06, 0x8d, 0x75, 0x3e, 0x5f, 0x2d, 0xa3, 0x3e, 0x54, 0x5f, 0x65, 0x3e, 0x9f, 0x87, 0x7a, 0xbe, 0x8a, 0xa5, 0xc7, 0x3e, 0x82, 0x4f, 0x03, 0xbf, 0x55, 0x64, 0xf9, 0x3e, 0xe3, 0xc8, 0xa2, 0x3e, 0x7b, 0x93, 0x17, 0xbf, 0xbc, 0x29, 0x18, 0x3f, 0xfd, 0x7a, 0x85, 0x3e, 0x4d, 0x69, 0xd8, 0x3e, 0x21, 0xca, 0x7a, 0xbe, 0x92, 0x78, 0xa4, 0xbe, 0x21, 0xe6, 0xc0, 0xbb, 0x1b, 0xb0, 0xe9, 0xbe, 0x28, 0x5c, 0xdf, 0x3e, 0x94, 0xc7, 0x29, 0xbf, 0xcf, 0x83, 0x8d, 0x3c, 0x18, 0xcb, 0x9e, 0x3e, 0xa2, 0xe7, 0xc4, 0xbe, 0x1c, 0x92, 0x07, 0x3e, 0xfe, 0x30, 0xf6, 0x3e, 0x49, 0xfc, 0x20, 0x3f, 0x06, 0xdf, 0x2e, 0xbe, 0x36, 0xcb, 0x3a, 0xbe, 0xf8, 0x88, 0x83, 0x3e, 0xc0, 0x97, 0x2d, 0xbe, 0x15, 0xce, 0x05, 0xbe, 0xe8, 0x32, 0x90, 0x3e, 0xc4, 0xb0, 0x98, 0xbe, 0xc5, 0x69, 0xcb, 0x3d, 0x92, 0xa7, 0x85, 0xbe, 0xdc, 0xbe, 0x83, 0xbe, 0x51, 0x81, 0x12, 0xbe, 0xd6, 0x0e, 0xcb, 0x3c, 0x37, 0xbe, 0x9f, 0x3e, 0xd0, 0x7c, 0x0b, 0x3d, 0xb5, 0x6a, 0x7c, 0xbc, 0xf8, 0x96, 0x4e, 0x3c, 0xb4, 0xbb, 0x84, 0x3e, 0x71, 0x61, 0xe4, 0xbd, 0xfb, 0x24, 0xb4, 0xbe, 0x45, 0x0c, 0x1a, 0xbe, 0xb6, 0x90, 0x65, 0x3e, 0xb4, 0x4a, 0xaa, 0xbc, 0xaa, 0x83, 0xa3, 0x3d, 0xa9, 0x40, 0xc3, 0xbc, 0x4c, 0x22, 0x57, 0xbb, 0xdd, 0xb6, 0x90, 0xbe, 0xa4, 0x67, 0x9d, 0xbe, 0x1f, 0xc3, 0x51, 0x3e, 0xe6, 0x13, 0xae, 0xbd, 0x15, 0xfc, 0x04, 0x3e, 0x6f, 0x79, 0xc0, 0xbd, 0x20, 0xee, 0xf9, 0x3c, 0x03, 0x34, 0x5e, 0xbd, 0xb7, 0xfd, 0x14, 0x3e, 0x2f, 0xc7, 0x92, 0x3e, 0x44, 0x53, 0x3f, 0x3e, 0x81, 0x98, 0x85, 0x3e, 0xf0, 0x89, 0xa2, 0x3e, 0x21, 0x3f, 0x0d, 0xbe, 0xfb, 0x70, 0xae, 0xbd, 0x72, 0x0b, 0x6c, 0x3e, 0x4f, 0x33, 0x98, 0xbb, 0x72, 0xf0, 0x49, 0xbe, 0xe8, 0x74, 0x80, 0xbe, 0x1a, 0x0d, 0x43, 0xbe, 0xea, 0xc6, 0x37, 0x3e, 0xb9, 0xc5, 0x45, 0x3e, 0xd6, 0x2d, 0xa7, 0xbe, 0x24, 0x37, 0xbe, 0xbe, 0x83, 0xcf, 0xde, 0x3d, 0x5b, 0xa0, 0xb2, 0x3e, 0x22, 0x14, 0x73, 0xbd, 0x22, 0x81, 0x5e, 0x3d, 0x93, 0x94, 0x9e, 0xbd, 0x1d, 0xe0, 0xfc, 0x3e, 0x1e, 0xda, 0xd9, 0x3d, 0xc2, 0x08, 0x06, 0xbf, 0x66, 0x65, 0x8b, 0x3e, 0x38, 0x82, 0x9c, 0x3e, 0x8d, 0xec, 0x70, 0xbd, 0x01, 0x6b, 0x11, 0xbf, 0x8d, 0xaf, 0x07, 0xbe, 0x92, 0x6e, 0xf5, 0x3c, 0xba, 0x3a, 0x18, 0xbe, 0xa3, 0x52, 0xa4, 0x3e, 0xe7, 0xef, 0x97, 0xbd, 0x6b, 0x94, 0x6d, 0xbe, 0x43, 0xa0, 0xc6, 0xbd, 0xf8, 0xe0, 0x39, 0xbe, 0xd5, 0x28, 0xe4, 0xbb, 0x2e, 0x6b, 0xcb, 0xbe, 0xa0, 0xe6, 0xa0, 0xbe, 0x08, 0x40, 0x37, 0xbe, 0x8d, 0x7e, 0x0b, 0x3e, 0x0b, 0xe8, 0xc0, 0x3e, 0x7d, 0x5d, 0x34, 0xbd, 0xd2, 0x38, 0x21, 0x3f, 0xa2, 0x03, 0xc4, 0x3d, 0xb4, 0x5c, 0x99, 0x3e, 0x0c, 0x16, 0xeb, 0x3e, 0x5b, 0xc7, 0xea, 0xbe, 0xa1, 0xac, 0x9a, 0x3c, 0x71, 0xf4, 0x90, 0x3e, 0x1c, 0xe8, 0x00, 0x3e, 0x9a, 0x82, 0xac, 0xbd, 0x05, 0xf0, 0x09, 0xbf, 0xa8, 0x22, 0x23, 0x3f, 0x2a, 0xa2, 0x1f, 0xbf, 0x97, 0xb6, 0xbf, 0x3e, 0x1c, 0xf2, 0x9d, 0xbe, 0x31, 0xa8, 0x69, 0xbd, 0x9e, 0xd6, 0x55, 0x3c, 0x8a, 0x63, 0xe9, 0xbe, 0xb9, 0x06, 0x0f, 0x3f, 0x96, 0x9a, 0xbf, 0xbb, 0xe8, 0x2f, 0x43, 0x3e, 0x92, 0xe6, 0x9d, 0xbe, 0x72, 0x3a, 0x80, 0xbe, 0x98, 0x9d, 0xdf, 0x3d, 0x4c, 0xdd, 0xd2, 0x3e, 0x46, 0xd0, 0x6a, 0xbd, 0xf1, 0x03, 0x99, 0x3d, 0x00, 0xe7, 0x69, 0x3d, 0x4c, 0x5a, 0x32, 0xbd, 0xfd, 0x94, 0xf7, 0xbc, 0x84, 0x79, 0x7c, 0x3e, 0xca, 0x59, 0x80, 0xbe, 0xba, 0x56, 0x7d, 0x3d, 0x5e, 0x41, 0xc9, 0xbe, 0xa0, 0xd2, 0x6e, 0xbd, 0xc7, 0xa9, 0xeb, 0x3e, 0x7c, 0x73, 0xcb, 0xbe, 0xb1, 0x97, 0x1b, 0x3f, 0x06, 0xdd, 0xa5, 0xbe, 0x8b, 0xea, 0xbb, 0x3e, 0x10, 0xdf, 0x0e, 0x3e, 0xb3, 0xdc, 0xed, 0xbe, 0xd3, 0x85, 0xa7, 0x3e, 0x46, 0x7d, 0x27, 0x3f, 0xbe, 0x3d, 0xab, 0x3e, 0x46, 0xa9, 0xd2, 0xbe, 0xeb, 0xa7, 0x02, 0xbf, 0xaa, 0xfb, 0xbb, 0xbd, 0x6c, 0x36, 0x38, 0x3e, 0xe7, 0x8c, 0x94, 0xbe, 0x79, 0xa1, 0xad, 0x3e, 0x96, 0xb2, 0xd3, 0x3c, 0x10, 0x19, 0xb8, 0xbe, 0x10, 0x87, 0x17, 0x3e, 0xf8, 0x11, 0xb6, 0x3e, 0x4c, 0xde, 0x67, 0xbe, 0x1a, 0xd9, 0x26, 0x3e, 0x64, 0xb9, 0x58, 0xbe, 0x7b, 0x89, 0xad, 0xbd, 0x43, 0x24, 0x89, 0xbe, 0xed, 0xc9, 0xa1, 0x3e, 0xb2, 0xf6, 0x49, 0x3e, 0x08, 0x70, 0xad, 0xbd, 0x60, 0xb2, 0x21, 0x3d, 0x09, 0xf1, 0x89, 0xbe, 0xbf, 0x40, 0x80, 0x3e, 0xaa, 0x6b, 0x1d, 0x3e, 0x48, 0xb8, 0x06, 0x3d, 0x20, 0xfc, 0x7c, 0xbc, 0xf7, 0x4a, 0x3b, 0xbe, 0x27, 0xbb, 0x99, 0x3e, 0x02, 0xe1, 0xff, 0xff, 0x04, 0x00, 0x00, 0x00, 0x30, 0x00, 0x00, 0x00, 0xe5, 0x78, 0x93, 0xbd, 0x6b, 0x9c, 0xb2, 0x3e, 0x82, 0x08, 0x58, 0xbd, 0x32, 0xd5, 0x9d, 0x3b, 0xd3, 0xe7, 0x17, 0x3e, 0x2a, 0x0e, 0xd1, 0x3e, 0xad, 0x4e, 0xbc, 0x3e, 0x26, 0x02, 0xad, 0x3e, 0xc2, 0xe7, 0x8e, 0xbd, 0x8f, 0x0c, 0xaf, 0x3d, 0xb8, 0x72, 0x70, 0x3e, 0xe4, 0xdb, 0xa3, 0x3b, 0x3e, 0xe1, 0xff, 0xff, 0x04, 0x00, 0x00, 0x00, 0x30, 0x00, 0x00, 0x00, 0x3f, 0xea, 0xc3, 0x3d, 0x6f, 0x72, 0xfa, 0x3d, 0x38, 0x36, 0x85, 0xbd, 0x0d, 0xfd, 0x82, 0xbe, 0x7a, 0x40, 0x4c, 0xbe, 0xe9, 0xb4, 0x10, 0x3e, 0x6a, 0xd9, 0x05, 0x3e, 0xb6, 0x06, 0xe9, 0xbd, 0xc6, 0xe8, 0xb5, 0xbd, 0x2b, 0x8a, 0x5f, 0xbe, 0xfa, 0x07, 0x76, 0xbe, 0xce, 0x9a, 0x75, 0x3e, 0x7a, 0xe1, 0xff, 0xff, 0x04, 0x00, 0x00, 0x00, 0x30, 0x00, 0x00, 0x00, 0x2d, 0x75, 0xc5, 0xbd, 0xac, 0x6c, 0x68, 0x3b, 0x9e, 0x8c, 0x9c, 0xbd, 0xfa, 0xce, 0xa5, 0x3b, 0x0c, 0xd4, 0x05, 0xbe, 0xfe, 0x4c, 0xbd, 0x3e, 0x7e, 0xef, 0x27, 0xbe, 0x93, 0xe1, 0x7a, 0x3e, 0x2d, 0xf4, 0xdd, 0x3d, 0xcb, 0xee, 0xae, 0x3d, 0x52, 0xb6, 0x7d, 0x3b, 0x00, 0x81, 0x29, 0xbe, 0xb6, 0xe1, 0xff, 0xff, 0x04, 0x00, 0x00, 0x00, 0x30, 0x00, 0x00, 0x00, 0x3a, 0x2c, 0x1b, 0x3e, 0xdb, 0xe8, 0x93, 0xbd, 0xd0, 0x28, 0x33, 0xbd, 0x3b, 0x29, 0x19, 0x3e, 0xee, 0xe0, 0x7f, 0xbd, 0x0a, 0x69, 0x91, 0xbd, 0xc5, 0x01, 0x91, 0x3e, 0xd4, 0xbe, 0x60, 0x3e, 0x6f, 0x4e, 0x08, 0x3e, 0x4f, 0x43, 0x81, 0x3e, 0x49, 0x5f, 0x8a, 0xbd, 0xd1, 0x45, 0x91, 0x3e, 0xf2, 0xe1, 0xff, 0xff, 0x04, 0x00, 0x00, 0x00, 0x30, 0x00, 0x00, 0x00, 0xe5, 0xe6, 0x2b, 0x3e, 0x62, 0x19, 0x40, 0xbd, 0x46, 0x10, 0xc8, 0x3d, 0x7e, 0x34, 0x83, 0x3d, 0xec, 0x65, 0xdd, 0x3c, 0xe1, 0x38, 0x12, 0x3c, 0x23, 0x38, 0x94, 0xbc, 0x1b, 0x2d, 0x2c, 0x3c, 0x23, 0x07, 0xfc, 0x3d, 0xb9, 0x58, 0xbf, 0x3d, 0x7b, 0x61, 0x18, 0xbd, 0xc6, 0x77, 0x84, 0x3d, 0x2e, 0xe2, 0xff, 0xff, 0x04, 0x00, 0x00, 0x00, 0x30, 0x00, 0x00, 0x00, 0x12, 0x80, 0x5d, 0xbd, 0xbc, 0x7a, 0xf2, 0xbd, 0x73, 0x8a, 0x94, 0x3d, 0xd1, 0x1f, 0xcc, 0x3d, 0xc1, 0xc6, 0xfb, 0x3d, 0x6f, 0xfd, 0x55, 0xbd, 0x69, 0x19, 0xb1, 0xbd, 0xb7, 0x67, 0xaa, 0x3d, 0x8c, 0x29, 0x96, 0x3d, 0x7c, 0x66, 0xe9, 0x3d, 0x72, 0x21, 0x24, 0x3e, 0xe9, 0xae, 0xb2, 0xbd, 0x6a, 0xe2, 0xff, 0xff, 0x04, 0x00, 0x00, 0x00, 0x30, 0x00, 0x00, 0x00, 0x76, 0xc0, 0x8e, 0x3f, 0x6f, 0x4c, 0x86, 0x3f, 0x63, 0xb9, 0x8b, 0x3f, 0xa6, 0xd5, 0x87, 0x3f, 0xae, 0xd4, 0x86, 0x3f, 0x9d, 0x23, 0x8b, 0x3f, 0xc5, 0x56, 0x8d, 0x3f, 0x89, 0x36, 0x83, 0x3f, 0x76, 0x7f, 0x86, 0x3f, 0x73, 0x12, 0x84, 0x3f, 0xe2, 0x47, 0x71, 0x3f, 0x60, 0x93, 0x8c, 0x3f, 0xa6, 0xe2, 0xff, 0xff, 0x04, 0x00, 0x00, 0x00, 0x30, 0x00, 0x00, 0x00, 0xc2, 0xbc, 0x71, 0x3d, 0xda, 0x9d, 0xc2, 0x3d, 0x0c, 0x90, 0xab, 0x3d, 0x1e, 0x42, 0x1a, 0x3d, 0x54, 0x22, 0xb5, 0x3d, 0xd3, 0x3d, 0xc1, 0x3d, 0x98, 0x19, 0xa2, 0xbc, 0x52, 0x2c, 0x47, 0x3b, 0x67, 0x7d, 0x07, 0x3d, 0x1e, 0xb9, 0x64, 0xbc, 0x03, 0xc3, 0x88, 0x3d, 0x9a, 0x17, 0x2c, 0xbb, 0xe2, 0xe2, 0xff, 0xff, 0x04, 0x00, 0x00, 0x00, 0x40, 0x02, 0x00, 0x00, 0x64, 0xfe, 0x72, 0x3e, 0x59, 0x55, 0x92, 0x3e, 0x52, 0xd1, 0xc7, 0xbe, 0xad, 0x52, 0x77, 0xbe, 0xf4, 0xdd, 0xbf, 0xbe, 0x35, 0x87, 0xac, 0x3e, 0x17, 0x6f, 0xad, 0x3d, 0xaa, 0x4d, 0xc8, 0xbe, 0x1d, 0x36, 0xe1, 0xbe, 0x16, 0x77, 0xd7, 0xbe, 0x19, 0x6d, 0xb8, 0xbe, 0x2a, 0x20, 0x45, 0x3e, 0xaa, 0xc3, 0x44, 0x3e, 0x41, 0x71, 0x81, 0xbd, 0xa0, 0x30, 0x1d, 0xbd, 0x60, 0x51, 0x4e, 0xbe, 0x8c, 0x82, 0x3e, 0x3e, 0xe0, 0x5b, 0x5d, 0x3e, 0x99, 0x90, 0x4d, 0x3e, 0x90, 0x97, 0x8a, 0xbe, 0xf7, 0x5c, 0x6f, 0x3d, 0x9b, 0xa0, 0x0f, 0xbd, 0xbb, 0x2d, 0xaa, 0xbe, 0xde, 0x51, 0x6e, 0xbd, 0xd1, 0x0f, 0xc3, 0x3e, 0xb8, 0x42, 0xfb, 0x3e, 0x29, 0xe1, 0x16, 0x39, 0x98, 0x25, 0x88, 0xbe, 0x9c, 0xe7, 0x99, 0xbd, 0xf7, 0x65, 0x2e, 0x3e, 0xd7, 0x1b, 0xd9, 0x3e, 0xfa, 0xab, 0x8f, 0xbe, 0xe2, 0x1f, 0x0d, 0xbf, 0xfd, 0x9a, 0x5e, 0xbe, 0xd0, 0xf1, 0x6e, 0xbe, 0xf1, 0x3d, 0x08, 0x3d, 0x98, 0x7e, 0x0c, 0xbe, 0x7a, 0x6d, 0x36, 0xbd, 0x0d, 0xd7, 0xb3, 0xbd, 0x9e, 0x36, 0xb0, 0x3b, 0x39, 0x31, 0x09, 0x3e, 0x46, 0x64, 0x49, 0x3e, 0x56, 0x15, 0x13, 0x3e, 0x2d, 0x05, 0x31, 0xbe, 0x16, 0xb2, 0x00, 0xbe, 0xe0, 0x26, 0xa0, 0xbc, 0x9b, 0x3e, 0x23, 0xbd, 0xb3, 0xe0, 0xc7, 0x3d, 0x45, 0xb4, 0x58, 0x3d, 0xe3, 0x1a, 0xb6, 0x3d, 0x3a, 0x95, 0xe6, 0x3c, 0xde, 0xba, 0x3b, 0xbe, 0xc1, 0x52, 0x9a, 0x3d, 0x44, 0xa3, 0x04, 0xbe, 0xb4, 0x93, 0x01, 0x3d, 0xe6, 0xa6, 0x8f, 0xbe, 0x9e, 0xd2, 0xf9, 0x3c, 0xe2, 0x5c, 0x70, 0xbe, 0x54, 0x70, 0x87, 0xbe, 0x83, 0xdd, 0xac, 0xbc, 0xfb, 0x24, 0x06, 0xbe, 0xb0, 0x56, 0x1a, 0xbd, 0x83, 0x8c, 0x1e, 0x3e, 0x5a, 0x19, 0x19, 0x3c, 0x1a, 0x65, 0x27, 0xbe, 0x0a, 0x95, 0xff, 0xbd, 0x02, 0xe6, 0x68, 0x3e, 0x6a, 0xa5, 0xc9, 0xbd, 0x58, 0xf1, 0x00, 0xbe, 0x43, 0x35, 0xf3, 0xbd, 0xe7, 0xfb, 0x75, 0xbe, 0xa2, 0xa4, 0x02, 0x3e, 0x53, 0x7d, 0x4d, 0xbe, 0x31, 0xd2, 0x9c, 0x3e, 0xe4, 0x66, 0x07, 0xbe, 0x51, 0xf0, 0x42, 0x3c, 0xe3, 0xd7, 0x60, 0x3d, 0xd9, 0x8e, 0x74, 0x3e, 0xca, 0xbd, 0x87, 0x3e, 0x94, 0x7c, 0xb2, 0xbd, 0x43, 0xec, 0x3f, 0xbc, 0x90, 0xea, 0x73, 0xbe, 0x49, 0x81, 0x2f, 0xbe, 0x4e, 0x43, 0x19, 0xbe, 0x4e, 0x25, 0x8e, 0xbd, 0xfa, 0x0c, 0x60, 0x3e, 0xee, 0xf8, 0xd2, 0x3d, 0xa4, 0x80, 0x0e, 0xbd, 0xd0, 0x4c, 0xb8, 0x3d, 0xbc, 0x10, 0x9b, 0x3e, 0x69, 0x87, 0x77, 0xbd, 0x0d, 0xb5, 0xa4, 0x3c, 0x72, 0xfe, 0x3c, 0xbd, 0x29, 0x51, 0x4a, 0xbe, 0xb5, 0x7c, 0x21, 0xba, 0xcd, 0x08, 0x99, 0xbe, 0x20, 0x77, 0x6c, 0x3e, 0x01, 0x34, 0xb7, 0x3e, 0xd6, 0xff, 0x29, 0xbe, 0x5d, 0x1a, 0xf4, 0xbd, 0xb2, 0x93, 0x8d, 0xbe, 0x27, 0xc1, 0x16, 0x3d, 0xa9, 0xe2, 0x18, 0x3f, 0x6c, 0x0b, 0x08, 0xbe, 0x9e, 0xca, 0x2b, 0xbe, 0x83, 0x4c, 0xae, 0xbe, 0xc9, 0x1d, 0x9c, 0xbe, 0x08, 0xa2, 0x5a, 0xbd, 0x9a, 0xdc, 0x81, 0x3d, 0xe1, 0x00, 0x40, 0x3e, 0x85, 0x1a, 0x98, 0xbe, 0xd3, 0xd9, 0xc4, 0xbd, 0xbc, 0x23, 0xf5, 0xbc, 0x67, 0x92, 0xc1, 0x3e, 0xe0, 0xeb, 0x22, 0x3e, 0xf4, 0x8a, 0x67, 0xbe, 0x43, 0x3a, 0x5e, 0xbe, 0xea, 0x1a, 0x4f, 0xbe, 0xcf, 0x74, 0x85, 0xbd, 0xb0, 0xac, 0x4e, 0x3e, 0x85, 0x2f, 0xf0, 0xbc, 0xe2, 0xd2, 0xc5, 0x3d, 0x73, 0xfe, 0x09, 0x3e, 0xa9, 0xf5, 0xac, 0xbd, 0x83, 0x87, 0x11, 0xbe, 0x9e, 0x5e, 0x0a, 0x3e, 0x21, 0x45, 0x07, 0x3e, 0xe7, 0x7b, 0xe8, 0xbe, 0x07, 0x6d, 0xf0, 0xbd, 0xc9, 0x0f, 0xe5, 0x3d, 0x2f, 0xc2, 0x3e, 0x3d, 0x76, 0x77, 0x00, 0x3e, 0x31, 0x06, 0xc5, 0x3e, 0xde, 0x0b, 0xe2, 0x3d, 0xa2, 0x47, 0x21, 0xbe, 0x0c, 0x7c, 0xd4, 0x3e, 0xd6, 0x1f, 0x8e, 0xbd, 0xdc, 0x4c, 0xcc, 0x3c, 0x14, 0x06, 0x02, 0xbc, 0x5e, 0x42, 0xb9, 0xbd, 0x93, 0x88, 0x2c, 0x3e, 0x5b, 0x1f, 0x76, 0x3d, 0x88, 0xb7, 0x81, 0xbe, 0x1e, 0x42, 0x81, 0x3b, 0x2e, 0xe5, 0xff, 0xff, 0x04, 0x00, 0x00, 0x00, 0x40, 0x02, 0x00, 0x00, 0x14, 0x2e, 0x3c, 0x3e, 0xb0, 0x18, 0x79, 0x3c, 0xa5, 0xc9, 0x3e, 0x3e, 0xb2, 0xd6, 0xb1, 0x3e, 0x2a, 0x59, 0x1f, 0x3d, 0xa4, 0x1f, 0xb9, 0x3d, 0x68, 0xf3, 0x55, 0x3d, 0x13, 0x3f, 0x0d, 0xbe, 0x77, 0x57, 0x53, 0x3d, 0xcb, 0x74, 0xcc, 0xbd, 0x79, 0x3c, 0x05, 0xbd, 0xba, 0x02, 0x7f, 0xbd, 0xb4, 0x8f, 0x1c, 0x3e, 0x62, 0xac, 0x25, 0x3c, 0xc6, 0xee, 0x03, 0xbe, 0x0e, 0xbf, 0xbf, 0x3d, 0xd1, 0x15, 0xc4, 0xbd, 0x28, 0xae, 0x15, 0xbe, 0xc1, 0xf1, 0x74, 0x3e, 0xe0, 0x1f, 0x21, 0xbe, 0x09, 0x5a, 0x03, 0xbe, 0x00, 0xb0, 0x76, 0x3d, 0x86, 0xb4, 0x7b, 0xbd, 0xc2, 0x19, 0x9f, 0x3d, 0xab, 0x29, 0x5e, 0xbd, 0x0f, 0xd4, 0xf4, 0xbd, 0xa6, 0x8f, 0x97, 0x3d, 0xc5, 0x23, 0xde, 0xbc, 0x3f, 0xc6, 0x8a, 0x3e, 0xf6, 0x46, 0x56, 0x3e, 0x0f, 0x5e, 0xc9, 0xbe, 0xd6, 0x2e, 0xdc, 0x3d, 0xa7, 0xbc, 0xe7, 0x3d, 0x8e, 0xa8, 0xe6, 0x3d, 0x05, 0x0d, 0x25, 0xbe, 0x11, 0x10, 0x2b, 0xbe, 0x19, 0x64, 0xc3, 0x3d, 0xed, 0xb5, 0xac, 0x3c, 0x2e, 0xfe, 0x1b, 0x3e, 0x55, 0x42, 0x51, 0xbe, 0xab, 0x9a, 0x52, 0x3c, 0xbd, 0x12, 0xce, 0xbd, 0x21, 0x77, 0x73, 0xbe, 0x31, 0xae, 0x72, 0x3e, 0x1a, 0x75, 0xd2, 0xbd, 0x56, 0x21, 0xa2, 0x3e, 0x4a, 0x8e, 0xca, 0xbd, 0xf1, 0x44, 0x36, 0xbb, 0xd2, 0x23, 0x05, 0xbe, 0x3d, 0xb1, 0x34, 0xbd, 0x68, 0x56, 0xa0, 0xbd, 0xdd, 0xba, 0x95, 0x3d, 0x3c, 0x0f, 0xa1, 0xbd, 0x5d, 0xc2, 0x34, 0xbe, 0x22, 0x63, 0x92, 0xbe, 0x30, 0x06, 0x9e, 0xbe, 0x56, 0x1d, 0xa2, 0xbe, 0x60, 0xd5, 0x10, 0x3e, 0x2b, 0x30, 0x1e, 0xbe, 0xca, 0xe8, 0x07, 0xbe, 0x3a, 0x4a, 0xc5, 0x3d, 0xff, 0x58, 0x9b, 0xbd, 0xe9, 0x54, 0x97, 0xbc, 0x77, 0x04, 0x11, 0xbe, 0xa0, 0xb9, 0x45, 0xbd, 0x84, 0xd2, 0x04, 0x3e, 0x7b, 0x4d, 0x06, 0x3e, 0xe5, 0xa1, 0x17, 0xbe, 0x22, 0x56, 0xd9, 0xbd, 0x0e, 0x43, 0x56, 0xbe, 0xca, 0x41, 0xf7, 0xbc, 0xae, 0x92, 0x98, 0x3d, 0xd9, 0x57, 0x6f, 0xbe, 0x7c, 0x21, 0x52, 0xbe, 0x3e, 0x70, 0xfd, 0x3d, 0x1a, 0x0a, 0x38, 0x3e, 0xf8, 0x36, 0x2e, 0x3e, 0xb7, 0x80, 0x77, 0xbd, 0xb2, 0x4b, 0x3a, 0x3e, 0x8f, 0x78, 0xa8, 0x3d, 0xfd, 0x29, 0x2d, 0xbc, 0xdf, 0xee, 0x7f, 0x3d, 0x54, 0xbd, 0x3c, 0x3d, 0x06, 0x6d, 0x21, 0x3b, 0x41, 0xf8, 0xbd, 0x3c, 0x95, 0xee, 0xa2, 0x3d, 0x76, 0x16, 0x28, 0x3d, 0xa6, 0xe8, 0x48, 0x3e, 0xb9, 0x19, 0xf2, 0xbd, 0x84, 0x1a, 0x96, 0xbd, 0xcc, 0x98, 0xa1, 0x3d, 0x27, 0x14, 0x90, 0x3c, 0x48, 0xa3, 0x9b, 0xbc, 0x9b, 0xe4, 0x16, 0x3e, 0x77, 0xe3, 0x51, 0xbe, 0xd4, 0xe4, 0xe9, 0x3c, 0x1f, 0xf2, 0xba, 0xbc, 0xea, 0x21, 0x9a, 0x3e, 0x44, 0xf8, 0x2a, 0x3d, 0x4b, 0x82, 0x23, 0x3e, 0x34, 0xd6, 0x56, 0xbd, 0x32, 0x3f, 0x96, 0xbd, 0xac, 0x40, 0x90, 0xbd, 0x1e, 0xe8, 0xd0, 0xbd, 0x38, 0x0e, 0x8f, 0xbe, 0x2f, 0x00, 0x1a, 0xbe, 0x3c, 0xcb, 0x16, 0xbc, 0x0c, 0xec, 0x66, 0xbe, 0xfc, 0xb9, 0xdb, 0xbd, 0xfc, 0x40, 0x7f, 0x3e, 0x49, 0x7b, 0xff, 0xbc, 0x8c, 0x9d, 0xe4, 0xbd, 0x32, 0x9d, 0x40, 0x3e, 0x70, 0x44, 0x3a, 0xbe, 0x16, 0x79, 0x87, 0xbe, 0x61, 0xb2, 0x0a, 0x3e, 0x51, 0x00, 0x87, 0xbc, 0x1e, 0xb4, 0x2d, 0xbe, 0xa7, 0x3a, 0x2a, 0xbe, 0x41, 0x68, 0x72, 0x3e, 0x75, 0xbb, 0x1f, 0xbd, 0x2f, 0xc1, 0x50, 0xbc, 0xf2, 0x9c, 0x54, 0xbe, 0x1a, 0x16, 0xaf, 0x3d, 0xa2, 0x52, 0x6f, 0x3e, 0xdc, 0x97, 0x47, 0xbe, 0x68, 0x6e, 0xce, 0x3d, 0xfa, 0x16, 0x72, 0x3e, 0x77, 0x57, 0x5e, 0xbe, 0x68, 0xcd, 0x1e, 0xbd, 0x67, 0x8b, 0x3f, 0x3d, 0xa2, 0xa1, 0xf4, 0x3d, 0xd9, 0xc1, 0x8e, 0xbd, 0xb6, 0x12, 0x13, 0xbc, 0x05, 0x9c, 0x5f, 0x3e, 0xe6, 0x40, 0x9c, 0xbd, 0x8b, 0x81, 0xb4, 0x3c, 0x21, 0x5d, 0x1c, 0xbe, 0xd3, 0x25, 0xd4, 0x3d, 0x37, 0x89, 0x45, 0xbe, 0xa3, 0x2d, 0xa4, 0x3d, 0xb8, 0x8f, 0xef, 0x3b, 0x36, 0x10, 0x18, 0xbd, 0x55, 0x8f, 0x8c, 0x3d, 0x7a, 0xe7, 0xff, 0xff, 0x04, 0x00, 0x00, 0x00, 0x40, 0x02, 0x00, 0x00, 0x7e, 0x58, 0x9c, 0x3e, 0x97, 0x11, 0xa6, 0x3e, 0x88, 0x68, 0xae, 0xbe, 0x13, 0xae, 0x63, 0xbe, 0x47, 0x24, 0xdc, 0xbe, 0x21, 0x1f, 0xe1, 0x3e, 0x8d, 0x74, 0xbe, 0x3e, 0xc0, 0xac, 0x0b, 0xbf, 0x88, 0x6b, 0x04, 0xbf, 0x67, 0xa1, 0xe7, 0xbe, 0x47, 0x83, 0x79, 0xbc, 0x9d, 0xc0, 0xf0, 0x3e, 0x91, 0x4e, 0x3b, 0x3d, 0x00, 0x18, 0xa9, 0x3e, 0xa5, 0x68, 0x90, 0xbd, 0xe4, 0xe6, 0x09, 0x3c, 0x90, 0xc6, 0xc4, 0xbb, 0x5d, 0x7f, 0xc6, 0xbc, 0x95, 0xf6, 0x3c, 0x3c, 0x15, 0x9b, 0x27, 0xbe, 0x95, 0xcd, 0x5a, 0x3d, 0x42, 0x3e, 0x78, 0xbe, 0x19, 0x35, 0xba, 0x3d, 0x93, 0xb7, 0x00, 0xbd, 0x5b, 0xf8, 0x56, 0x3e, 0x02, 0x90, 0xf1, 0x3e, 0x78, 0xc2, 0xf5, 0xbe, 0x42, 0x6a, 0x82, 0xbe, 0x5a, 0xe2, 0xd0, 0xbc, 0xd1, 0xda, 0x2e, 0x3e, 0x04, 0x2b, 0x15, 0x3f, 0xc9, 0x08, 0xfb, 0xbe, 0x96, 0xe5, 0x5b, 0xbe, 0x09, 0xa6, 0xef, 0xbe, 0x72, 0x75, 0x5f, 0xbe, 0x37, 0xc0, 0x90, 0x3e, 0xfd, 0x09, 0x89, 0x3d, 0xd2, 0x63, 0x50, 0x3e, 0xb0, 0x6f, 0xba, 0xbe, 0xbc, 0xb1, 0xfb, 0x3c, 0x9a, 0x60, 0x8e, 0x3d, 0x05, 0xad, 0x92, 0x3d, 0xf7, 0x32, 0x67, 0x3e, 0xe2, 0xe3, 0xbf, 0xbe, 0xe3, 0x0b, 0xe2, 0xbb, 0xf0, 0xc0, 0x3f, 0x3e, 0x6b, 0x91, 0xa1, 0xbe, 0x5b, 0xfb, 0xc0, 0x3d, 0x83, 0xa0, 0x9e, 0x3c, 0x2e, 0x51, 0xf2, 0x3d, 0xef, 0x85, 0x12, 0xbe, 0x1e, 0x35, 0x39, 0x3d, 0x7b, 0x6a, 0x63, 0xbe, 0x75, 0x6d, 0x6c, 0x3e, 0x4a, 0xcf, 0x97, 0x3e, 0x4d, 0xd1, 0x70, 0xbe, 0x76, 0x59, 0xa4, 0xbe, 0xaa, 0x9f, 0xb8, 0xbe, 0x1a, 0x71, 0xe1, 0xbe, 0x52, 0x56, 0x9f, 0x3e, 0x6b, 0xa0, 0x86, 0x3e, 0x56, 0x80, 0xac, 0x3e, 0xbf, 0xd9, 0xcb, 0xbd, 0xd4, 0x24, 0xb4, 0xbe, 0x57, 0x05, 0xc5, 0x3b, 0xc0, 0x52, 0x11, 0x3e, 0x68, 0x05, 0x0d, 0x3e, 0x7c, 0x6e, 0xdf, 0xbd, 0xc8, 0x6f, 0xa8, 0xbe, 0x48, 0x4e, 0xb8, 0x3d, 0xdb, 0xbb, 0xe2, 0xbd, 0x7c, 0x3d, 0x2c, 0x3e, 0xa4, 0x60, 0x0e, 0x3e, 0x57, 0x8c, 0x05, 0x3f, 0xb4, 0xe2, 0x4b, 0xbe, 0x04, 0x99, 0x38, 0xbe, 0x27, 0x31, 0xe9, 0xbe, 0xe9, 0x60, 0xce, 0x3e, 0xc5, 0xf7, 0x6a, 0x3e, 0xaa, 0xda, 0x8e, 0xbe, 0x97, 0x81, 0x83, 0xbe, 0x8b, 0x2b, 0xd8, 0x3c, 0xc1, 0xd4, 0xe2, 0xbd, 0x4e, 0xd2, 0xb3, 0x3e, 0x62, 0x9f, 0x9b, 0xbd, 0xca, 0x35, 0x66, 0x3d, 0xfb, 0xa7, 0x3c, 0xbe, 0x17, 0x59, 0x4a, 0xbe, 0xd1, 0xe7, 0x02, 0xbe, 0xae, 0x5b, 0x2a, 0x3e, 0x15, 0x72, 0x20, 0x3e, 0x22, 0xc5, 0x09, 0xbe, 0x3f, 0x24, 0x8b, 0x3c, 0x42, 0x83, 0x1a, 0x3e, 0xf8, 0xa6, 0x41, 0xbe, 0x35, 0x3c, 0x1c, 0xbe, 0x1f, 0x81, 0xa8, 0x3b, 0x47, 0xa8, 0x7e, 0x3e, 0x87, 0x47, 0x2c, 0xbe, 0xe3, 0x52, 0x39, 0xbd, 0x77, 0x11, 0xb3, 0xbe, 0xb8, 0x2f, 0x6e, 0x3e, 0x13, 0x9c, 0x90, 0x3d, 0x6f, 0x35, 0x85, 0xbe, 0x92, 0xac, 0x60, 0x3c, 0x19, 0x12, 0xaf, 0xbe, 0xb2, 0xa0, 0x07, 0xbe, 0x97, 0x52, 0xe0, 0x3e, 0x76, 0xca, 0x26, 0x3e, 0xd0, 0x57, 0x23, 0x3e, 0x3d, 0x8e, 0x41, 0x3d, 0x04, 0x62, 0x4d, 0xbe, 0x8b, 0xf6, 0xd5, 0xbe, 0xdb, 0x08, 0x57, 0x3e, 0x8a, 0x3d, 0x2a, 0x3e, 0x70, 0x60, 0x98, 0xbe, 0x8c, 0xd1, 0xc8, 0x3d, 0x23, 0x69, 0x4a, 0xbe, 0xde, 0x09, 0x5e, 0xbe, 0x48, 0x8e, 0xcc, 0x3d, 0x1a, 0xd1, 0xfd, 0x3d, 0xe6, 0xd4, 0xb0, 0xbd, 0x49, 0x12, 0x05, 0x3d, 0xcb, 0xac, 0x76, 0xbe, 0x06, 0x0a, 0xa8, 0xbd, 0xdc, 0x46, 0x99, 0xbd, 0x48, 0x4f, 0x7a, 0x3e, 0x9a, 0x7c, 0xf2, 0x3c, 0xae, 0xc5, 0xd5, 0x3d, 0xca, 0x2f, 0x1b, 0xbe, 0xba, 0xd8, 0x19, 0xbe, 0x40, 0xf9, 0x69, 0xbd, 0x20, 0x92, 0x74, 0x3e, 0xe6, 0xfa, 0x33, 0x3f, 0x08, 0xad, 0x80, 0xbe, 0xf2, 0xbc, 0x6d, 0xbe, 0xa3, 0x20, 0xb8, 0xbe, 0xfd, 0x40, 0xb3, 0x3e, 0x43, 0x75, 0xf1, 0x3e, 0x66, 0xff, 0x78, 0xbd, 0xd2, 0xe5, 0x1b, 0xbd, 0xcc, 0x20, 0x04, 0xbe, 0x91, 0x88, 0x93, 0xbe, 0x58, 0xb6, 0x94, 0x3e, 0xc6, 0xe9, 0xff, 0xff, 0x04, 0x00, 0x00, 0x00, 0x40, 0x02, 0x00, 0x00, 0x54, 0x37, 0xe3, 0xbd, 0x80, 0x42, 0xa0, 0x3e, 0x65, 0x4a, 0xf6, 0xbc, 0x4e, 0xf5, 0x2b, 0xbe, 0x84, 0x18, 0x11, 0xbd, 0x51, 0xff, 0x66, 0x3c, 0x0a, 0x2c, 0x63, 0x3d, 0xff, 0xa0, 0xc9, 0xbe, 0x7c, 0x28, 0x35, 0x3e, 0x52, 0x72, 0xcb, 0xbd, 0x6f, 0x2f, 0xf7, 0xbd, 0xfd, 0x03, 0x84, 0x3d, 0x3d, 0xdc, 0x13, 0x3e, 0x68, 0x5c, 0x45, 0x3e, 0x1a, 0xe5, 0x58, 0xbe, 0xf8, 0x0f, 0x39, 0xbe, 0x81, 0x7d, 0x0c, 0xbf, 0xc2, 0x05, 0x42, 0x3d, 0xd6, 0x2e, 0x02, 0x3e, 0x34, 0xe3, 0x97, 0x3c, 0x83, 0x83, 0x84, 0xbe, 0x17, 0x52, 0x92, 0xbe, 0x70, 0x0c, 0xac, 0xbe, 0xa0, 0x27, 0x25, 0x3b, 0x26, 0x41, 0xee, 0x3d, 0x44, 0x93, 0x3b, 0x3e, 0x46, 0xc5, 0x7e, 0x3e, 0xad, 0xdb, 0xb7, 0xbd, 0xe9, 0xdd, 0xe0, 0xbd, 0xcf, 0x79, 0x06, 0x3e, 0xbe, 0x82, 0xc1, 0x3e, 0x9d, 0x56, 0x00, 0xbf, 0x0c, 0x8f, 0xf0, 0xbd, 0x15, 0xe5, 0x75, 0xbe, 0xe6, 0x23, 0xe2, 0xbc, 0xb1, 0x7c, 0x45, 0xbd, 0xd4, 0x73, 0xa3, 0x3d, 0xbe, 0x29, 0x1d, 0x3e, 0xdb, 0x0d, 0xc6, 0x3e, 0xee, 0xb8, 0x1c, 0x3d, 0x90, 0x57, 0x3a, 0x3e, 0xb7, 0xd2, 0x59, 0x3e, 0x19, 0x99, 0x62, 0x3e, 0x8e, 0xec, 0x73, 0x3c, 0xd8, 0xcb, 0x7b, 0xbd, 0x3c, 0x67, 0x6b, 0x3d, 0xbe, 0x4e, 0xc9, 0xba, 0x09, 0x63, 0x8c, 0x3e, 0x24, 0x6f, 0xa5, 0x3d, 0x35, 0xc0, 0x1f, 0x3e, 0xbd, 0xfd, 0x1a, 0xbe, 0x92, 0x02, 0x21, 0xbe, 0x5d, 0xa9, 0x8c, 0xbd, 0x8b, 0x2b, 0x20, 0xbd, 0xca, 0x44, 0x1a, 0x3e, 0x11, 0xbc, 0x55, 0xbe, 0xf4, 0xc8, 0x34, 0xbe, 0x56, 0x30, 0x30, 0xbe, 0x41, 0x53, 0x20, 0xbd, 0x25, 0x0a, 0xf1, 0x3d, 0x97, 0xc4, 0xfe, 0x3e, 0x63, 0x58, 0x55, 0x3e, 0x38, 0xb2, 0x3d, 0xbe, 0xb0, 0xca, 0x98, 0x38, 0xfa, 0x55, 0x66, 0xbd, 0x6c, 0x41, 0x54, 0x3e, 0x7d, 0x9a, 0x05, 0x3e, 0x2d, 0xe9, 0x82, 0xbe, 0x44, 0x49, 0xca, 0x3c, 0x1a, 0x73, 0x84, 0xbe, 0x07, 0x94, 0x84, 0xbd, 0xe6, 0xf3, 0x50, 0x3e, 0xe9, 0x03, 0xa9, 0xbe, 0xe5, 0x0e, 0x58, 0x3c, 0x61, 0x8a, 0xfa, 0xbd, 0x4c, 0x2f, 0x8b, 0xbc, 0xe4, 0x7f, 0x27, 0x3d, 0x20, 0x5d, 0x04, 0xbd, 0xf9, 0xb7, 0xa1, 0x3d, 0xe7, 0x41, 0x08, 0x3d, 0x5a, 0x6f, 0x0d, 0x3e, 0x77, 0xe1, 0xbc, 0x3d, 0xeb, 0x0d, 0x2a, 0x3e, 0xd0, 0x8c, 0xfc, 0xbd, 0x8d, 0x3e, 0xa6, 0xbd, 0x0f, 0xd5, 0xa9, 0xbd, 0x0a, 0xc9, 0x02, 0x3e, 0x6e, 0x62, 0xb4, 0xbd, 0xe5, 0x67, 0x05, 0x3e, 0x6d, 0x1b, 0x89, 0xbe, 0x9d, 0x39, 0x7c, 0x3c, 0x82, 0x5e, 0x1c, 0xbd, 0x6a, 0x68, 0xab, 0x3e, 0xfb, 0x7e, 0xb6, 0x3b, 0xf4, 0x61, 0x66, 0x3e, 0x9e, 0xe7, 0x15, 0x3c, 0x27, 0x2d, 0x19, 0xbd, 0xfe, 0xcf, 0x5e, 0x3e, 0x3b, 0x9b, 0x0b, 0x3e, 0xed, 0x7d, 0x55, 0x3e, 0xb2, 0x50, 0x35, 0xbd, 0xa5, 0x8a, 0xc5, 0x3d, 0xeb, 0x62, 0x2c, 0x3e, 0x3f, 0x83, 0x0d, 0xbe, 0x70, 0x85, 0x91, 0xba, 0x24, 0xa1, 0x19, 0xbd, 0xc9, 0x1a, 0xc2, 0x3d, 0xf0, 0x57, 0xfc, 0xbd, 0x23, 0xbd, 0x3c, 0xbe, 0x30, 0xc7, 0x2e, 0xb9, 0xe3, 0x1a, 0x9b, 0xbd, 0xf4, 0xad, 0xbe, 0xbb, 0x03, 0x99, 0xe6, 0xbd, 0x5a, 0xe5, 0x0f, 0x3d, 0x86, 0x0b, 0x97, 0x3e, 0xbd, 0x38, 0x02, 0xbe, 0xd2, 0x09, 0x7e, 0x3d, 0x01, 0x5b, 0x82, 0x3e, 0xed, 0xe4, 0xcf, 0x3d, 0xe4, 0x44, 0x42, 0xbe, 0xbd, 0xbc, 0xb9, 0x3e, 0x5f, 0xf4, 0x62, 0x3d, 0x37, 0x81, 0xae, 0xbe, 0x13, 0x15, 0x31, 0xbe, 0x4c, 0xd6, 0x3e, 0xbe, 0xd3, 0x07, 0x3d, 0x3e, 0x27, 0xb4, 0x53, 0x3e, 0x70, 0x09, 0x5b, 0xbe, 0x36, 0xd4, 0x46, 0xbe, 0x34, 0x40, 0x4d, 0xbe, 0x4c, 0x30, 0x45, 0x3e, 0xe8, 0xc9, 0x74, 0xbe, 0xb1, 0x1c, 0xdc, 0xbd, 0x6d, 0xd1, 0x09, 0xbe, 0x29, 0xc7, 0x2e, 0x3d, 0xf9, 0x0e, 0x86, 0xba, 0x42, 0xc1, 0x80, 0xbd, 0x64, 0x16, 0xcf, 0x3e, 0x03, 0x3a, 0x4b, 0x3e, 0xa1, 0xba, 0x91, 0x3d, 0x99, 0x1e, 0xd2, 0xbd, 0x35, 0x01, 0x24, 0xbe, 0x4f, 0x7f, 0x7d, 0xbe, 0x43, 0x38, 0x65, 0x3d, 0x12, 0xec, 0xff, 0xff, 0x04, 0x00, 0x00, 0x00, 0x40, 0x02, 0x00, 0x00, 0x0f, 0xac, 0x81, 0x3e, 0x2e, 0x8b, 0x93, 0x3e, 0x4b, 0xf9, 0x3f, 0xbe, 0x02, 0x8f, 0xb6, 0xbe, 0x13, 0x62, 0x16, 0x3e, 0xe4, 0xe7, 0xc0, 0x3d, 0x06, 0xdc, 0x8c, 0x3e, 0x3e, 0xed, 0x3b, 0xbe, 0x61, 0x72, 0xf3, 0x3d, 0xfe, 0xcc, 0xcb, 0xbe, 0xe4, 0x7a, 0x40, 0x3d, 0x39, 0x35, 0x79, 0x3e, 0x91, 0xa6, 0x4e, 0x3e, 0xf5, 0x5a, 0xb5, 0x3e, 0x2b, 0x57, 0x8c, 0xbe, 0xa8, 0x7d, 0xf3, 0xbd, 0x98, 0x59, 0x90, 0xbd, 0x4e, 0x7b, 0x88, 0x3e, 0x80, 0x53, 0x8b, 0x3c, 0xf7, 0x8f, 0xe5, 0xbe, 0x33, 0xd5, 0xee, 0xbd, 0xb4, 0xbb, 0xa1, 0xbe, 0xac, 0xa2, 0x3e, 0x3e, 0x2b, 0xed, 0x2d, 0x3e, 0x06, 0xf3, 0x18, 0xbe, 0xc6, 0xc6, 0xa3, 0x3e, 0xff, 0xb6, 0x8a, 0x3c, 0x42, 0x6a, 0xb0, 0xbd, 0x29, 0x92, 0x93, 0xbe, 0x47, 0x5b, 0xea, 0x3e, 0x45, 0x37, 0xd6, 0x3e, 0x91, 0xb8, 0xc4, 0xbd, 0xc3, 0xa8, 0x8d, 0xbe, 0xaf, 0xb0, 0x8d, 0xbe, 0x44, 0xc6, 0x7b, 0xbe, 0x23, 0x8d, 0xa1, 0xbc, 0x4f, 0x67, 0x9d, 0x3e, 0x1f, 0x26, 0x60, 0x3e, 0xad, 0x8e, 0x83, 0xbe, 0x02, 0x41, 0xec, 0xbd, 0xb5, 0xd2, 0x31, 0xbe, 0x72, 0xc5, 0xb9, 0x3e, 0x29, 0x18, 0x91, 0x3b, 0xa6, 0x79, 0xa6, 0x3b, 0x17, 0x68, 0xed, 0xbd, 0x2d, 0xba, 0xa8, 0xbe, 0xfc, 0x5f, 0xaa, 0xbe, 0x48, 0xb4, 0xdf, 0xbc, 0x0f, 0x03, 0x5b, 0x3e, 0x0b, 0xd2, 0xdf, 0x3e, 0x16, 0x23, 0x27, 0xbe, 0x96, 0x90, 0x9d, 0x3d, 0xf2, 0x71, 0xc5, 0xbe, 0x32, 0xcc, 0x90, 0xbd, 0xa2, 0x99, 0x6f, 0x3d, 0xdb, 0x1e, 0x96, 0xbc, 0xbe, 0xf1, 0xfd, 0xbd, 0x17, 0x5b, 0x88, 0xbc, 0x6a, 0x62, 0xbf, 0xbd, 0x19, 0x84, 0x4d, 0x3e, 0xc5, 0x64, 0xaf, 0x3e, 0x79, 0x8e, 0xfd, 0x3d, 0xa4, 0xb9, 0xe6, 0xbe, 0x0f, 0x4d, 0xf6, 0xbd, 0xb8, 0x37, 0xcf, 0xbd, 0x26, 0x42, 0xa9, 0x3e, 0xe5, 0x4b, 0xc1, 0x3e, 0x48, 0x2f, 0xa9, 0xbe, 0x6a, 0x7e, 0xc6, 0x3d, 0x82, 0xe6, 0x59, 0x3e, 0x4e, 0xe2, 0xd5, 0xbe, 0x0b, 0x6d, 0xac, 0x3e, 0xa8, 0x23, 0x2f, 0x3e, 0x34, 0x52, 0xbd, 0x3e, 0x70, 0xf0, 0xf8, 0x3d, 0x63, 0x56, 0x41, 0xbe, 0x03, 0x6f, 0x79, 0xbe, 0x64, 0x5e, 0x34, 0x3e, 0x76, 0xb2, 0x90, 0x3e, 0xe4, 0x75, 0x1b, 0x3e, 0x5d, 0x99, 0x2f, 0xbd, 0xf1, 0xd2, 0x03, 0x3d, 0xe6, 0xbf, 0xae, 0xbe, 0xbb, 0xc1, 0x31, 0x3e, 0xef, 0x31, 0xfe, 0x3e, 0x40, 0x36, 0x05, 0x3f, 0xf8, 0x50, 0xae, 0xbe, 0x36, 0x35, 0x08, 0xbe, 0xe6, 0x8a, 0x84, 0x3c, 0x37, 0xab, 0x04, 0x3e, 0xbf, 0xa2, 0x3e, 0x3e, 0x2d, 0x99, 0xc2, 0xbd, 0xd9, 0x7d, 0x9f, 0xbd, 0x5e, 0x05, 0xa3, 0xbe, 0x90, 0x26, 0x48, 0xbe, 0x37, 0x0a, 0xad, 0x3d, 0xb0, 0x79, 0x3e, 0x3e, 0x3a, 0x71, 0xd4, 0x3e, 0x4a, 0x28, 0x0c, 0xbf, 0x69, 0xc3, 0xa6, 0x3c, 0x5d, 0x25, 0x44, 0xbe, 0xd6, 0x23, 0x95, 0x3e, 0x97, 0x90, 0x0f, 0x3d, 0xcf, 0xa0, 0xc7, 0x3d, 0xd4, 0x02, 0xb9, 0xbd, 0xc3, 0xc3, 0x1d, 0xbe, 0xfa, 0xc4, 0xad, 0xbe, 0x81, 0x52, 0xd1, 0x3c, 0x1c, 0x62, 0x0d, 0x3e, 0x6d, 0x45, 0xb7, 0x3e, 0x42, 0x42, 0xac, 0x3d, 0xff, 0x15, 0x61, 0xbe, 0xeb, 0xcd, 0xd1, 0xbe, 0xe8, 0x0e, 0xc8, 0x3e, 0x03, 0xde, 0x3c, 0x3e, 0xe5, 0x14, 0x2a, 0xbe, 0xda, 0x26, 0x92, 0xbd, 0x13, 0x94, 0xba, 0xbe, 0xcd, 0x3b, 0x2e, 0xbe, 0x03, 0xaa, 0x9b, 0x3e, 0x8c, 0x4b, 0x8e, 0xbe, 0xa3, 0xd2, 0xf7, 0x3e, 0x32, 0x18, 0x92, 0x3e, 0xab, 0x08, 0xae, 0xbd, 0x64, 0xf1, 0xfd, 0xbd, 0x36, 0x78, 0x09, 0x3e, 0x0f, 0x3d, 0x11, 0x3e, 0x18, 0x04, 0xcd, 0x3d, 0x6b, 0x3e, 0x97, 0x3e, 0xe1, 0x34, 0xc9, 0x3c, 0x0a, 0x1c, 0x7f, 0xbe, 0x06, 0x0b, 0xda, 0x3e, 0x3b, 0xcb, 0xa3, 0x3e, 0xea, 0x93, 0x91, 0x3e, 0xf0, 0xa4, 0xb5, 0xbd, 0x13, 0xfc, 0x8b, 0xbe, 0xbd, 0x8b, 0x02, 0x3e, 0xb2, 0x81, 0x06, 0xbe, 0xc2, 0x4f, 0x94, 0x3d, 0xf4, 0x3f, 0xed, 0xbe, 0x2c, 0x8e, 0x04, 0xbe, 0xf3, 0xb3, 0xe0, 0x3d, 0xb6, 0xce, 0x9d, 0xbe, 0x1d, 0x0f, 0xaf, 0x3e, 0x5e, 0xee, 0xff, 0xff, 0x04, 0x00, 0x00, 0x00, 0x40, 0x02, 0x00, 0x00, 0x94, 0xa5, 0x97, 0x3e, 0xd7, 0x1b, 0xc5, 0x3d, 0x7e, 0xb7, 0x95, 0xbe, 0xa5, 0x93, 0x2a, 0xbe, 0x7e, 0xf2, 0x9e, 0xbe, 0x4c, 0x52, 0xcd, 0x3d, 0x5d, 0x87, 0x80, 0xbe, 0x2c, 0x08, 0x1b, 0xbe, 0xcc, 0xd0, 0x73, 0xbe, 0x59, 0x95, 0x82, 0xbe, 0x4b, 0x32, 0xce, 0xbd, 0x7d, 0xd5, 0xa4, 0x3e, 0x94, 0xe9, 0xac, 0xbd, 0x26, 0x06, 0xb0, 0xbe, 0x93, 0x78, 0xae, 0x3e, 0x23, 0x11, 0x3a, 0x3d, 0xc7, 0xf7, 0xb8, 0x3e, 0x15, 0x06, 0x8e, 0xbe, 0x16, 0xe4, 0x8e, 0xbe, 0x2b, 0x61, 0x70, 0xbe, 0x48, 0x8b, 0x14, 0x3d, 0xfc, 0xc8, 0x1a, 0xbe, 0x7e, 0xf5, 0x52, 0x3e, 0xec, 0x0d, 0xad, 0xbe, 0xde, 0x40, 0x3f, 0x3e, 0x49, 0x9a, 0x68, 0x3e, 0xda, 0x85, 0x7f, 0xbd, 0x35, 0x6c, 0x80, 0xbe, 0x76, 0x60, 0x3d, 0xbd, 0x4b, 0x32, 0xe2, 0x3d, 0x21, 0xde, 0x69, 0x3e, 0xc8, 0x23, 0x89, 0x3d, 0xc7, 0x1d, 0x32, 0xbe, 0xca, 0x83, 0x41, 0x3e, 0x89, 0xa9, 0x2c, 0x3e, 0x5a, 0xda, 0x66, 0x3e, 0xb3, 0xff, 0x34, 0xbd, 0x43, 0xb0, 0xea, 0x3d, 0xcc, 0x6b, 0x3c, 0x3e, 0xc7, 0xed, 0xbc, 0xbd, 0x26, 0xbc, 0x99, 0x3d, 0xc6, 0x67, 0x11, 0xbe, 0xd2, 0x2f, 0xaf, 0xbe, 0x71, 0xf3, 0xb4, 0x3e, 0xb3, 0x91, 0x76, 0x3e, 0xce, 0x85, 0x78, 0xbd, 0x16, 0xce, 0x09, 0x3e, 0x71, 0x15, 0x84, 0xbe, 0xc2, 0xe9, 0x34, 0xbe, 0xe1, 0xc8, 0xd5, 0x3d, 0x4f, 0xee, 0xbd, 0xbd, 0x86, 0xe8, 0x92, 0xbe, 0xae, 0xe5, 0x12, 0xbe, 0x22, 0xec, 0x66, 0x3e, 0xaa, 0x04, 0x1d, 0x3e, 0x22, 0x3a, 0x2c, 0xbe, 0xa4, 0x46, 0xf6, 0x3b, 0x06, 0x83, 0x50, 0xbd, 0x66, 0xa8, 0x3d, 0x3e, 0x7c, 0x00, 0xa0, 0x3e, 0xea, 0xbf, 0xe9, 0x3d, 0x8c, 0x86, 0x11, 0xbb, 0x98, 0x97, 0xd6, 0xbc, 0x75, 0x99, 0x93, 0xbe, 0xbf, 0xea, 0x86, 0xbc, 0x22, 0x62, 0x8e, 0x3e, 0xf5, 0xae, 0x43, 0x3e, 0xd0, 0x4d, 0x5e, 0x3e, 0x4e, 0xdb, 0x31, 0x3b, 0xb3, 0x27, 0xd7, 0xbd, 0xb5, 0x23, 0x97, 0xbe, 0xbf, 0x13, 0x9a, 0x3e, 0x75, 0x3b, 0xd0, 0xbd, 0xf7, 0x10, 0x87, 0xbd, 0x7b, 0x08, 0x7b, 0x3c, 0x13, 0x83, 0xbb, 0x3e, 0x8f, 0x57, 0x06, 0xbd, 0x6e, 0x52, 0x5c, 0xbe, 0x17, 0xea, 0x07, 0xbe, 0x59, 0x6c, 0x2e, 0x3d, 0x4c, 0x5c, 0x96, 0xbd, 0x43, 0x93, 0x83, 0x3d, 0x5d, 0xdc, 0x2d, 0x3a, 0xe0, 0xb3, 0xb5, 0xbe, 0xf5, 0x55, 0x1b, 0xbe, 0x6e, 0xe9, 0x63, 0x3e, 0xbd, 0xb5, 0x8f, 0xbe, 0x22, 0x92, 0xbb, 0xbd, 0xa9, 0xf9, 0xe3, 0xbd, 0x4e, 0xc2, 0x76, 0xbd, 0x0b, 0x83, 0x98, 0x3e, 0xfc, 0x41, 0xf9, 0x3b, 0x6f, 0xe8, 0xe8, 0xbd, 0x8b, 0xe5, 0x47, 0xbe, 0xc0, 0x8f, 0x35, 0xbd, 0xd3, 0xd6, 0x18, 0xbd, 0x4a, 0x14, 0xa5, 0x3d, 0x30, 0x4e, 0x98, 0xbc, 0x4e, 0xfb, 0x9f, 0xbd, 0x84, 0x90, 0x91, 0xbe, 0x94, 0x4b, 0x4d, 0xbc, 0x2d, 0xad, 0x8c, 0x3e, 0x61, 0x52, 0x1b, 0x3e, 0x54, 0xa4, 0x00, 0xbe, 0x85, 0xa1, 0x1c, 0xbe, 0xe3, 0x99, 0x03, 0x3e, 0xd9, 0x06, 0x8a, 0xbe, 0xbd, 0x99, 0xd9, 0x3d, 0xd9, 0xe6, 0xbc, 0xbd, 0x24, 0x8a, 0xd3, 0xbd, 0x81, 0xb1, 0x79, 0xbe, 0x25, 0x78, 0xfd, 0xbd, 0x66, 0xb7, 0x5a, 0xbe, 0xf7, 0x07, 0x49, 0x3e, 0x9c, 0x6a, 0x85, 0xbd, 0xbd, 0x88, 0xc1, 0xbe, 0x39, 0xe5, 0xc7, 0xbd, 0x06, 0x30, 0x62, 0xbe, 0x58, 0x95, 0xf4, 0x3c, 0xc4, 0x94, 0x59, 0x3e, 0x95, 0xe6, 0xae, 0xbe, 0xaf, 0xb9, 0xc9, 0xbe, 0x3b, 0xb4, 0x16, 0xbe, 0x6d, 0xda, 0x09, 0xbe, 0x64, 0x13, 0xe8, 0xbd, 0x49, 0xc3, 0xc5, 0x3d, 0xdf, 0x2e, 0xbd, 0xbd, 0xa5, 0x00, 0xb2, 0xbd, 0xb9, 0x04, 0x34, 0x3d, 0x3a, 0x5e, 0xb0, 0x3c, 0x40, 0xb2, 0xe1, 0xbd, 0x9d, 0xf5, 0x0e, 0xbe, 0x5c, 0x30, 0x9c, 0xbd, 0x4d, 0x60, 0x8b, 0xbd, 0x03, 0x5b, 0x39, 0x3c, 0x52, 0x3c, 0x36, 0x3e, 0x36, 0xf1, 0x8d, 0x3e, 0xe2, 0x32, 0xa8, 0x3d, 0xbf, 0x3d, 0x9f, 0x3c, 0xba, 0xf5, 0x82, 0x3e, 0x36, 0xe4, 0xbd, 0xbd, 0x0a, 0xec, 0x86, 0x3e, 0x0e, 0xaa, 0xb0, 0x3e, 0x58, 0x24, 0x2b, 0x3d, 0xaa, 0xf0, 0xff, 0xff, 0x04, 0x00, 0x00, 0x00, 0x40, 0x02, 0x00, 0x00, 0x58, 0x3c, 0x8e, 0x3e, 0x13, 0x21, 0xca, 0x3e, 0xf7, 0xd4, 0xe4, 0xbe, 0xb3, 0x2f, 0xbb, 0x3c, 0x78, 0xf3, 0xef, 0xbe, 0xd7, 0x73, 0x21, 0x3e, 0x0e, 0x31, 0x22, 0x3e, 0xd4, 0x16, 0x61, 0x3d, 0xc6, 0x59, 0xde, 0xbe, 0x8a, 0x71, 0xbf, 0xbe, 0x50, 0xe8, 0xf5, 0x3d, 0x7d, 0x5d, 0x0b, 0xbd, 0x8a, 0x32, 0xef, 0x3e, 0xae, 0x2b, 0xdc, 0x3e, 0xae, 0xf7, 0x93, 0xbe, 0x0c, 0xfe, 0xc9, 0xbe, 0x63, 0x1b, 0x43, 0xbe, 0x6e, 0xae, 0x9f, 0x3e, 0x56, 0x31, 0x80, 0x3e, 0x0f, 0x07, 0x82, 0xbe, 0xb1, 0x3a, 0xcd, 0x3d, 0xd0, 0xb5, 0xb0, 0xbe, 0xc4, 0xb4, 0xc1, 0x3d, 0x27, 0x12, 0x02, 0xbe, 0xc6, 0xfe, 0x54, 0xbd, 0xdb, 0x39, 0xa0, 0x3e, 0x43, 0xb8, 0xd3, 0xbe, 0x55, 0xcb, 0x94, 0xbe, 0xb2, 0x21, 0x3b, 0xbd, 0x36, 0x18, 0xaf, 0x3e, 0x50, 0x2d, 0x9a, 0x3e, 0x5d, 0xfd, 0xc8, 0xbe, 0xfe, 0xa1, 0xe7, 0xbe, 0x19, 0x5c, 0x8e, 0xbe, 0x7d, 0x47, 0x3d, 0x3d, 0x0a, 0x20, 0x71, 0xbd, 0xdc, 0xd2, 0xb5, 0x3e, 0x49, 0x94, 0xb1, 0x3e, 0x9f, 0x60, 0xef, 0x3c, 0x93, 0x23, 0x60, 0xbe, 0x5e, 0x92, 0x85, 0x3d, 0xc0, 0xa5, 0x6f, 0x3e, 0xfd, 0x78, 0x01, 0xbe, 0x25, 0x21, 0xc4, 0xbd, 0x7b, 0x67, 0x97, 0xbe, 0x80, 0x5f, 0x26, 0xbe, 0xb0, 0x1b, 0x7f, 0xbe, 0xb5, 0x6a, 0xef, 0xbd, 0x53, 0x8d, 0xe2, 0x3e, 0x87, 0x4e, 0xf3, 0x3c, 0x1d, 0x04, 0xb5, 0xbd, 0x57, 0x3a, 0xd1, 0xbe, 0x36, 0x59, 0xce, 0xbe, 0xad, 0x8f, 0x87, 0xbd, 0xad, 0x9a, 0x85, 0x3c, 0xc8, 0x4d, 0xaf, 0xbd, 0x82, 0x0a, 0xd6, 0xbe, 0x30, 0x09, 0xdd, 0x3d, 0xe5, 0xd0, 0x8b, 0xbe, 0x6b, 0xa8, 0xca, 0x3d, 0xe9, 0xb1, 0x1c, 0xbd, 0xa1, 0xe5, 0x6b, 0x3c, 0x97, 0xf5, 0x37, 0x3c, 0xbd, 0x1b, 0xb4, 0xbe, 0x82, 0x65, 0x94, 0xbe, 0xf2, 0x64, 0xed, 0x3d, 0x95, 0x23, 0x80, 0x3e, 0xfe, 0xe5, 0x6d, 0xbe, 0x28, 0x0c, 0x96, 0xbe, 0x95, 0x41, 0x18, 0x3d, 0xc0, 0xb9, 0x81, 0xbc, 0x79, 0x6f, 0x1c, 0x3e, 0x79, 0x09, 0xe9, 0x3e, 0xa9, 0xd0, 0x33, 0x3e, 0x43, 0xa3, 0xae, 0xbe, 0x60, 0xea, 0xa7, 0xbe, 0xea, 0xa6, 0x83, 0xbe, 0x5e, 0xb6, 0xdd, 0x3d, 0x97, 0x8c, 0x7e, 0x3e, 0xc9, 0x85, 0x15, 0xbe, 0xed, 0x33, 0x1d, 0xbe, 0x62, 0x0d, 0xc9, 0xbe, 0xc0, 0x90, 0x99, 0xbd, 0x73, 0x07, 0x9b, 0x3e, 0xa0, 0xe3, 0xcb, 0x3e, 0x22, 0x4a, 0xf4, 0x3e, 0xa0, 0x61, 0x1b, 0xbf, 0xb3, 0x32, 0x3c, 0xbd, 0x99, 0x35, 0x39, 0xbe, 0xdc, 0xdb, 0x40, 0x3e, 0x86, 0xcd, 0xf5, 0x3d, 0xd4, 0xc0, 0x88, 0xbe, 0xc7, 0xb6, 0xf1, 0xbe, 0x0c, 0x54, 0x35, 0x3d, 0x49, 0x7b, 0x5d, 0x3d, 0x96, 0xfe, 0x67, 0x3e, 0x07, 0x0f, 0x6e, 0x3e, 0x90, 0x73, 0x8c, 0x3d, 0x5a, 0x22, 0xc4, 0xbe, 0xe5, 0x44, 0x3e, 0xbd, 0xef, 0x54, 0x4e, 0xbc, 0xc5, 0xd0, 0xb5, 0x3e, 0x55, 0x60, 0x8b, 0x3e, 0x99, 0xcb, 0x49, 0x3e, 0x5a, 0x96, 0xe6, 0xbe, 0xf6, 0x12, 0x2d, 0xbe, 0x8b, 0x3d, 0xaa, 0xbe, 0xa2, 0x5e, 0xa2, 0xbd, 0xaa, 0xab, 0xbd, 0xbc, 0xca, 0xc1, 0x76, 0x3d, 0x1e, 0x97, 0x89, 0xbd, 0x8d, 0x47, 0x6a, 0xbe, 0xfb, 0xc0, 0xc5, 0xbe, 0xe0, 0x70, 0xce, 0x3e, 0x95, 0xb0, 0xb8, 0x3e, 0x10, 0x4e, 0x23, 0x3e, 0x3c, 0x1c, 0x8e, 0xbe, 0x0c, 0x32, 0xc8, 0x3d, 0x19, 0x17, 0x91, 0x3d, 0x0a, 0x17, 0x1f, 0x3e, 0x2b, 0xab, 0x06, 0x3e, 0x94, 0xde, 0xb4, 0xbd, 0x03, 0x32, 0xf1, 0xbd, 0x8d, 0x6b, 0xa2, 0xbe, 0x57, 0x8b, 0xd6, 0xbe, 0x91, 0xce, 0x4e, 0xbe, 0x20, 0xff, 0x53, 0xbd, 0xe3, 0x5c, 0x0a, 0x3d, 0xe2, 0xf3, 0xa8, 0xbe, 0x62, 0x62, 0xf7, 0xbc, 0x59, 0x79, 0x57, 0xbe, 0x46, 0x6b, 0x47, 0x3c, 0xfe, 0x37, 0xef, 0x3e, 0x78, 0x06, 0xd2, 0xbd, 0x7a, 0xa4, 0x18, 0x3d, 0xc9, 0xc2, 0x30, 0x3e, 0x37, 0x25, 0xe6, 0xbd, 0x25, 0x05, 0x14, 0xbe, 0x4c, 0x5a, 0xa1, 0x3e, 0x8f, 0x98, 0xc4, 0xbd, 0x58, 0xc1, 0x5d, 0xbe, 0x48, 0x08, 0x98, 0xbc, 0xb6, 0x4a, 0xd5, 0xbe, 0x48, 0x95, 0x64, 0x3e, 0xf6, 0xf2, 0xff, 0xff, 0x04, 0x00, 0x00, 0x00, 0x40, 0x02, 0x00, 0x00, 0xbb, 0x23, 0xbd, 0x3e, 0xe0, 0x32, 0x83, 0x3d, 0x11, 0xaa, 0xba, 0x3d, 0x82, 0x90, 0xae, 0xbe, 0x2d, 0x1c, 0x90, 0x3d, 0xd5, 0x76, 0xa6, 0x3e, 0x7b, 0xce, 0x1f, 0xbe, 0x8d, 0xdf, 0x50, 0x3e, 0x83, 0xe9, 0xee, 0xbe, 0x3a, 0xa3, 0xb3, 0xbe, 0x92, 0x9b, 0xa4, 0xbe, 0xcd, 0xbc, 0xbe, 0x3e, 0x7d, 0x4a, 0xbf, 0x3e, 0x00, 0xe4, 0xe0, 0xba, 0xa0, 0x6a, 0x52, 0xbe, 0x7f, 0xa7, 0xf7, 0xbc, 0x28, 0xde, 0xae, 0x3d, 0xa0, 0xd8, 0xc5, 0xbd, 0x4b, 0xc3, 0xab, 0x3e, 0x2d, 0x9a, 0xd5, 0x3d, 0x8e, 0x8e, 0xb7, 0xbd, 0x4d, 0x5d, 0xc9, 0xbd, 0x76, 0x55, 0xe5, 0xbd, 0xd8, 0x84, 0xd8, 0x3e, 0xb4, 0x8b, 0xf3, 0x3e, 0xdd, 0x04, 0x7f, 0x3e, 0x34, 0x99, 0x44, 0xbd, 0x30, 0x60, 0xc8, 0xbe, 0x76, 0xc6, 0x73, 0x3d, 0x33, 0x55, 0xac, 0x3e, 0x8e, 0x01, 0x44, 0x3c, 0x90, 0x52, 0x6e, 0x3e, 0xe3, 0x8d, 0x0b, 0xbe, 0xf0, 0x48, 0x7d, 0xbe, 0x24, 0xe2, 0xa7, 0xbe, 0x41, 0x87, 0x85, 0x3e, 0x8c, 0x53, 0xcf, 0x3e, 0xaf, 0xd1, 0x39, 0x3e, 0xd0, 0xaa, 0xa0, 0xbe, 0x00, 0xc8, 0xb7, 0xbe, 0x5b, 0x29, 0xdf, 0x3d, 0xa2, 0x76, 0x86, 0x3e, 0xc4, 0x33, 0x85, 0x3c, 0x72, 0x35, 0x2e, 0xbc, 0xd7, 0x62, 0x4a, 0xbd, 0x90, 0x9c, 0xe1, 0x3b, 0xdb, 0xd0, 0x93, 0xbd, 0x93, 0xb5, 0xa3, 0x3e, 0xf5, 0x22, 0xeb, 0xbd, 0xb6, 0x79, 0xd0, 0xbd, 0x73, 0x85, 0x26, 0xbd, 0xd4, 0x03, 0x2e, 0xbe, 0xe2, 0x72, 0xd4, 0xbd, 0x63, 0xe1, 0x59, 0x3e, 0x9b, 0x71, 0x4b, 0x3e, 0x1f, 0x7b, 0x82, 0xbe, 0x9b, 0x34, 0xbd, 0xbe, 0x7c, 0x0a, 0xce, 0xbe, 0x7c, 0xd0, 0xaa, 0xbe, 0xdd, 0x4c, 0x66, 0x3e, 0x6a, 0xab, 0xf2, 0x3e, 0x41, 0x6a, 0x0e, 0x3e, 0x04, 0x01, 0x9f, 0xbd, 0xd8, 0x17, 0xed, 0x3d, 0x71, 0x93, 0xed, 0x3d, 0xd1, 0xf3, 0xae, 0x3e, 0x8d, 0xb2, 0x08, 0x3d, 0x56, 0x05, 0x0e, 0xbe, 0x47, 0x68, 0x73, 0xbe, 0x1d, 0x61, 0x78, 0x3d, 0x9d, 0x02, 0xb7, 0xbe, 0x08, 0x10, 0x12, 0x3d, 0x3b, 0x5e, 0x59, 0x3c, 0x44, 0x7e, 0xe2, 0xbd, 0x95, 0x21, 0x39, 0xbd, 0x43, 0x2e, 0x91, 0x3d, 0xa4, 0x51, 0xb6, 0x3c, 0xbe, 0xe6, 0x8c, 0x3d, 0xbf, 0xf2, 0xe5, 0x3e, 0x28, 0x62, 0xb0, 0xbe, 0xf8, 0xd2, 0xb5, 0xbe, 0x81, 0x14, 0xa3, 0x3d, 0x48, 0x45, 0x22, 0x3e, 0x4b, 0x99, 0x4a, 0x3e, 0x67, 0x09, 0xd2, 0x3e, 0xf5, 0xdf, 0x1f, 0x3e, 0x81, 0x1d, 0x84, 0xbe, 0x42, 0x22, 0x16, 0xbd, 0x60, 0xf1, 0x41, 0xbe, 0x85, 0x61, 0x9b, 0x3e, 0x76, 0x34, 0x0c, 0xbd, 0x7a, 0x11, 0x15, 0xbe, 0xba, 0x42, 0xc7, 0x3d, 0x82, 0xc8, 0x64, 0x3e, 0x06, 0x4f, 0x88, 0xbe, 0x25, 0xfd, 0xa6, 0x3e, 0x5b, 0x64, 0x1d, 0x3d, 0x2f, 0x22, 0x00, 0xbe, 0xdb, 0x61, 0xa7, 0xbe, 0xde, 0x41, 0xb9, 0xbe, 0xa7, 0xe9, 0xa2, 0x3d, 0x67, 0xe8, 0xe3, 0x3c, 0xf3, 0x96, 0x39, 0x3e, 0xf5, 0xb6, 0x50, 0x3e, 0xf0, 0x67, 0x09, 0xbd, 0x3d, 0x2f, 0xb0, 0xbe, 0x4f, 0x44, 0x25, 0xbe, 0x5b, 0x41, 0xc3, 0xbd, 0x77, 0x54, 0xcf, 0x3e, 0xe3, 0xbf, 0x59, 0x3e, 0x71, 0x9b, 0xee, 0xbe, 0xe4, 0xd5, 0x33, 0x3c, 0x63, 0x66, 0x83, 0xbd, 0xc7, 0x5a, 0xbc, 0x3b, 0x89, 0x81, 0x06, 0x3d, 0x66, 0x00, 0x05, 0x3a, 0xe5, 0x86, 0xac, 0xbe, 0xf0, 0xe6, 0xcd, 0xbe, 0xbe, 0xc3, 0x49, 0x3d, 0x26, 0xf5, 0xb1, 0x3c, 0x5d, 0x9d, 0xf5, 0x3e, 0xbd, 0x3f, 0x82, 0x3e, 0x51, 0xaa, 0x91, 0xbe, 0x91, 0xa6, 0x9a, 0xbe, 0xc6, 0xf9, 0xc4, 0x3d, 0xd5, 0x4e, 0x3d, 0x3e, 0xe5, 0x9b, 0x28, 0x3d, 0x7d, 0x47, 0x3a, 0xbe, 0xc7, 0xaf, 0x0d, 0x3c, 0x56, 0x7a, 0x81, 0x3b, 0xd7, 0xc0, 0xc6, 0xbe, 0xf3, 0x87, 0x91, 0xbc, 0x3f, 0xdb, 0x49, 0x3e, 0x66, 0xe9, 0x92, 0x3e, 0x02, 0xd4, 0xd3, 0xbc, 0xbf, 0xf6, 0x94, 0xbe, 0x65, 0x8e, 0x87, 0xbe, 0x3c, 0x85, 0x76, 0xbd, 0x6a, 0x70, 0x95, 0x3e, 0xa1, 0x76, 0x18, 0x3e, 0x77, 0xfe, 0xcd, 0xbe, 0x0e, 0x70, 0xc3, 0xbe, 0x3f, 0x1e, 0xc0, 0xbe, 0xe1, 0x84, 0x7c, 0x3d, 0x42, 0xf5, 0xff, 0xff, 0x04, 0x00, 0x00, 0x00, 0x30, 0x00, 0x00, 0x00, 0xab, 0xc8, 0xf1, 0x3d, 0x3b, 0xa9, 0xad, 0x3d, 0xf0, 0x28, 0xf5, 0x3d, 0x14, 0x0b, 0xf9, 0x3d, 0x49, 0x10, 0x24, 0x3e, 0xf5, 0xcc, 0xa4, 0x3d, 0x88, 0x95, 0xdf, 0x3d, 0x3d, 0x16, 0xb7, 0x3d, 0x49, 0xd1, 0xe6, 0x3d, 0xf8, 0x09, 0x1a, 0x3e, 0x84, 0xf8, 0xe7, 0x3d, 0x77, 0x1c, 0x03, 0x3e, 0x7e, 0xf5, 0xff, 0xff, 0x04, 0x00, 0x00, 0x00, 0x30, 0x00, 0x00, 0x00, 0xc2, 0x5f, 0xc0, 0xba, 0x31, 0x21, 0x48, 0x3c, 0xcd, 0xc8, 0x29, 0x3c, 0x3f, 0xdd, 0xc1, 0x3c, 0x2e, 0xb5, 0x65, 0x3a, 0x1b, 0x71, 0xf3, 0x3c, 0xd9, 0xd3, 0x40, 0xbc, 0x86, 0xd2, 0x8b, 0xbd, 0x8d, 0xc0, 0xbe, 0xbd, 0xf8, 0x9c, 0x0f, 0x3c, 0xb4, 0x20, 0x18, 0xbd, 0xaa, 0x5a, 0x2c, 0xbc, 0xba, 0xf5, 0xff, 0xff, 0x04, 0x00, 0x00, 0x00, 0x30, 0x00, 0x00, 0x00, 0xaa, 0x6d, 0x8b, 0x3f, 0xbe, 0x0b, 0x88, 0x3f, 0x7b, 0x37, 0x8a, 0x3f, 0x71, 0x10, 0x8a, 0x3f, 0x74, 0xf4, 0x8b, 0x3f, 0xea, 0xb7, 0x8e, 0x3f, 0x03, 0xb9, 0x8b, 0x3f, 0x41, 0x83, 0x88, 0x3f, 0x3d, 0xfc, 0x89, 0x3f, 0xa7, 0xc0, 0x8c, 0x3f, 0x01, 0xa1, 0x8a, 0x3f, 0x5f, 0x28, 0x8c, 0x3f, 0xf6, 0xf5, 0xff, 0xff, 0x04, 0x00, 0x00, 0x00, 0x30, 0x00, 0x00, 0x00, 0xcd, 0xa4, 0x92, 0x3d, 0x30, 0x20, 0x44, 0x3d, 0x06, 0x0d, 0xfb, 0x3c, 0x9c, 0x39, 0x6d, 0x3d, 0xe9, 0xd1, 0x95, 0x3d, 0x1c, 0x12, 0x71, 0x3d, 0x62, 0x05, 0xbf, 0x3d, 0x00, 0x2f, 0x7d, 0x3c, 0x56, 0x59, 0x5f, 0x3d, 0xfc, 0x2d, 0xa8, 0x3d, 0x73, 0x5e, 0x04, 0x3d, 0x0e, 0x25, 0xb3, 0x3d, 0x32, 0xf6, 0xff, 0xff, 0x04, 0x00, 0x00, 0x00, 0x40, 0x02, 0x00, 0x00, 0xab, 0xf1, 0xd2, 0x3e, 0x59, 0x26, 0x36, 0xbe, 0xd2, 0x9d, 0x77, 0x3e, 0x05, 0x4e, 0x8b, 0xbe, 0xc2, 0x7d, 0xde, 0x3e, 0x6a, 0xd3, 0x92, 0x3e, 0x3f, 0x38, 0xd6, 0xbe, 0x25, 0xd8, 0x8f, 0x3e, 0x5a, 0x09, 0x84, 0x3e, 0xb2, 0xb5, 0xcf, 0x3d, 0xd5, 0x99, 0x17, 0x3e, 0x52, 0x83, 0x6c, 0x3d, 0x2d, 0xc6, 0x80, 0x3e, 0xab, 0x62, 0xc9, 0xbe, 0xa7, 0xdc, 0x1e, 0x3d, 0x02, 0xde, 0x04, 0xbf, 0xcf, 0xc1, 0x14, 0x3e, 0x36, 0xeb, 0x4d, 0x3e, 0xf0, 0x7a, 0xcc, 0xbe, 0x39, 0xfc, 0xc2, 0x3e, 0x3d, 0x98, 0x2d, 0xbd, 0x89, 0x9d, 0xc8, 0x3d, 0x83, 0xa6, 0xdf, 0xbc, 0xf8, 0x63, 0xad, 0xbe, 0xc0, 0x98, 0x0e, 0x3e, 0x65, 0x51, 0x93, 0xbe, 0xbe, 0x7a, 0xac, 0x3e, 0x85, 0x49, 0x24, 0xbd, 0x81, 0x87, 0xf0, 0x3e, 0x0b, 0x6c, 0x15, 0xbd, 0x02, 0x74, 0xee, 0xbe, 0x21, 0x73, 0x96, 0xbd, 0x23, 0x73, 0x75, 0x3d, 0xca, 0xa8, 0x83, 0x3e, 0x16, 0xba, 0x61, 0xbd, 0xc8, 0x5f, 0xbf, 0xbe, 0x29, 0x33, 0x0a, 0x3e, 0xff, 0x07, 0x82, 0xbe, 0xb5, 0x52, 0xad, 0x3d, 0x1e, 0x25, 0x1f, 0xbe, 0xb0, 0x8c, 0xf6, 0x3e, 0xe3, 0x3b, 0xb5, 0x3e, 0x10, 0xc0, 0x11, 0xbe, 0x06, 0x47, 0x29, 0x3e, 0x8a, 0xa5, 0xf9, 0x3e, 0xaf, 0x10, 0x45, 0x3e, 0xa4, 0x61, 0x35, 0xbe, 0x58, 0xff, 0x9d, 0xbe, 0x6a, 0xf2, 0x89, 0x3e, 0x8d, 0x10, 0x61, 0xbe, 0x72, 0xb1, 0xbc, 0x3d, 0x81, 0x7e, 0x61, 0xbe, 0xec, 0xb4, 0x8b, 0x3d, 0x1a, 0x69, 0xe3, 0x3e, 0x5d, 0x7d, 0xda, 0xbe, 0x48, 0xb6, 0x0b, 0x3e, 0xce, 0x79, 0x6b, 0x3e, 0x44, 0xbe, 0x74, 0x3e, 0xbd, 0xda, 0x81, 0x3d, 0xc8, 0x20, 0xda, 0xbe, 0xca, 0xf5, 0x1d, 0x3e, 0x4e, 0x06, 0xae, 0xbe, 0x9f, 0x15, 0xa4, 0x3e, 0x6c, 0x35, 0x23, 0xbe, 0x10, 0x0b, 0x43, 0x3e, 0x2f, 0x3d, 0xa2, 0x3d, 0x3a, 0xed, 0x66, 0xbe, 0x89, 0x79, 0xff, 0x3d, 0xd0, 0x56, 0x78, 0x3e, 0x1a, 0x7b, 0x6c, 0x3d, 0xdb, 0xac, 0x91, 0xba, 0xf7, 0x7f, 0xa3, 0xbe, 0x53, 0x21, 0x7c, 0x3e, 0x73, 0x0b, 0xa1, 0xbe, 0x63, 0xc9, 0xcc, 0x3e, 0x67, 0xaf, 0xf8, 0xbc, 0x19, 0x6d, 0x92, 0x3e, 0xb7, 0x80, 0x06, 0x3f, 0x56, 0x34, 0x35, 0xbe, 0x2d, 0x1d, 0xa7, 0x3e, 0xe6, 0x42, 0x93, 0x3e, 0x53, 0x6a, 0xb2, 0x3e, 0x2f, 0x51, 0xf2, 0xbd, 0xcf, 0xe6, 0xdf, 0xbd, 0x40, 0x5e, 0x12, 0x3e, 0xd3, 0xf9, 0xa4, 0xbe, 0x72, 0xa9, 0xaa, 0x3d, 0x9b, 0xb6, 0x2e, 0xbe, 0x36, 0x35, 0x83, 0x3e, 0xc9, 0xe5, 0x87, 0x3e, 0xed, 0xea, 0x76, 0xbe, 0x77, 0xa9, 0x40, 0x3e, 0x23, 0x72, 0x88, 0x3e, 0xe8, 0x6a, 0x06, 0x3e, 0x80, 0x5d, 0xeb, 0xbc, 0x13, 0x8a, 0xf2, 0xbd, 0x80, 0xc1, 0x4a, 0x3e, 0x6e, 0x91, 0x0d, 0xbd, 0x11, 0xa3, 0xbe, 0x3d, 0x07, 0x61, 0x26, 0xbe, 0xff, 0x9e, 0x50, 0x3e, 0xc3, 0x47, 0x31, 0x3e, 0x30, 0xec, 0x28, 0xbe, 0xe5, 0xa0, 0x2d, 0x3e, 0x1c, 0xe5, 0x1e, 0x3e, 0xb8, 0x0c, 0xdb, 0x3e, 0xba, 0x1c, 0x45, 0xbe, 0x82, 0x97, 0xee, 0xbd, 0x8c, 0x9c, 0x07, 0x3f, 0x9b, 0xd9, 0x86, 0xbe, 0xe0, 0x43, 0xc8, 0x3a, 0x2d, 0x5a, 0xae, 0x3d, 0x7d, 0xc6, 0x41, 0x3d, 0x60, 0x05, 0x64, 0x3e, 0x3e, 0xbb, 0x6f, 0xbe, 0x2c, 0x25, 0x1c, 0xbc, 0x39, 0xaf, 0x4d, 0x3e, 0x94, 0x05, 0x55, 0x3e, 0xaf, 0xf4, 0x2f, 0xbd, 0x27, 0x3e, 0x8b, 0xbe, 0x61, 0x01, 0xf9, 0xbc, 0xe1, 0x02, 0x42, 0xbe, 0x6a, 0xb6, 0xd7, 0xbd, 0x1d, 0x5f, 0x93, 0xbe, 0x2c, 0x60, 0x95, 0x3e, 0xee, 0x30, 0x27, 0x3e, 0xc9, 0xac, 0xe8, 0x3c, 0x78, 0x18, 0x9d, 0x3e, 0x06, 0xb2, 0x92, 0x3e, 0xff, 0x1e, 0x44, 0x3e, 0x22, 0xd3, 0x03, 0x3e, 0xf2, 0xae, 0x8f, 0x3d, 0x2a, 0x58, 0x8c, 0x3e, 0x53, 0x1d, 0x07, 0xbf, 0xd7, 0xec, 0xd3, 0x3d, 0xfd, 0x61, 0x8d, 0xbe, 0x16, 0xe1, 0xb3, 0x3e, 0xde, 0xae, 0xae, 0x3d, 0xe4, 0xb0, 0x84, 0xbe, 0x47, 0xed, 0x21, 0x3e, 0xdb, 0xe8, 0x44, 0x3e, 0x6b, 0x6e, 0xb4, 0x3e, 0xc5, 0x5e, 0xa8, 0x3d, 0x63, 0x74, 0x9c, 0xbd, 0x7e, 0xf8, 0xff, 0xff, 0x04, 0x00, 0x00, 0x00, 0x40, 0x02, 0x00, 0x00, 0xf7, 0xb6, 0x1f, 0xbe, 0xf6, 0xed, 0x4a, 0xbe, 0x6e, 0x79, 0x08, 0xbe, 0x73, 0x36, 0xb7, 0x3d, 0x26, 0x8b, 0x4f, 0x3d, 0xdc, 0xac, 0x4c, 0xbe, 0x7d, 0x51, 0x0f, 0xbe, 0x9e, 0xdb, 0x18, 0x3e, 0x35, 0x94, 0xa7, 0x3e, 0x67, 0xb2, 0x9f, 0x3e, 0xdb, 0x8c, 0xb3, 0xbb, 0x52, 0xb6, 0x86, 0x3e, 0x0b, 0xc1, 0x97, 0xbd, 0x77, 0xf4, 0x37, 0xbe, 0x62, 0xb6, 0x63, 0x3d, 0x84, 0x6a, 0x0a, 0x3e, 0x82, 0x62, 0x8f, 0xbe, 0x59, 0xf6, 0x26, 0xbe, 0x29, 0xa9, 0xb5, 0xbd, 0xfe, 0x96, 0x00, 0x3e, 0x07, 0x83, 0x00, 0xbe, 0xad, 0x4c, 0x69, 0x3d, 0x5b, 0x23, 0xb6, 0xbd, 0x30, 0x3c, 0x09, 0xbe, 0xb2, 0x3d, 0xc5, 0x3d, 0xea, 0x88, 0x08, 0x3e, 0xc2, 0x8d, 0x6c, 0xbd, 0x1b, 0x3d, 0x64, 0xbe, 0x35, 0xec, 0x38, 0x3d, 0x4f, 0x60, 0x67, 0x3e, 0x4a, 0x69, 0xf5, 0xbe, 0x56, 0xa0, 0xe0, 0x3d, 0xa3, 0xe4, 0x12, 0xbd, 0x48, 0xb2, 0x5c, 0x3e, 0x95, 0xac, 0x78, 0x3e, 0x63, 0xcb, 0x58, 0x3e, 0x4e, 0xcd, 0x2a, 0x3e, 0xe2, 0x9b, 0x3d, 0xbe, 0x4c, 0xee, 0xeb, 0xbd, 0x6c, 0x91, 0x98, 0x3d, 0x9a, 0x96, 0xd4, 0xbd, 0x8b, 0x1f, 0x6e, 0xbe, 0xc6, 0x79, 0x96, 0x3d, 0xe3, 0x83, 0x1d, 0xbd, 0x61, 0x32, 0x17, 0xbe, 0x88, 0x82, 0x31, 0xbe, 0xe4, 0xe2, 0x68, 0xbe, 0xf0, 0xeb, 0x0c, 0x3e, 0xbe, 0x55, 0x79, 0xbd, 0x43, 0x16, 0xd8, 0xbd, 0x81, 0x94, 0xe9, 0xbd, 0xba, 0x17, 0x2d, 0x3d, 0x2b, 0xaf, 0xda, 0xbd, 0x2f, 0x68, 0x7d, 0xbd, 0xd1, 0x0e, 0x8e, 0xbe, 0x9d, 0xe2, 0x66, 0x3e, 0xf5, 0x36, 0x24, 0x3e, 0xfa, 0x69, 0x59, 0x3d, 0xcb, 0xa9, 0x41, 0x3e, 0x9a, 0xd7, 0x35, 0xbb, 0xfc, 0x53, 0xdb, 0x3d, 0x71, 0x7f, 0x6b, 0x3c, 0x64, 0x33, 0x47, 0xbe, 0x67, 0xe1, 0xde, 0xbd, 0x94, 0x3a, 0x66, 0x3e, 0x11, 0xd0, 0xc6, 0x3b, 0x82, 0x57, 0x67, 0xbc, 0xf2, 0xdd, 0x68, 0xbd, 0xee, 0x50, 0x05, 0xbe, 0x98, 0x2a, 0xce, 0x3a, 0xf8, 0xb6, 0x32, 0xbe, 0x83, 0xd7, 0x1f, 0x3c, 0xf6, 0x8e, 0x62, 0xbe, 0x58, 0xcb, 0x20, 0xbe, 0xda, 0xeb, 0x71, 0xbe, 0x2b, 0x2c, 0x16, 0x3e, 0x2e, 0xb1, 0x08, 0xbe, 0x02, 0x90, 0x4c, 0xbd, 0x20, 0x01, 0x40, 0x3c, 0xd2, 0xa4, 0x27, 0xbe, 0x67, 0xbe, 0x97, 0xbd, 0x43, 0x10, 0xa3, 0xbc, 0x22, 0xe9, 0x26, 0xbd, 0xb7, 0xe7, 0x86, 0xbd, 0x4f, 0x51, 0x96, 0xbe, 0x43, 0xc3, 0x24, 0xbe, 0xf1, 0xc2, 0x34, 0x3e, 0x73, 0xfb, 0x90, 0xbd, 0xf5, 0x13, 0x9a, 0x3e, 0xbb, 0x79, 0x1f, 0x3e, 0x32, 0x0a, 0x1e, 0x3c, 0xbb, 0x48, 0x02, 0xbe, 0x47, 0x9d, 0x01, 0x3d, 0xbb, 0x29, 0x30, 0xbd, 0x0a, 0x80, 0x44, 0xbe, 0xc4, 0x08, 0x8e, 0xbe, 0x88, 0xbb, 0x07, 0xbe, 0x0a, 0x14, 0x31, 0x3b, 0x49, 0x3e, 0xa8, 0xbd, 0x6c, 0x92, 0x00, 0xbe, 0x71, 0xaf, 0x10, 0xbe, 0xa8, 0x52, 0x2c, 0x3e, 0xd8, 0xb3, 0xc8, 0x3b, 0x38, 0x9f, 0xb7, 0x3e, 0x31, 0x03, 0xfc, 0x3d, 0xec, 0x8b, 0xaf, 0xbd, 0x04, 0xa1, 0x0c, 0xbe, 0xd7, 0x04, 0x92, 0xbd, 0x1e, 0xf7, 0x4b, 0x3c, 0x07, 0x1d, 0xa8, 0xbd, 0x99, 0x30, 0x96, 0x3e, 0x43, 0x3b, 0xc5, 0x3d, 0x7d, 0x5c, 0xe9, 0x3c, 0x4c, 0x4a, 0x73, 0x3d, 0x59, 0x76, 0x10, 0x3e, 0xe5, 0x9c, 0x5c, 0x3e, 0x24, 0x33, 0x8b, 0x3d, 0xf7, 0xd8, 0x7c, 0x3e, 0x7f, 0x6a, 0x05, 0x3f, 0xe0, 0x83, 0xc6, 0xbd, 0x5e, 0x19, 0x46, 0x3d, 0x35, 0x5a, 0x8e, 0x3d, 0xa9, 0xed, 0x05, 0xbe, 0x66, 0x6b, 0xe9, 0x3d, 0x11, 0x1d, 0x5d, 0xbe, 0xbb, 0x54, 0x38, 0xbe, 0x23, 0x3c, 0x90, 0x3e, 0xd2, 0xaa, 0x6f, 0xbe, 0x69, 0x33, 0x79, 0xbe, 0x26, 0x4d, 0x15, 0xbd, 0x4d, 0xa0, 0xea, 0xbd, 0x2b, 0xb6, 0x88, 0x3e, 0xd3, 0xa3, 0x88, 0xbc, 0xd6, 0x14, 0x97, 0x3c, 0x1f, 0x59, 0x28, 0x3e, 0x63, 0x34, 0x01, 0x3e, 0x57, 0xda, 0xa4, 0xbe, 0xda, 0x9b, 0x29, 0xbe, 0xf0, 0xc2, 0x9a, 0x3d, 0x86, 0x4e, 0xde, 0xbd, 0xae, 0xd7, 0x73, 0xbe, 0xe2, 0x11, 0xb4, 0xbe, 0xda, 0xa5, 0xd5, 0xbd, 0x28, 0x05, 0x82, 0x3e, 0xca, 0xfa, 0xff, 0xff, 0x04, 0x00, 0x00, 0x00, 0x40, 0x02, 0x00, 0x00, 0x9b, 0xb8, 0xde, 0x3d, 0x1c, 0xae, 0xf6, 0xbd, 0x13, 0x6e, 0x60, 0xbe, 0x04, 0xdb, 0x89, 0xbe, 0x12, 0x21, 0x66, 0x3e, 0x78, 0xc6, 0x45, 0x3e, 0x0d, 0x02, 0x7c, 0xbb, 0x33, 0xd2, 0x5b, 0x3e, 0x3c, 0x35, 0xa8, 0xbd, 0x40, 0x14, 0x10, 0x3e, 0x8d, 0x46, 0xc5, 0xbd, 0x41, 0xb6, 0x4f, 0xbe, 0xce, 0x48, 0xcb, 0x3d, 0xcf, 0x86, 0xd6, 0xbd, 0x99, 0x92, 0x10, 0x3e, 0x20, 0x67, 0x37, 0xbe, 0xdb, 0x7d, 0x60, 0x3e, 0x1a, 0xf7, 0x08, 0x3e, 0xc9, 0xf7, 0x86, 0x3d, 0x78, 0x93, 0x0f, 0x3e, 0x3d, 0x7a, 0x46, 0x3e, 0x84, 0x28, 0xe5, 0x3d, 0xc1, 0xe1, 0x2d, 0x3e, 0x5f, 0x56, 0x8a, 0xbe, 0xe0, 0xe4, 0x21, 0x3c, 0x21, 0x45, 0xb1, 0xbd, 0x8e, 0x39, 0x95, 0x3d, 0x6d, 0x67, 0x76, 0x3e, 0x24, 0x43, 0xa1, 0x3d, 0xb7, 0xaa, 0x27, 0x3e, 0xaa, 0x25, 0x31, 0xbd, 0xed, 0xfa, 0x82, 0x3e, 0x44, 0xc3, 0x85, 0x3d, 0xeb, 0xae, 0x93, 0x3e, 0x00, 0x3a, 0xa5, 0x3b, 0x68, 0x1b, 0x90, 0xbe, 0xe5, 0xd3, 0xe2, 0x3d, 0x8e, 0x88, 0x99, 0xbe, 0xd5, 0x33, 0xe4, 0x3c, 0x5f, 0xe4, 0xdb, 0xbd, 0x9f, 0xfe, 0xc0, 0x3e, 0x66, 0xa6, 0x82, 0x3e, 0x15, 0x97, 0x6d, 0xbe, 0x54, 0x76, 0x8d, 0x3e, 0x7c, 0xf7, 0xda, 0x3e, 0x39, 0x0a, 0x20, 0xbe, 0x97, 0x9d, 0xc9, 0x3d, 0x89, 0x73, 0x23, 0xbe, 0x5f, 0xbe, 0x8e, 0xbd, 0xad, 0x31, 0xe9, 0xbc, 0x64, 0x52, 0x67, 0x3e, 0x7b, 0x62, 0x43, 0xbe, 0x24, 0x55, 0x88, 0x3e, 0xec, 0x6f, 0x1d, 0x3e, 0x23, 0xae, 0x1f, 0xbe, 0x6a, 0x07, 0xfe, 0x3d, 0xa7, 0x35, 0x5e, 0x3d, 0x20, 0x17, 0xde, 0x3e, 0x0e, 0x43, 0x40, 0x3d, 0x27, 0x92, 0x79, 0xbe, 0xae, 0x9e, 0x11, 0x3e, 0xf0, 0x08, 0x17, 0x3d, 0x71, 0x16, 0x48, 0x3e, 0xf4, 0xeb, 0x89, 0xbd, 0xbd, 0x80, 0xc8, 0x3d, 0x16, 0x5c, 0x0b, 0x3e, 0xed, 0x7f, 0x40, 0xbe, 0x67, 0x45, 0xc5, 0x3e, 0x16, 0xb0, 0x4f, 0x3e, 0xd1, 0x80, 0x7a, 0x3e, 0x88, 0x05, 0x4a, 0xbe, 0x1b, 0x57, 0x52, 0xbe, 0xb4, 0x5f, 0x69, 0x3e, 0x95, 0xb4, 0x55, 0xbe, 0xfd, 0x0c, 0x10, 0xbd, 0x31, 0xfb, 0xdd, 0xbd, 0x8e, 0xc6, 0x52, 0x3e, 0x04, 0xca, 0xc1, 0x3c, 0xf8, 0x73, 0xf4, 0xbc, 0xb2, 0x5c, 0x09, 0x3e, 0xc8, 0xe5, 0x89, 0x3e, 0xea, 0xfb, 0xa6, 0x3e, 0xa7, 0x4d, 0x3a, 0xbd, 0x06, 0x8b, 0xe6, 0xbd, 0xe0, 0xb0, 0x2f, 0x3e, 0x69, 0x65, 0x33, 0x3d, 0xa8, 0x3c, 0x90, 0x3d, 0x93, 0x73, 0x1f, 0xbe, 0x5f, 0xac, 0x3a, 0x3e, 0xeb, 0xa7, 0x38, 0x3e, 0xe6, 0x9f, 0xbc, 0xbc, 0x6d, 0x9d, 0x9e, 0x3e, 0xc7, 0x0e, 0x7b, 0x3e, 0xdf, 0x9e, 0x43, 0x3d, 0xf7, 0xba, 0x6c, 0x3c, 0x1f, 0x72, 0x52, 0xbe, 0xd2, 0x83, 0x3a, 0x3e, 0x58, 0x69, 0x2b, 0xbe, 0x89, 0x0d, 0xa2, 0x3d, 0xc9, 0x8b, 0xca, 0xbc, 0x4c, 0xe4, 0xba, 0x3e, 0x87, 0x78, 0xa2, 0x3d, 0x87, 0x03, 0xc0, 0xbd, 0x98, 0x69, 0xfd, 0x3e, 0xaf, 0xaf, 0x58, 0x3d, 0x6a, 0x11, 0x42, 0xbc, 0xb8, 0x9d, 0x06, 0xbe, 0x3c, 0x57, 0x1c, 0xbe, 0x43, 0x99, 0x17, 0x3d, 0x62, 0xef, 0x30, 0xbe, 0x0e, 0x14, 0xa1, 0x3d, 0x69, 0xc3, 0x3e, 0xbe, 0x42, 0x9f, 0xd8, 0x3e, 0xcf, 0x1e, 0x31, 0x3e, 0xc6, 0x27, 0x49, 0xbe, 0x70, 0x11, 0x94, 0x3e, 0x4e, 0x37, 0xae, 0x3d, 0x0a, 0x24, 0x05, 0x3e, 0xf4, 0xbf, 0xc1, 0xbc, 0x46, 0x05, 0x2e, 0xbe, 0x2c, 0xde, 0x66, 0x3e, 0x66, 0xd7, 0x82, 0xbd, 0x93, 0xba, 0xe3, 0x3c, 0x28, 0x81, 0xfe, 0xbe, 0x6a, 0x4e, 0x08, 0x3d, 0xaf, 0xcf, 0x78, 0xbe, 0xd9, 0x89, 0xe0, 0x3d, 0xbc, 0xce, 0x9c, 0x3e, 0xe4, 0x5e, 0x82, 0x3e, 0xeb, 0xeb, 0xb8, 0x3e, 0xc4, 0x98, 0x3f, 0xbe, 0xbe, 0x31, 0xb1, 0xbe, 0xa9, 0x25, 0x79, 0x3e, 0x4e, 0x38, 0x89, 0xbe, 0x4e, 0x8c, 0x02, 0x3d, 0x98, 0xcc, 0x31, 0xbe, 0xc6, 0xad, 0xc0, 0x3d, 0xfd, 0xa0, 0x22, 0x3e, 0xc4, 0x78, 0x8e, 0xbe, 0xa0, 0x97, 0x66, 0x3e, 0x7d, 0x21, 0xce, 0x3e, 0xd8, 0xff, 0x83, 0x3e, 0x00, 0xfa, 0xa9, 0xbd, 0x83, 0x5c, 0xcb, 0xbe, 0x16, 0xfd, 0xff, 0xff, 0x04, 0x00, 0x00, 0x00, 0x40, 0x02, 0x00, 0x00, 0x0e, 0x57, 0x59, 0xbe, 0x34, 0xc7, 0x9d, 0xbe, 0x79, 0x1d, 0x13, 0xba, 0x3e, 0x0e, 0x81, 0xbe, 0xb5, 0x3f, 0x18, 0xbd, 0xe4, 0x79, 0x52, 0x3c, 0x81, 0x59, 0x4d, 0xbe, 0xdb, 0xc9, 0xd2, 0x3d, 0x5c, 0xb1, 0x71, 0x3e, 0x84, 0x34, 0x04, 0x3e, 0xef, 0xa9, 0x6a, 0x3d, 0x17, 0x40, 0xaf, 0xbd, 0xda, 0x8d, 0x96, 0x3d, 0xd1, 0x3f, 0x4d, 0xbe, 0xc0, 0x1e, 0x83, 0x3e, 0x26, 0x30, 0xe6, 0xbc, 0x0e, 0xb8, 0x86, 0x3e, 0x9d, 0x00, 0xdd, 0xbc, 0x41, 0x4a, 0x5c, 0xbe, 0xc6, 0x61, 0xdb, 0x3e, 0xab, 0x45, 0x2a, 0xbe, 0x9a, 0x65, 0x57, 0x3e, 0xaa, 0xbf, 0x97, 0xbe, 0xa1, 0xa2, 0x0a, 0x3d, 0xf2, 0x3b, 0x7a, 0xbe, 0x43, 0xf8, 0x14, 0x3e, 0xbd, 0x22, 0x6e, 0x3e, 0xaf, 0xb5, 0x64, 0xbe, 0x34, 0x9c, 0xb9, 0xbc, 0x64, 0x74, 0xd9, 0xbd, 0xed, 0x87, 0xa8, 0xbe, 0x0f, 0x15, 0x09, 0x3e, 0xd0, 0x85, 0xbc, 0x3d, 0x22, 0x7f, 0xda, 0xbd, 0xfe, 0x6b, 0xba, 0x3c, 0x43, 0x11, 0x31, 0xbe, 0xd9, 0xd4, 0xd2, 0x3d, 0x82, 0x7f, 0x45, 0xbc, 0x96, 0x52, 0x62, 0xbd, 0x72, 0x64, 0xb9, 0xbd, 0x9c, 0x36, 0x68, 0x3e, 0xea, 0x96, 0x26, 0x3e, 0xad, 0xf2, 0x93, 0xbe, 0xf9, 0xc0, 0x56, 0x3d, 0x15, 0x61, 0x67, 0x3d, 0xbf, 0xfd, 0x28, 0x3e, 0xa7, 0xaa, 0x3e, 0x3e, 0x86, 0x05, 0x66, 0xbe, 0x22, 0xb4, 0xba, 0x3c, 0xdb, 0x2f, 0x7f, 0xbe, 0xdf, 0x92, 0x1d, 0x3e, 0x87, 0x8d, 0xd1, 0x3c, 0x9b, 0x6f, 0xc7, 0x3d, 0xad, 0x8f, 0x0b, 0x3e, 0xcf, 0x8b, 0xeb, 0xbd, 0xbc, 0x04, 0xf4, 0x3d, 0x01, 0x4f, 0x89, 0x3e, 0x78, 0xf6, 0x26, 0x3e, 0xe8, 0x59, 0x09, 0x3e, 0xb4, 0xd6, 0xf6, 0x3d, 0x5f, 0x11, 0x3b, 0x3e, 0x7d, 0x05, 0x7f, 0xbd, 0x7d, 0xef, 0x1c, 0x3c, 0xb5, 0x9d, 0xef, 0x3d, 0x50, 0x59, 0xb8, 0x3d, 0x13, 0x9f, 0x0d, 0x3d, 0x14, 0x39, 0x41, 0xbe, 0x2a, 0x9f, 0x58, 0x3e, 0xfd, 0x32, 0x7b, 0x3e, 0x02, 0x98, 0x20, 0xbe, 0x44, 0xe9, 0x46, 0xbe, 0x2e, 0x1a, 0x3f, 0xbe, 0x36, 0x89, 0x25, 0x3e, 0x31, 0xf7, 0xda, 0xbd, 0x01, 0x26, 0x80, 0xbc, 0xcd, 0x0d, 0x8f, 0x3d, 0xc1, 0x33, 0x2c, 0x3e, 0x2b, 0x92, 0xc0, 0x3e, 0xa1, 0x58, 0xb2, 0xbe, 0x84, 0xfe, 0xe6, 0x3e, 0x2e, 0xd0, 0x50, 0x3d, 0xe9, 0xe1, 0xbe, 0x3e, 0xe6, 0x0a, 0x51, 0x3e, 0x8f, 0x46, 0xb4, 0xbe, 0x46, 0x87, 0xaa, 0x3e, 0x91, 0x15, 0xaa, 0x3d, 0x0b, 0xe4, 0x81, 0x3d, 0xd8, 0x30, 0x9d, 0x3c, 0x7e, 0x1d, 0x5e, 0x3e, 0x0d, 0xe9, 0x4f, 0xbe, 0x79, 0x8b, 0x68, 0xbe, 0x07, 0x66, 0x69, 0x3e, 0x47, 0xec, 0xd7, 0x3e, 0x4b, 0xd9, 0x38, 0x3d, 0x0a, 0xf5, 0x9a, 0xbd, 0x0c, 0xd8, 0x85, 0xbe, 0xbd, 0xc0, 0xaf, 0x3d, 0x7c, 0xde, 0xff, 0xbe, 0x91, 0x26, 0xbd, 0x3d, 0x0b, 0xa4, 0x0e, 0xbe, 0xfd, 0xe6, 0x4b, 0xbd, 0x40, 0x4a, 0xb8, 0x3e, 0x06, 0xbd, 0x55, 0x3d, 0xb3, 0xef, 0x90, 0x3e, 0x42, 0x31, 0x2f, 0x3d, 0xb6, 0x39, 0x7c, 0x3d, 0xdd, 0x3f, 0x40, 0xbe, 0x25, 0xd3, 0x34, 0xbe, 0xb2, 0x83, 0x3b, 0x3e, 0x8f, 0xd9, 0x13, 0xbe, 0x08, 0x58, 0x22, 0x3e, 0x81, 0xd8, 0xa6, 0xbc, 0x64, 0x48, 0xb7, 0x3e, 0xe6, 0xdc, 0xf2, 0x3c, 0x57, 0x0d, 0x0f, 0x3d, 0x53, 0xc0, 0xe9, 0x3e, 0x71, 0x6d, 0xb3, 0xbc, 0x9e, 0x84, 0x88, 0x3c, 0xf5, 0x4a, 0x42, 0x3e, 0x66, 0xd7, 0x59, 0xbe, 0xc8, 0x0d, 0x9a, 0xbd, 0x3a, 0xf4, 0x4d, 0xbe, 0xe1, 0xf9, 0x03, 0x3e, 0x75, 0xfa, 0x35, 0xbd, 0xa6, 0x03, 0x79, 0x3e, 0xc6, 0x9f, 0x45, 0xbe, 0xf7, 0x25, 0xf4, 0xbd, 0x6b, 0xc7, 0x9d, 0x3e, 0x2d, 0x19, 0x99, 0x3d, 0x6d, 0x71, 0x52, 0x3d, 0x40, 0xcf, 0xe5, 0xbd, 0x62, 0xdc, 0xcf, 0xbd, 0x63, 0x45, 0xd1, 0xbd, 0xec, 0x77, 0x3f, 0x3d, 0x46, 0xa0, 0x22, 0xbd, 0x2b, 0x80, 0x2f, 0xbc, 0xff, 0xce, 0x0c, 0x3d, 0xa2, 0x83, 0xe4, 0x3d, 0x35, 0x6b, 0x4d, 0xbd, 0x5d, 0x10, 0x94, 0x3e, 0xd3, 0xc0, 0x08, 0x3e, 0x86, 0x48, 0xb0, 0x3c, 0x4b, 0x21, 0xf1, 0xbc, 0x8c, 0xaa, 0x4c, 0xbd, 0x62, 0xff, 0xff, 0xff, 0x04, 0x00, 0x00, 0x00, 0x80, 0x00, 0x00, 0x00, 0x01, 0x5d, 0x50, 0x3e, 0x00, 0x00, 0x00, 0x00, 0xb1, 0xed, 0x59, 0x3d, 0x6a, 0x6f, 0x9b, 0x3e, 0x00, 0x00, 0x00, 0x00, 0xf1, 0xb4, 0xd4, 0xbc, 0xe7, 0x2e, 0x96, 0xbc, 0x6b, 0xa0, 0xca, 0xbc, 0xb8, 0xd7, 0x89, 0x3d, 0x00, 0x00, 0x00, 0x00, 0x00, 0x00, 0x00, 0x00, 0x1e, 0x9c, 0xa8, 0xbc, 0x69, 0xca, 0x5f, 0xbd, 0xec, 0x93, 0x69, 0xbd, 0x0e, 0x86, 0x92, 0x3e, 0x88, 0x27, 0x8e, 0x3e, 0x34, 0xed, 0x99, 0x3e, 0xfa, 0x7e, 0x0a, 0xbd, 0xd2, 0xf8, 0x9a, 0x3e, 0x68, 0xe3, 0x9a, 0x3e, 0x7a, 0x21, 0x12, 0xbd, 0xcf, 0xf3, 0x69, 0xbd, 0x5e, 0xc4, 0x8c, 0xbc, 0x58, 0xfa, 0x03, 0xbe, 0x03, 0x98, 0x2b, 0x3e, 0xd6, 0xb4, 0x00, 0xbd, 0x97, 0xbc, 0x6e, 0x3e, 0x79, 0xcd, 0x8e, 0x3e, 0x0a, 0xdd, 0x8e, 0xbd, 0xc9, 0xb0, 0x9b, 0x3e, 0x70, 0x1c, 0xc1, 0xbb, 0x00, 0x00, 0x00, 0x00, 0xee, 0xff, 0xff, 0xff, 0x04, 0x00, 0x00, 0x00, 0x04, 0x00, 0x00, 0x00, 0x26, 0xb2, 0x9d, 0x3e, 0x00, 0x00, 0x06, 0x00, 0x08, 0x00, 0x04, 0x00, 0x06, 0x00, 0x00, 0x00, 0x04, 0x00, 0x00, 0x00, 0x30, 0x00, 0x00, 0x00, 0x00, 0x00, 0x00, 0x00, 0x00, 0x00, 0x00, 0x00, 0x00, 0x00, 0x00, 0x00, 0x00, 0x00, 0x00, 0x00, 0x00, 0x00, 0x00, 0x00, 0x00, 0x00, 0x00, 0x00, 0x00, 0x00, 0x00, 0x00, 0x00, 0x00, 0x00, 0x00, 0x00, 0x00, 0x00, 0x00, 0x00, 0x00, 0x00, 0x00, 0x00, 0x00, 0x00, 0x00, 0x00, 0x00, 0x00, 0x00, 0x0c, 0xf2, 0xff, 0xff, 0x10, 0xf2, 0xff, 0xff, 0x0f, 0x00, 0x00, 0x00, 0x4d, 0x4c, 0x49, 0x52, 0x20, 0x43, 0x6f, 0x6e, 0x76, 0x65, 0x72, 0x74, 0x65, 0x64, 0x2e, 0x00, 0x01, 0x00, 0x00, 0x00, 0x14, 0x00, 0x00, 0x00, 0x00, 0x00, 0x0e, 0x00, 0x18, 0x00, 0x14, 0x00, 0x10, 0x00, 0x0c, 0x00, 0x08, 0x00, 0x04, 0x00, 0x0e, 0x00, 0x00, 0x00, 0x14, 0x00, 0x00, 0x00, 0x1c, 0x00, 0x00, 0x00, 0x50, 0x02, 0x00, 0x00, 0x54, 0x02, 0x00, 0x00, 0x58, 0x02, 0x00, 0x00, 0x04, 0x00, 0x00, 0x00, 0x6d, 0x61, 0x69, 0x6e, 0x00, 0x00, 0x00, 0x00, 0x05, 0x00, 0x00, 0x00, 0x98, 0x01, 0x00, 0x00, 0xe8, 0x00, 0x00, 0x00, 0x90, 0x00, 0x00, 0x00, 0x3c, 0x00, 0x00, 0x00, 0x04, 0x00, 0x00, 0x00, 0x8a, 0xff, 0xff, 0xff, 0x14, 0x00, 0x00, 0x00, 0x00, 0x00, 0x00, 0x08, 0x10, 0x00, 0x00, 0x00, 0x14, 0x00, 0x00, 0x00, 0x02, 0x00, 0x00, 0x00, 0x94, 0xf2, 0xff, 0xff, 0x01, 0x00, 0x00, 0x00, 0x28, 0x00, 0x00, 0x00, 0x03, 0x00, 0x00, 0x00, 0x27, 0x00, 0x00, 0x00, 0x1d, 0x00, 0x00, 0x00, 0x02, 0x00, 0x00, 0x00, 0xbe, 0xff, 0xff, 0xff, 0x1c, 0x00, 0x00, 0x00, 0x00, 0x00, 0x00, 0x08, 0x1c, 0x00, 0x00, 0x00, 0x20, 0x00, 0x00, 0x00, 0x02, 0x00, 0x00, 0x00, 0x00, 0x00, 0x06, 0x00, 0x08, 0x00, 0x07, 0x00, 0x06, 0x00, 0x00, 0x00, 0x00, 0x00, 0x00, 0x01, 0x01, 0x00, 0x00, 0x00, 0x27, 0x00, 0x00, 0x00, 0x03, 0x00, 0x00, 0x00, 0x26, 0x00, 0x00, 0x00, 0x1c, 0x00, 0x00, 0x00, 0x03, 0x00, 0x00, 0x00, 0x00, 0x00, 0x0e, 0x00, 0x1a, 0x00, 0x14, 0x00, 0x10, 0x00, 0x0c, 0x00, 0x0b, 0x00, 0x04, 0x00, 0x0e, 0x00, 0x00, 0x00, 0x24, 0x00, 0x00, 0x00, 0x00, 0x00, 0x00, 0x20, 0x2c, 0x00, 0x00, 0x00, 0x30, 0x00, 0x00, 0x00, 0x01, 0x00, 0x00, 0x00, 0x00, 0x00, 0x0e, 0x00, 0x10, 0x00, 0x0c, 0x00, 0x08, 0x00, 0x00, 0x00, 0x00, 0x00, 0x04, 0x00, 0x0e, 0x00, 0x00, 0x00, 0x02, 0x00, 0x00, 0x00, 0x05, 0x00, 0x00, 0x00, 0x05, 0x00, 0x00, 0x00, 0x01, 0x00, 0x00, 0x00, 0x26, 0x00, 0x00, 0x00, 0x04, 0x00, 0x00, 0x00, 0x25, 0x00, 0x00, 0x00, 0x1e, 0x00, 0x00, 0x00, 0x1f, 0x00, 0x00, 0x00, 0x20, 0x00, 0x00, 0x00, 0x6a, 0xff, 0xff, 0xff, 0x14, 0x00, 0x00, 0x00, 0x14, 0x00, 0x00, 0x00, 0x00, 0x00, 0x00, 0x47, 0x18, 0x00, 0x00, 0x00, 0x1c, 0x00, 0x00, 0x00, 0x00, 0x00, 0x00, 0x00, 0x54, 0xff, 0xff, 0xff, 0x00, 0x00, 0x20, 0x41, 0x00, 0x00, 0x00, 0x04, 0x01, 0x00, 0x00, 0x00, 0x25, 0x00, 0x00, 0x00, 0x18, 0x00, 0x00, 0x00, 0x22, 0x00, 0x00, 0x00, 0x0c, 0x00, 0x00, 0x00, 0x0d, 0x00, 0x00, 0x00, 0x0e, 0x00, 0x00, 0x00, 0x0f, 0x00, 0x00, 0x00, 0x04, 0x00, 0x00, 0x00, 0x05, 0x00, 0x00, 0x00, 0x06, 0x00, 0x00, 0x00, 0x07, 0x00, 0x00, 0x00, 0xff, 0xff, 0xff, 0xff, 0xff, 0xff, 0xff, 0xff, 0xff, 0xff, 0xff, 0xff, 0x08, 0x00, 0x00, 0x00, 0x09, 0x00, 0x00, 0x00, 0x0a, 0x00, 0x00, 0x00, 0x0b, 0x00, 0x00, 0x00, 0xff, 0xff, 0xff, 0xff, 0xff, 0xff, 0xff, 0xff, 0x23, 0x00, 0x00, 0x00, 0x24, 0x00, 0x00, 0x00, 0xff, 0xff, 0xff, 0xff, 0xff, 0xff, 0xff, 0xff, 0xff, 0xff, 0xff, 0xff, 0xff, 0xff, 0xff, 0xff, 0x00, 0x00, 0x16, 0x00, 0x18, 0x00, 0x00, 0x00, 0x14, 0x00, 0x10, 0x00, 0x0f, 0x00, 0x08, 0x00, 0x00, 0x00, 0x00, 0x00, 0x00, 0x00, 0x04, 0x00, 0x16, 0x00, 0x00, 0x00, 0x14, 0x00, 0x00, 0x00, 0x1c, 0x00, 0x00, 0x00, 0x00, 0x00, 0x00, 0x47, 0x20, 0x00, 0x00, 0x00, 0x24, 0x00, 0x00, 0x00, 0x00, 0x00, 0x00, 0x00, 0x08, 0x00, 0x0c, 0x00, 0x0b, 0x00, 0x04, 0x00, 0x08, 0x00, 0x00, 0x00, 0x00, 0x00, 0x20, 0x41, 0x00, 0x00, 0x00, 0x04, 0x01, 0x00, 0x00, 0x00, 0x22, 0x00, 0x00, 0x00, 0x18, 0x00, 0x00, 0x00, 0x00, 0x00, 0x00, 0x00, 0x18, 0x00, 0x00, 0x00, 0x19, 0x00, 0x00, 0x00, 0x1a, 0x00, 0x00, 0x00, 0x1b, 0x00, 0x00, 0x00, 0x10, 0x00, 0x00, 0x00, 0x11, 0x00, 0x00, 0x00, 0x12, 0x00, 0x00, 0x00, 0x13, 0x00, 0x00, 0x00, 0xff, 0xff, 0xff, 0xff, 0xff, 0xff, 0xff, 0xff, 0xff, 0xff, 0xff, 0xff, 0x14, 0x00, 0x00, 0x00, 0x15, 0x00, 0x00, 0x00, 0x16, 0x00, 0x00, 0x00, 0x17, 0x00, 0x00, 0x00, 0xff, 0xff, 0xff, 0xff, 0xff, 0xff, 0xff, 0xff, 0x01, 0x00, 0x00, 0x00, 0x21, 0x00, 0x00, 0x00, 0xff, 0xff, 0xff, 0xff, 0xff, 0xff, 0xff, 0xff, 0xff, 0xff, 0xff, 0xff, 0xff, 0xff, 0xff, 0xff, 0x01, 0x00, 0x00, 0x00, 0x28, 0x00, 0x00, 0x00, 0x01, 0x00, 0x00, 0x00, 0x00, 0x00, 0x00, 0x00, 0x29, 0x00, 0x00, 0x00, 0x38, 0x0b, 0x00, 0x00, 0xdc, 0x0a, 0x00, 0x00, 0x6c, 0x0a, 0x00, 0x00, 0x18, 0x0a, 0x00, 0x00, 0xd8, 0x09, 0x00, 0x00, 0x98, 0x09, 0x00, 0x00, 0x58, 0x09, 0x00, 0x00, 0x18, 0x09, 0x00, 0x00, 0xdc, 0x08, 0x00, 0x00, 0xa0, 0x08, 0x00, 0x00, 0x64, 0x08, 0x00, 0x00, 0x28, 0x08, 0x00, 0x00, 0xe8, 0x07, 0x00, 0x00, 0xa8, 0x07, 0x00, 0x00, 0x64, 0x07, 0x00, 0x00, 0x20, 0x07, 0x00, 0x00, 0xdc, 0x06, 0x00, 0x00, 0x98, 0x06, 0x00, 0x00, 0x54, 0x06, 0x00, 0x00, 0x10, 0x06, 0x00, 0x00, 0xd0, 0x05, 0x00, 0x00, 0x90, 0x05, 0x00, 0x00, 0x50, 0x05, 0x00, 0x00, 0x10, 0x05, 0x00, 0x00, 0xcc, 0x04, 0x00, 0x00, 0x88, 0x04, 0x00, 0x00, 0x44, 0x04, 0x00, 0x00, 0x00, 0x04, 0x00, 0x00, 0xb8, 0x03, 0x00, 0x00, 0x6c, 0x03, 0x00, 0x00, 0x28, 0x03, 0x00, 0x00, 0xcc, 0x02, 0x00, 0x00, 0x88, 0x02, 0x00, 0x00, 0x44, 0x02, 0x00, 0x00, 0xec, 0x01, 0x00, 0x00, 0xa8, 0x01, 0x00, 0x00, 0x64, 0x01, 0x00, 0x00, 0x0c, 0x01, 0x00, 0x00, 0xc8, 0x00, 0x00, 0x00, 0x50, 0x00, 0x00, 0x00, 0x04, 0x00, 0x00, 0x00, 0x82, 0xf5, 0xff, 0xff, 0x00, 0x00, 0x00, 0x01, 0x10, 0x00, 0x00, 0x00, 0x10, 0x00, 0x00, 0x00, 0x29, 0x00, 0x00, 0x00, 0x28, 0x00, 0x00, 0x00, 0x6c, 0xf5, 0xff, 0xff, 0x19, 0x00, 0x00, 0x00, 0x53, 0x74, 0x61, 0x74, 0x65, 0x66, 0x75, 0x6c, 0x50, 0x61, 0x72, 0x74, 0x69, 0x74, 0x69, 0x6f, 0x6e, 0x65, 0x64, 0x43, 0x61, 0x6c, 0x6c, 0x3a, 0x30, 0x00, 0x00, 0x00, 0x02, 0x00, 0x00, 0x00, 0x01, 0x00, 0x00, 0x00, 0x01, 0x00, 0x00, 0x00, 0xca, 0xf5, 0xff, 0xff, 0x00, 0x00, 0x00, 0x01, 0x10, 0x00, 0x00, 0x00, 0x10, 0x00, 0x00, 0x00, 0x28, 0x00, 0x00, 0x00, 0x54, 0x00, 0x00, 0x00, 0xb4, 0xf5, 0xff, 0xff, 0x46, 0x00, 0x00, 0x00, 0x73, 0x65, 0x71, 0x75, 0x65, 0x6e, 0x74, 0x69, 0x61, 0x6c, 0x2f, 0x64, 0x65, 0x6e, 0x73, 0x65, 0x2f, 0x4d, 0x61, 0x74, 0x4d, 0x75, 0x6c, 0x3b, 0x73, 0x65, 0x71, 0x75, 0x65, 0x6e, 0x74, 0x69, 0x61, 0x6c, 0x2f, 0x64, 0x65, 0x6e, 0x73, 0x65, 0x2f, 0x52, 0x65, 0x6c, 0x75, 0x3b, 0x73, 0x65, 0x71, 0x75, 0x65, 0x6e, 0x74, 0x69, 0x61, 0x6c, 0x2f, 0x64, 0x65, 0x6e, 0x73, 0x65, 0x2f, 0x42, 0x69, 0x61, 0x73, 0x41, 0x64, 0x64, 0x00, 0x00, 0x02, 0x00, 0x00, 0x00, 0x01, 0x00, 0x00, 0x00, 0x20, 0x00, 0x00, 0x00, 0x3e, 0xf6, 0xff, 0xff, 0x00, 0x00, 0x00, 0x01, 0x10, 0x00, 0x00, 0x00, 0x10, 0x00, 0x00, 0x00, 0x27, 0x00, 0x00, 0x00, 0x20, 0x00, 0x00, 0x00, 0x28, 0xf6, 0xff, 0xff, 0x11, 0x00, 0x00, 0x00, 0x74, 0x66, 0x6c, 0x2e, 0x73, 0x74, 0x72, 0x69, 0x64, 0x65, 0x64, 0x5f, 0x73, 0x6c, 0x69, 0x63, 0x65, 0x00, 0x00, 0x00, 0x02, 0x00, 0x00, 0x00, 0x01, 0x00, 0x00, 0x00, 0x0c, 0x00, 0x00, 0x00, 0x7e, 0xf6, 0xff, 0xff, 0x00, 0x00, 0x00, 0x01, 0x10, 0x00, 0x00, 0x00, 0x10, 0x00, 0x00, 0x00, 0x26, 0x00, 0x00, 0x00, 0x30, 0x00, 0x00, 0x00, 0x68, 0xf6, 0xff, 0xff, 0x21, 0x00, 0x00, 0x00, 0x74, 0x66, 0x6c, 0x2e, 0x75, 0x6e, 0x69, 0x64, 0x69, 0x72, 0x65, 0x63, 0x74, 0x69, 0x6f, 0x6e, 0x61, 0x6c, 0x5f, 0x73, 0x65, 0x71, 0x75, 0x65, 0x6e, 0x63, 0x65, 0x5f, 0x6c, 0x73, 0x74, 0x6d, 0x31, 0x00, 0x00, 0x00, 0x03, 0x00, 0x00, 0x00, 0x01, 0x00, 0x00, 0x00, 0x03, 0x00, 0x00, 0x00, 0x0c, 0x00, 0x00, 0x00, 0x2a, 0xf7, 0xff, 0xff, 0x00, 0x00, 0x01, 0x01, 0x0c, 0x00, 0x00, 0x00, 0x0c, 0x00, 0x00, 0x00, 0x24, 0x00, 0x00, 0x00, 0xb8, 0xf6, 0xff, 0xff, 0x16, 0x00, 0x00, 0x00, 0x73, 0x65, 0x71, 0x75, 0x65, 0x6e, 0x74, 0x69, 0x61, 0x6c, 0x2f, 0x6c, 0x73, 0x74, 0x6d, 0x2f, 0x7a, 0x65, 0x72, 0x6f, 0x73, 0x33, 0x00, 0x00, 0x02, 0x00, 0x00, 0x00, 0x01, 0x00, 0x00, 0x00, 0x0c, 0x00, 0x00, 0x00, 0x6a, 0xf7, 0xff, 0xff, 0x00, 0x00, 0x01, 0x01, 0x0c, 0x00, 0x00, 0x00, 0x0c, 0x00, 0x00, 0x00, 0x24, 0x00, 0x00, 0x00, 0xf8, 0xf6, 0xff, 0xff, 0x16, 0x00, 0x00, 0x00, 0x73, 0x65, 0x71, 0x75, 0x65, 0x6e, 0x74, 0x69, 0x61, 0x6c, 0x2f, 0x6c, 0x73, 0x74, 0x6d, 0x2f, 0x7a, 0x65, 0x72, 0x6f, 0x73, 0x32, 0x00, 0x00, 0x02, 0x00, 0x00, 0x00, 0x01, 0x00, 0x00, 0x00, 0x0c, 0x00, 0x00, 0x00, 0x52, 0xf7, 0xff, 0xff, 0x00, 0x00, 0x00, 0x01, 0x10, 0x00, 0x00, 0x00, 0x10, 0x00, 0x00, 0x00, 0x23, 0x00, 0x00, 0x00, 0x30, 0x00, 0x00, 0x00, 0x3c, 0xf7, 0xff, 0xff, 0x20, 0x00, 0x00, 0x00, 0x74, 0x66, 0x6c, 0x2e, 0x75, 0x6e, 0x69, 0x64, 0x69, 0x72, 0x65, 0x63, 0x74, 0x69, 0x6f, 0x6e, 0x61, 0x6c, 0x5f, 0x73, 0x65, 0x71, 0x75, 0x65, 0x6e, 0x63, 0x65, 0x5f, 0x6c, 0x73, 0x74, 0x6d, 0x00, 0x00, 0x00, 0x00, 0x03, 0x00, 0x00, 0x00, 0x01, 0x00, 0x00, 0x00, 0x03, 0x00, 0x00, 0x00, 0x0c, 0x00, 0x00, 0x00, 0xfe, 0xf7, 0xff, 0xff, 0x00, 0x00, 0x01, 0x01, 0x0c, 0x00, 0x00, 0x00, 0x0c, 0x00, 0x00, 0x00, 0x24, 0x00, 0x00, 0x00, 0x8c, 0xf7, 0xff, 0xff, 0x16, 0x00, 0x00, 0x00, 0x73, 0x65, 0x71, 0x75, 0x65, 0x6e, 0x74, 0x69, 0x61, 0x6c, 0x2f, 0x6c, 0x73, 0x74, 0x6d, 0x2f, 0x7a, 0x65, 0x72, 0x6f, 0x73, 0x31, 0x00, 0x00, 0x02, 0x00, 0x00, 0x00, 0x01, 0x00, 0x00, 0x00, 0x0c, 0x00, 0x00, 0x00, 0x7e, 0xff, 0xff, 0xff, 0x00, 0x00, 0x00, 0x01, 0x14, 0x00, 0x00, 0x00, 0x14, 0x00, 0x00, 0x00, 0x21, 0x00, 0x00, 0x00, 0x00, 0x00, 0x00, 0x02, 0x20, 0x00, 0x00, 0x00, 0xd4, 0xf7, 0xff, 0xff, 0x10, 0x00, 0x00, 0x00, 0x61, 0x72, 0x69, 0x74, 0x68, 0x2e, 0x63, 0x6f, 0x6e, 0x73, 0x74, 0x61, 0x6e, 0x74, 0x32, 0x36, 0x00, 0x00, 0x00, 0x00, 0x01, 0x00, 0x00, 0x00, 0x03, 0x00, 0x00, 0x00, 0xbe, 0xff, 0xff, 0xff, 0x00, 0x00, 0x00, 0x01, 0x14, 0x00, 0x00, 0x00, 0x14, 0x00, 0x00, 0x00, 0x20, 0x00, 0x00, 0x00, 0x00, 0x00, 0x00, 0x02, 0x20, 0x00, 0x00, 0x00, 0x14, 0xf8, 0xff, 0xff, 0x10, 0x00, 0x00, 0x00, 0x61, 0x72, 0x69, 0x74, 0x68, 0x2e, 0x63, 0x6f, 0x6e, 0x73, 0x74, 0x61, 0x6e, 0x74, 0x32, 0x35, 0x00, 0x00, 0x00, 0x00, 0x01, 0x00, 0x00, 0x00, 0x03, 0x00, 0x00, 0x00, 0x00, 0x00, 0x16, 0x00, 0x1c, 0x00, 0x18, 0x00, 0x17, 0x00, 0x10, 0x00, 0x0c, 0x00, 0x08, 0x00, 0x00, 0x00, 0x00, 0x00, 0x00, 0x00, 0x07, 0x00, 0x16, 0x00, 0x00, 0x00, 0x00, 0x00, 0x00, 0x01, 0x14, 0x00, 0x00, 0x00, 0x14, 0x00, 0x00, 0x00, 0x1f, 0x00, 0x00, 0x00, 0x00, 0x00, 0x00, 0x02, 0x20, 0x00, 0x00, 0x00, 0x6c, 0xf8, 0xff, 0xff, 0x10, 0x00, 0x00, 0x00, 0x61, 0x72, 0x69, 0x74, 0x68, 0x2e, 0x63, 0x6f, 0x6e, 0x73, 0x74, 0x61, 0x6e, 0x74, 0x32, 0x34, 0x00, 0x00, 0x00, 0x00, 0x01, 0x00, 0x00, 0x00, 0x03, 0x00, 0x00, 0x00, 0xbe, 0xf8, 0xff, 0xff, 0x00, 0x00, 0x00, 0x01, 0x10, 0x00, 0x00, 0x00, 0x10, 0x00, 0x00, 0x00, 0x1e, 0x00, 0x00, 0x00, 0x28, 0x00, 0x00, 0x00, 0xa8, 0xf8, 0xff, 0xff, 0x19, 0x00, 0x00, 0x00, 0x73, 0x65, 0x71, 0x75, 0x65, 0x6e, 0x74, 0x69, 0x61, 0x6c, 0x2f, 0x64, 0x65, 0x6e, 0x73, 0x65, 0x5f, 0x31, 0x2f, 0x4d, 0x61, 0x74, 0x4d, 0x75, 0x6c, 0x00, 0x00, 0x00, 0x02, 0x00, 0x00, 0x00, 0x01, 0x00, 0x00, 0x00, 0x20, 0x00, 0x00, 0x00, 0x06, 0xf9, 0xff, 0xff, 0x00, 0x00, 0x00, 0x01, 0x10, 0x00, 0x00, 0x00, 0x10, 0x00, 0x00, 0x00, 0x1d, 0x00, 0x00, 0x00, 0x24, 0x00, 0x00, 0x00, 0xf0, 0xf8, 0xff, 0xff, 0x17, 0x00, 0x00, 0x00, 0x73, 0x65, 0x71, 0x75, 0x65, 0x6e, 0x74, 0x69, 0x61, 0x6c, 0x2f, 0x64, 0x65, 0x6e, 0x73, 0x65, 0x2f, 0x4d, 0x61, 0x74, 0x4d, 0x75, 0x6c, 0x00, 0x02, 0x00, 0x00, 0x00, 0x20, 0x00, 0x00, 0x00, 0x0c, 0x00, 0x00, 0x00, 0x4a, 0xf9, 0xff, 0xff, 0x00, 0x00, 0x00, 0x01, 0x10, 0x00, 0x00, 0x00, 0x10, 0x00, 0x00, 0x00, 0x1c, 0x00, 0x00, 0x00, 0x20, 0x00, 0x00, 0x00, 0x34, 0xf9, 0xff, 0xff, 0x10, 0x00, 0x00, 0x00, 0x61, 0x72, 0x69, 0x74, 0x68, 0x2e, 0x63, 0x6f, 0x6e, 0x73, 0x74, 0x61, 0x6e, 0x74, 0x32, 0x33, 0x00, 0x00, 0x00, 0x00, 0x02, 0x00, 0x00, 0x00, 0x0c, 0x00, 0x00, 0x00, 0x01, 0x00, 0x00, 0x00, 0x8a, 0xf9, 0xff, 0xff, 0x00, 0x00, 0x00, 0x01, 0x10, 0x00, 0x00, 0x00, 0x10, 0x00, 0x00, 0x00, 0x1b, 0x00, 0x00, 0x00, 0x20, 0x00, 0x00, 0x00, 0x74, 0xf9, 0xff, 0xff, 0x10, 0x00, 0x00, 0x00, 0x61, 0x72, 0x69, 0x74, 0x68, 0x2e, 0x63, 0x6f, 0x6e, 0x73, 0x74, 0x61, 0x6e, 0x74, 0x32, 0x32, 0x00, 0x00, 0x00, 0x00, 0x02, 0x00, 0x00, 0x00, 0x0c, 0x00, 0x00, 0x00, 0x01, 0x00, 0x00, 0x00, 0xca, 0xf9, 0xff, 0xff, 0x00, 0x00, 0x00, 0x01, 0x10, 0x00, 0x00, 0x00, 0x10, 0x00, 0x00, 0x00, 0x1a, 0x00, 0x00, 0x00, 0x20, 0x00, 0x00, 0x00, 0xb4, 0xf9, 0xff, 0xff, 0x10, 0x00, 0x00, 0x00, 0x61, 0x72, 0x69, 0x74, 0x68, 0x2e, 0x63, 0x6f, 0x6e, 0x73, 0x74, 0x61, 0x6e, 0x74, 0x32, 0x31, 0x00, 0x00, 0x00, 0x00, 0x02, 0x00, 0x00, 0x00, 0x0c, 0x00, 0x00, 0x00, 0x01, 0x00, 0x00, 0x00, 0x0a, 0xfa, 0xff, 0xff, 0x00, 0x00, 0x00, 0x01, 0x10, 0x00, 0x00, 0x00, 0x10, 0x00, 0x00, 0x00, 0x19, 0x00, 0x00, 0x00, 0x20, 0x00, 0x00, 0x00, 0xf4, 0xf9, 0xff, 0xff, 0x10, 0x00, 0x00, 0x00, 0x61, 0x72, 0x69, 0x74, 0x68, 0x2e, 0x63, 0x6f, 0x6e, 0x73, 0x74, 0x61, 0x6e, 0x74, 0x32, 0x30, 0x00, 0x00, 0x00, 0x00, 0x02, 0x00, 0x00, 0x00, 0x0c, 0x00, 0x00, 0x00, 0x01, 0x00, 0x00, 0x00, 0x4a, 0xfa, 0xff, 0xff, 0x00, 0x00, 0x00, 0x01, 0x10, 0x00, 0x00, 0x00, 0x10, 0x00, 0x00, 0x00, 0x18, 0x00, 0x00, 0x00, 0x20, 0x00, 0x00, 0x00, 0x34, 0xfa, 0xff, 0xff, 0x10, 0x00, 0x00, 0x00, 0x61, 0x72, 0x69, 0x74, 0x68, 0x2e, 0x63, 0x6f, 0x6e, 0x73, 0x74, 0x61, 0x6e, 0x74, 0x31, 0x39, 0x00, 0x00, 0x00, 0x00, 0x01, 0x00, 0x00, 0x00, 0x0c, 0x00, 0x00, 0x00, 0x86, 0xfa, 0xff, 0xff, 0x00, 0x00, 0x00, 0x01, 0x10, 0x00, 0x00, 0x00, 0x10, 0x00, 0x00, 0x00, 0x17, 0x00, 0x00, 0x00, 0x20, 0x00, 0x00, 0x00, 0x70, 0xfa, 0xff, 0xff, 0x10, 0x00, 0x00, 0x00, 0x61, 0x72, 0x69, 0x74, 0x68, 0x2e, 0x63, 0x6f, 0x6e, 0x73, 0x74, 0x61, 0x6e, 0x74, 0x31, 0x38, 0x00, 0x00, 0x00, 0x00, 0x01, 0x00, 0x00, 0x00, 0x0c, 0x00, 0x00, 0x00, 0xc2, 0xfa, 0xff, 0xff, 0x00, 0x00, 0x00, 0x01, 0x10, 0x00, 0x00, 0x00, 0x10, 0x00, 0x00, 0x00, 0x16, 0x00, 0x00, 0x00, 0x20, 0x00, 0x00, 0x00, 0xac, 0xfa, 0xff, 0xff, 0x10, 0x00, 0x00, 0x00, 0x61, 0x72, 0x69, 0x74, 0x68, 0x2e, 0x63, 0x6f, 0x6e, 0x73, 0x74, 0x61, 0x6e, 0x74, 0x31, 0x37, 0x00, 0x00, 0x00, 0x00, 0x01, 0x00, 0x00, 0x00, 0x0c, 0x00, 0x00, 0x00, 0xfe, 0xfa, 0xff, 0xff, 0x00, 0x00, 0x00, 0x01, 0x10, 0x00, 0x00, 0x00, 0x10, 0x00, 0x00, 0x00, 0x15, 0x00, 0x00, 0x00, 0x20, 0x00, 0x00, 0x00, 0xe8, 0xfa, 0xff, 0xff, 0x10, 0x00, 0x00, 0x00, 0x61, 0x72, 0x69, 0x74, 0x68, 0x2e, 0x63, 0x6f, 0x6e, 0x73, 0x74, 0x61, 0x6e, 0x74, 0x31, 0x36, 0x00, 0x00, 0x00, 0x00, 0x01, 0x00, 0x00, 0x00, 0x0c, 0x00, 0x00, 0x00, 0x3a, 0xfb, 0xff, 0xff, 0x00, 0x00, 0x00, 0x01, 0x10, 0x00, 0x00, 0x00, 0x10, 0x00, 0x00, 0x00, 0x14, 0x00, 0x00, 0x00, 0x20, 0x00, 0x00, 0x00, 0x24, 0xfb, 0xff, 0xff, 0x10, 0x00, 0x00, 0x00, 0x61, 0x72, 0x69, 0x74, 0x68, 0x2e, 0x63, 0x6f, 0x6e, 0x73, 0x74, 0x61, 0x6e, 0x74, 0x31, 0x35, 0x00, 0x00, 0x00, 0x00, 0x02, 0x00, 0x00, 0x00, 0x0c, 0x00, 0x00, 0x00, 0x0c, 0x00, 0x00, 0x00, 0x7a, 0xfb, 0xff, 0xff, 0x00, 0x00, 0x00, 0x01, 0x10, 0x00, 0x00, 0x00, 0x10, 0x00, 0x00, 0x00, 0x13, 0x00, 0x00, 0x00, 0x20, 0x00, 0x00, 0x00, 0x64, 0xfb, 0xff, 0xff, 0x10, 0x00, 0x00, 0x00, 0x61, 0x72, 0x69, 0x74, 0x68, 0x2e, 0x63, 0x6f, 0x6e, 0x73, 0x74, 0x61, 0x6e, 0x74, 0x31, 0x34, 0x00, 0x00, 0x00, 0x00, 0x02, 0x00, 0x00, 0x00, 0x0c, 0x00, 0x00, 0x00, 0x0c, 0x00, 0x00, 0x00, 0xba, 0xfb, 0xff, 0xff, 0x00, 0x00, 0x00, 0x01, 0x10, 0x00, 0x00, 0x00, 0x10, 0x00, 0x00, 0x00, 0x12, 0x00, 0x00, 0x00, 0x20, 0x00, 0x00, 0x00, 0xa4, 0xfb, 0xff, 0xff, 0x10, 0x00, 0x00, 0x00, 0x61, 0x72, 0x69, 0x74, 0x68, 0x2e, 0x63, 0x6f, 0x6e, 0x73, 0x74, 0x61, 0x6e, 0x74, 0x31, 0x33, 0x00, 0x00, 0x00, 0x00, 0x02, 0x00, 0x00, 0x00, 0x0c, 0x00, 0x00, 0x00, 0x0c, 0x00, 0x00, 0x00, 0xfa, 0xfb, 0xff, 0xff, 0x00, 0x00, 0x00, 0x01, 0x10, 0x00, 0x00, 0x00, 0x10, 0x00, 0x00, 0x00, 0x11, 0x00, 0x00, 0x00, 0x20, 0x00, 0x00, 0x00, 0xe4, 0xfb, 0xff, 0xff, 0x10, 0x00, 0x00, 0x00, 0x61, 0x72, 0x69, 0x74, 0x68, 0x2e, 0x63, 0x6f, 0x6e, 0x73, 0x74, 0x61, 0x6e, 0x74, 0x31, 0x32, 0x00, 0x00, 0x00, 0x00, 0x02, 0x00, 0x00, 0x00, 0x0c, 0x00, 0x00, 0x00, 0x0c, 0x00, 0x00, 0x00, 0x3a, 0xfc, 0xff, 0xff, 0x00, 0x00, 0x00, 0x01, 0x10, 0x00, 0x00, 0x00, 0x10, 0x00, 0x00, 0x00, 0x10, 0x00, 0x00, 0x00, 0x20, 0x00, 0x00, 0x00, 0x24, 0xfc, 0xff, 0xff, 0x10, 0x00, 0x00, 0x00, 0x61, 0x72, 0x69, 0x74, 0x68, 0x2e, 0x63, 0x6f, 0x6e, 0x73, 0x74, 0x61, 0x6e, 0x74, 0x31, 0x31, 0x00, 0x00, 0x00, 0x00, 0x02, 0x00, 0x00, 0x00, 0x0c, 0x00, 0x00, 0x00, 0x0c, 0x00, 0x00, 0x00, 0x7a, 0xfc, 0xff, 0xff, 0x00, 0x00, 0x00, 0x01, 0x10, 0x00, 0x00, 0x00, 0x10, 0x00, 0x00, 0x00, 0x0f, 0x00, 0x00, 0x00, 0x20, 0x00, 0x00, 0x00, 0x64, 0xfc, 0xff, 0xff, 0x10, 0x00, 0x00, 0x00, 0x61, 0x72, 0x69, 0x74, 0x68, 0x2e, 0x63, 0x6f, 0x6e, 0x73, 0x74, 0x61, 0x6e, 0x74, 0x31, 0x30, 0x00, 0x00, 0x00, 0x00, 0x02, 0x00, 0x00, 0x00, 0x0c, 0x00, 0x00, 0x00, 0x0c, 0x00, 0x00, 0x00, 0xba, 0xfc, 0xff, 0xff, 0x00, 0x00, 0x00, 0x01, 0x10, 0x00, 0x00, 0x00, 0x10, 0x00, 0x00, 0x00, 0x0e, 0x00, 0x00, 0x00, 0x1c, 0x00, 0x00, 0x00, 0xa4, 0xfc, 0xff, 0xff, 0x0f, 0x00, 0x00, 0x00, 0x61, 0x72, 0x69, 0x74, 0x68, 0x2e, 0x63, 0x6f, 0x6e, 0x73, 0x74, 0x61, 0x6e, 0x74, 0x39, 0x00, 0x02, 0x00, 0x00, 0x00, 0x0c, 0x00, 0x00, 0x00, 0x0c, 0x00, 0x00, 0x00, 0xf6, 0xfc, 0xff, 0xff, 0x00, 0x00, 0x00, 0x01, 0x10, 0x00, 0x00, 0x00, 0x10, 0x00, 0x00, 0x00, 0x0d, 0x00, 0x00, 0x00, 0x1c, 0x00, 0x00, 0x00, 0xe0, 0xfc, 0xff, 0xff, 0x0f, 0x00, 0x00, 0x00, 0x61, 0x72, 0x69, 0x74, 0x68, 0x2e, 0x63, 0x6f, 0x6e, 0x73, 0x74, 0x61, 0x6e, 0x74, 0x38, 0x00, 0x02, 0x00, 0x00, 0x00, 0x0c, 0x00, 0x00, 0x00, 0x0c, 0x00, 0x00, 0x00, 0x32, 0xfd, 0xff, 0xff, 0x00, 0x00, 0x00, 0x01, 0x10, 0x00, 0x00, 0x00, 0x10, 0x00, 0x00, 0x00, 0x0c, 0x00, 0x00, 0x00, 0x1c, 0x00, 0x00, 0x00, 0x1c, 0xfd, 0xff, 0xff, 0x0f, 0x00, 0x00, 0x00, 0x61, 0x72, 0x69, 0x74, 0x68, 0x2e, 0x63, 0x6f, 0x6e, 0x73, 0x74, 0x61, 0x6e, 0x74, 0x37, 0x00, 0x01, 0x00, 0x00, 0x00, 0x0c, 0x00, 0x00, 0x00, 0x6a, 0xfd, 0xff, 0xff, 0x00, 0x00, 0x00, 0x01, 0x10, 0x00, 0x00, 0x00, 0x10, 0x00, 0x00, 0x00, 0x0b, 0x00, 0x00, 0x00, 0x1c, 0x00, 0x00, 0x00, 0x54, 0xfd, 0xff, 0xff, 0x0f, 0x00, 0x00, 0x00, 0x61, 0x72, 0x69, 0x74, 0x68, 0x2e, 0x63, 0x6f, 0x6e, 0x73, 0x74, 0x61, 0x6e, 0x74, 0x36, 0x00, 0x01, 0x00, 0x00, 0x00, 0x0c, 0x00, 0x00, 0x00, 0xa2, 0xfd, 0xff, 0xff, 0x00, 0x00, 0x00, 0x01, 0x10, 0x00, 0x00, 0x00, 0x10, 0x00, 0x00, 0x00, 0x0a, 0x00, 0x00, 0x00, 0x1c, 0x00, 0x00, 0x00, 0x8c, 0xfd, 0xff, 0xff, 0x0f, 0x00, 0x00, 0x00, 0x61, 0x72, 0x69, 0x74, 0x68, 0x2e, 0x63, 0x6f, 0x6e, 0x73, 0x74, 0x61, 0x6e, 0x74, 0x35, 0x00, 0x01, 0x00, 0x00, 0x00, 0x0c, 0x00, 0x00, 0x00, 0xda, 0xfd, 0xff, 0xff, 0x00, 0x00, 0x00, 0x01, 0x10, 0x00, 0x00, 0x00, 0x10, 0x00, 0x00, 0x00, 0x09, 0x00, 0x00, 0x00, 0x1c, 0x00, 0x00, 0x00, 0xc4, 0xfd, 0xff, 0xff, 0x0f, 0x00, 0x00, 0x00, 0x61, 0x72, 0x69, 0x74, 0x68, 0x2e, 0x63, 0x6f, 0x6e, 0x73, 0x74, 0x61, 0x6e, 0x74, 0x34, 0x00, 0x01, 0x00, 0x00, 0x00, 0x0c, 0x00, 0x00, 0x00, 0x12, 0xfe, 0xff, 0xff, 0x00, 0x00, 0x00, 0x01, 0x10, 0x00, 0x00, 0x00, 0x10, 0x00, 0x00, 0x00, 0x08, 0x00, 0x00, 0x00, 0x1c, 0x00, 0x00, 0x00, 0xfc, 0xfd, 0xff, 0xff, 0x0f, 0x00, 0x00, 0x00, 0x61, 0x72, 0x69, 0x74, 0x68, 0x2e, 0x63, 0x6f, 0x6e, 0x73, 0x74, 0x61, 0x6e, 0x74, 0x33, 0x00, 0x02, 0x00, 0x00, 0x00, 0x0c, 0x00, 0x00, 0x00, 0x0c, 0x00, 0x00, 0x00, 0x4e, 0xfe, 0xff, 0xff, 0x00, 0x00, 0x00, 0x01, 0x10, 0x00, 0x00, 0x00, 0x10, 0x00, 0x00, 0x00, 0x07, 0x00, 0x00, 0x00, 0x1c, 0x00, 0x00, 0x00, 0x38, 0xfe, 0xff, 0xff, 0x0f, 0x00, 0x00, 0x00, 0x61, 0x72, 0x69, 0x74, 0x68, 0x2e, 0x63, 0x6f, 0x6e, 0x73, 0x74, 0x61, 0x6e, 0x74, 0x32, 0x00, 0x02, 0x00, 0x00, 0x00, 0x0c, 0x00, 0x00, 0x00, 0x0c, 0x00, 0x00, 0x00, 0x8a, 0xfe, 0xff, 0xff, 0x00, 0x00, 0x00, 0x01, 0x10, 0x00, 0x00, 0x00, 0x10, 0x00, 0x00, 0x00, 0x06, 0x00, 0x00, 0x00, 0x1c, 0x00, 0x00, 0x00, 0x74, 0xfe, 0xff, 0xff, 0x0f, 0x00, 0x00, 0x00, 0x61, 0x72, 0x69, 0x74, 0x68, 0x2e, 0x63, 0x6f, 0x6e, 0x73, 0x74, 0x61, 0x6e, 0x74, 0x31, 0x00, 0x02, 0x00, 0x00, 0x00, 0x0c, 0x00, 0x00, 0x00, 0x0c, 0x00, 0x00, 0x00, 0xc6, 0xfe, 0xff, 0xff, 0x00, 0x00, 0x00, 0x01, 0x10, 0x00, 0x00, 0x00, 0x10, 0x00, 0x00, 0x00, 0x05, 0x00, 0x00, 0x00, 0x1c, 0x00, 0x00, 0x00, 0xb0, 0xfe, 0xff, 0xff, 0x0e, 0x00, 0x00, 0x00, 0x61, 0x72, 0x69, 0x74, 0x68, 0x2e, 0x63, 0x6f, 0x6e, 0x73, 0x74, 0x61, 0x6e, 0x74, 0x00, 0x00, 0x02, 0x00, 0x00, 0x00, 0x0c, 0x00, 0x00, 0x00, 0x0c, 0x00, 0x00, 0x00, 0x02, 0xff, 0xff, 0xff, 0x00, 0x00, 0x00, 0x01, 0x10, 0x00, 0x00, 0x00, 0x10, 0x00, 0x00, 0x00, 0x04, 0x00, 0x00, 0x00, 0x34, 0x00, 0x00, 0x00, 0xec, 0xfe, 0xff, 0xff, 0x27, 0x00, 0x00, 0x00, 0x73, 0x65, 0x71, 0x75, 0x65, 0x6e, 0x74, 0x69, 0x61, 0x6c, 0x2f, 0x64, 0x65, 0x6e, 0x73, 0x65, 0x2f, 0x42, 0x69, 0x61, 0x73, 0x41, 0x64, 0x64, 0x2f, 0x52, 0x65, 0x61, 0x64, 0x56, 0x61, 0x72, 0x69, 0x61, 0x62, 0x6c, 0x65, 0x4f, 0x70, 0x00, 0x01, 0x00, 0x00, 0x00, 0x20, 0x00, 0x00, 0x00, 0x52, 0xff, 0xff, 0xff, 0x00, 0x00, 0x00, 0x01, 0x10, 0x00, 0x00, 0x00, 0x10, 0x00, 0x00, 0x00, 0x03, 0x00, 0x00, 0x00, 0x38, 0x00, 0x00, 0x00, 0x3c, 0xff, 0xff, 0xff, 0x29, 0x00, 0x00, 0x00, 0x73, 0x65, 0x71, 0x75, 0x65, 0x6e, 0x74, 0x69, 0x61, 0x6c, 0x2f, 0x64, 0x65, 0x6e, 0x73, 0x65, 0x5f, 0x31, 0x2f, 0x42, 0x69, 0x61, 0x73, 0x41, 0x64, 0x64, 0x2f, 0x52, 0x65, 0x61, 0x64, 0x56, 0x61, 0x72, 0x69, 0x61, 0x62, 0x6c, 0x65, 0x4f, 0x70, 0x00, 0x00, 0x00, 0x01, 0x00, 0x00, 0x00, 0x01, 0x00, 0x00, 0x00, 0x00, 0x00, 0x16, 0x00, 0x14, 0x00, 0x10, 0x00, 0x00, 0x00, 0x00, 0x00, 0x0c, 0x00, 0x08, 0x00, 0x07, 0x00, 0x00, 0x00, 0x00, 0x00, 0x06, 0x00, 0x16, 0x00, 0x00, 0x00, 0x00, 0x00, 0x01, 0x01, 0x0c, 0x00, 0x00, 0x00, 0x0c, 0x00, 0x00, 0x00, 0x24, 0x00, 0x00, 0x00, 0xa4, 0xff, 0xff, 0xff, 0x15, 0x00, 0x00, 0x00, 0x73, 0x65, 0x71, 0x75, 0x65, 0x6e, 0x74, 0x69, 0x61, 0x6c, 0x2f, 0x6c, 0x73, 0x74, 0x6d, 0x2f, 0x7a, 0x65, 0x72, 0x6f, 0x73, 0x00, 0x00, 0x00, 0x02, 0x00, 0x00, 0x00, 0x01, 0x00, 0x00, 0x00, 0x0c, 0x00, 0x00, 0x00, 0x00, 0x00, 0x16, 0x00, 0x18, 0x00, 0x14, 0x00, 0x00, 0x00, 0x10, 0x00, 0x0c, 0x00, 0x08, 0x00, 0x00, 0x00, 0x00, 0x00, 0x00, 0x00, 0x07, 0x00, 0x16, 0x00, 0x00, 0x00, 0x00, 0x00, 0x00, 0x01, 0x14, 0x00, 0x00, 0x00, 0x14, 0x00, 0x00, 0x00, 0x01, 0x00, 0x00, 0x00, 0x24, 0x00, 0x00, 0x00, 0x04, 0x00, 0x04, 0x00, 0x04, 0x00, 0x00, 0x00, 0x13, 0x00, 0x00, 0x00, 0x73, 0x65, 0x72, 0x76, 0x69, 0x6e, 0x67, 0x5f, 0x64, 0x65, 0x66, 0x61, 0x75, 0x6c, 0x74, 0x5f, 0x78, 0x3a, 0x30, 0x00, 0x03, 0x00, 0x00, 0x00, 0x01, 0x00, 0x00, 0x00, 0x03, 0x00, 0x00, 0x00, 0x01, 0x00, 0x00, 0x00, 0x03, 0x00, 0x00, 0x00, 0x30, 0x00, 0x00, 0x00, 0x14, 0x00, 0x00, 0x00, 0x04, 0x00, 0x00, 0x00, 0xe8, 0xff, 0xff, 0xff, 0x09, 0x00, 0x00, 0x00, 0x00, 0x00, 0x00, 0x09, 0xf4, 0xff, 0xff, 0xff, 0x2d, 0x00, 0x00, 0x00, 0x00, 0x00, 0x00, 0x2d, 0x0c, 0x00, 0x0c, 0x00, 0x0b, 0x00, 0x00, 0x00, 0x00, 0x00, 0x04, 0x00, 0x0c, 0x00, 0x00, 0x00, 0x2c, 0x00, 0x00, 0x00, 0x00, 0x00, 0x00, 0x2c };