#ifdef __has_attribute
#define HAVE_ATTRIBUTE(x) __has_attribute(x)
#else
#define HAVE_ATTRIBUTE(x) 0
#endif
#if HAVE_ATTRIBUTE(aligned) || (defined(__GNUC__) && !defined(__clang__))
#define DATA_ALIGN_ATTRIBUTE __attribute__((aligned(4)))
#else
#define DATA_ALIGN_ATTRIBUTE
#endif

const unsigned char .\models\model_quant_float32[]  DATA_ALIGN_ATTRIBUTE = {
 0x1c, 0x00, 0x00, 0x00, 0x54, 0x46, 0x4c, 0x33, 0x14, 0x00, 0x20, 0x00,
  0x1c, 0x00, 0x18, 0x00, 0x14, 0x00, 0x10, 0x00, 0x0c, 0x00, 0x00, 0x00,
  0x08, 0x00, 0x04, 0x00, 0x14, 0x00, 0x00, 0x00, 0x1c, 0x00, 0x00, 0x00,
  0x88, 0x00, 0x00, 0x00, 0xe0, 0x00, 0x00, 0x00, 0x9c, 0x0e, 0x00, 0x00,
  0xac, 0x0e, 0x00, 0x00, 0x6c, 0x14, 0x00, 0x00, 0x03, 0x00, 0x00, 0x00,
  0x01, 0x00, 0x00, 0x00, 0x04, 0x00, 0x00, 0x00, 0xe2, 0xf0, 0xff, 0xff,
  0x0c, 0x00, 0x00, 0x00, 0x1c, 0x00, 0x00, 0x00, 0x38, 0x00, 0x00, 0x00,
  0x0f, 0x00, 0x00, 0x00, 0x73, 0x65, 0x72, 0x76, 0x69, 0x6e, 0x67, 0x5f,
  0x64, 0x65, 0x66, 0x61, 0x75, 0x6c, 0x74, 0x00, 0x01, 0x00, 0x00, 0x00,
  0x04, 0x00, 0x00, 0x00, 0x94, 0xff, 0xff, 0xff, 0x09, 0x00, 0x00, 0x00,
  0x04, 0x00, 0x00, 0x00, 0x05, 0x00, 0x00, 0x00, 0x64, 0x65, 0x6e, 0x73,
  0x65, 0x00, 0x00, 0x00, 0x01, 0x00, 0x00, 0x00, 0x04, 0x00, 0x00, 0x00,
  0x02, 0xf2, 0xff, 0xff, 0x04, 0x00, 0x00, 0x00, 0x0c, 0x00, 0x00, 0x00,
  0x63, 0x6f, 0x6e, 0x76, 0x32, 0x64, 0x5f, 0x69, 0x6e, 0x70, 0x75, 0x74,
  0x00, 0x00, 0x00, 0x00, 0x02, 0x00, 0x00, 0x00, 0x34, 0x00, 0x00, 0x00,
  0x04, 0x00, 0x00, 0x00, 0xdc, 0xff, 0xff, 0xff, 0x0c, 0x00, 0x00, 0x00,
  0x04, 0x00, 0x00, 0x00, 0x13, 0x00, 0x00, 0x00, 0x43, 0x4f, 0x4e, 0x56,
  0x45, 0x52, 0x53, 0x49, 0x4f, 0x4e, 0x5f, 0x4d, 0x45, 0x54, 0x41, 0x44,
  0x41, 0x54, 0x41, 0x00, 0x08, 0x00, 0x0c, 0x00, 0x08, 0x00, 0x04, 0x00,
  0x08, 0x00, 0x00, 0x00, 0x0b, 0x00, 0x00, 0x00, 0x04, 0x00, 0x00, 0x00,
  0x13, 0x00, 0x00, 0x00, 0x6d, 0x69, 0x6e, 0x5f, 0x72, 0x75, 0x6e, 0x74,
  0x69, 0x6d, 0x65, 0x5f, 0x76, 0x65, 0x72, 0x73, 0x69, 0x6f, 0x6e, 0x00,
  0x0d, 0x00, 0x00, 0x00, 0xb8, 0x0d, 0x00, 0x00, 0xb0, 0x0d, 0x00, 0x00,
  0x80, 0x0d, 0x00, 0x00, 0x48, 0x0c, 0x00, 0x00, 0x10, 0x0c, 0x00, 0x00,
  0xf8, 0x0b, 0x00, 0x00, 0xa8, 0x00, 0x00, 0x00, 0xa0, 0x00, 0x00, 0x00,
  0x98, 0x00, 0x00, 0x00, 0x90, 0x00, 0x00, 0x00, 0x88, 0x00, 0x00, 0x00,
  0x68, 0x00, 0x00, 0x00, 0x04, 0x00, 0x00, 0x00, 0xb2, 0xf2, 0xff, 0xff,
  0x04, 0x00, 0x00, 0x00, 0x54, 0x00, 0x00, 0x00, 0x0c, 0x00, 0x00, 0x00,
  0x08, 0x00, 0x0e, 0x00, 0x08, 0x00, 0x04, 0x00, 0x08, 0x00, 0x00, 0x00,
  0x10, 0x00, 0x00, 0x00, 0x24, 0x00, 0x00, 0x00, 0x00, 0x00, 0x06, 0x00,
  0x08, 0x00, 0x04, 0x00, 0x06, 0x00, 0x00, 0x00, 0x04, 0x00, 0x00, 0x00,
  0x00, 0x00, 0x00, 0x00, 0x00, 0x00, 0x0a, 0x00, 0x10, 0x00, 0x0c, 0x00,
  0x08, 0x00, 0x04, 0x00, 0x0a, 0x00, 0x00, 0x00, 0x02, 0x00, 0x00, 0x00,
  0x02, 0x00, 0x00, 0x00, 0x04, 0x00, 0x00, 0x00, 0x06, 0x00, 0x00, 0x00,
  0x32, 0x2e, 0x31, 0x35, 0x2e, 0x30, 0x00, 0x00, 0x12, 0xf3, 0xff, 0xff,
  0x04, 0x00, 0x00, 0x00, 0x10, 0x00, 0x00, 0x00, 0x31, 0x2e, 0x35, 0x2e,
  0x30, 0x00, 0x00, 0x00, 0x00, 0x00, 0x00, 0x00, 0x00, 0x00, 0x00, 0x00,
  0x5c, 0xed, 0xff, 0xff, 0x60, 0xed, 0xff, 0xff, 0x64, 0xed, 0xff, 0xff,
  0x68, 0xed, 0xff, 0xff, 0x3e, 0xf3, 0xff, 0xff, 0x04, 0x00, 0x00, 0x00,
  0x40, 0x0b, 0x00, 0x00, 0x76, 0x36, 0xd2, 0xbd, 0x35, 0xb9, 0x0d, 0x3e,
  0xf2, 0x6a, 0xe0, 0x3d, 0xe9, 0x20, 0x4d, 0xbf, 0x7c, 0x5b, 0x0f, 0x3e,
  0xd1, 0x79, 0x74, 0x3c, 0x1b, 0x7a, 0x75, 0xbd, 0xf5, 0xcd, 0xd8, 0x3c,
  0x53, 0x97, 0xeb, 0x3e, 0x95, 0xc6, 0x9c, 0x3c, 0xb9, 0x86, 0xa0, 0xbe,
  0x60, 0x56, 0x16, 0x3f, 0x06, 0x52, 0x2c, 0xbf, 0xaf, 0xaa, 0xda, 0x3e,
  0x07, 0xfb, 0x88, 0xbd, 0xe7, 0x86, 0xb4, 0x3c, 0x43, 0xf6, 0xd7, 0xbe,
  0x57, 0x86, 0x4f, 0x3e, 0x27, 0xc9, 0x6e, 0xbf, 0x73, 0xfd, 0xd3, 0x3b,
  0xed, 0x50, 0x07, 0x3e, 0xfa, 0x99, 0xa3, 0x3e, 0x8b, 0xfd, 0x91, 0x3d,
  0x9c, 0x3f, 0xbf, 0xbd, 0x1e, 0x65, 0x85, 0xbe, 0x47, 0x13, 0xd2, 0x3d,
  0x8b, 0x6d, 0x81, 0xbf, 0x8b, 0x90, 0x76, 0xbf, 0x94, 0x88, 0x16, 0xbf,
  0xee, 0xb3, 0x93, 0xbe, 0xa0, 0xce, 0x94, 0x3e, 0x04, 0xc3, 0x2d, 0x3e,
  0x96, 0x25, 0xd4, 0x3c, 0x74, 0x5e, 0x07, 0xbf, 0x46, 0x53, 0x09, 0x3e,
  0x6b, 0x8a, 0x7f, 0x3d, 0x1d, 0xdb, 0x62, 0x3f, 0x20, 0x14, 0x91, 0xbd,
  0xe3, 0x97, 0x0d, 0xbf, 0xe6, 0x96, 0x04, 0xbf, 0x0a, 0xe1, 0xa2, 0x3d,
  0x48, 0xff, 0x46, 0xbc, 0x14, 0x40, 0x21, 0xbf, 0xb4, 0x20, 0x26, 0xbd,
  0xd5, 0x7a, 0x0c, 0xbf, 0xe9, 0xd2, 0xd2, 0x3e, 0xc1, 0xc7, 0x23, 0xbe,
  0x3b, 0xfd, 0xab, 0x3e, 0x11, 0x4b, 0x02, 0x3f, 0x81, 0xfc, 0x5f, 0xbd,
  0xb2, 0x9a, 0x7a, 0xbf, 0x38, 0xa3, 0xea, 0xbd, 0x70, 0x06, 0x64, 0xbe,
  0x3f, 0xbe, 0xac, 0x3d, 0x16, 0x50, 0x06, 0x3f, 0xb5, 0x7a, 0x4f, 0xbe,
  0x1c, 0x5b, 0xad, 0xbf, 0x00, 0xbe, 0xc0, 0xbe, 0xdb, 0x5e, 0x32, 0x3e,
  0x38, 0x57, 0x96, 0x3e, 0x3b, 0x00, 0x45, 0x3f, 0xe0, 0x1e, 0x14, 0xbf,
  0xd3, 0x33, 0xc9, 0xbe, 0x03, 0x56, 0x98, 0x3e, 0x36, 0x4b, 0x25, 0xbd,
  0x1d, 0xdc, 0x96, 0xbd, 0xc8, 0x1a, 0xb6, 0xbe, 0x7d, 0xea, 0x3c, 0x3e,
  0xa6, 0x9f, 0x19, 0xbf, 0x4d, 0xbb, 0xef, 0xbd, 0x74, 0xef, 0x08, 0x3e,
  0x67, 0xac, 0x2e, 0x3e, 0x2d, 0xe9, 0x91, 0xbe, 0x79, 0xd1, 0xf2, 0x3d,
  0xc0, 0x60, 0x3c, 0x3f, 0x12, 0x55, 0x35, 0xbf, 0x8d, 0x5b, 0x8a, 0xbe,
  0x98, 0xd5, 0x09, 0xbe, 0x62, 0x6d, 0x5c, 0xbf, 0x71, 0x33, 0x2f, 0x3d,
  0x58, 0x95, 0xce, 0xbf, 0x49, 0xd2, 0x92, 0x3e, 0x3d, 0xe4, 0x49, 0xbf,
  0xec, 0xb7, 0x3f, 0xbe, 0x4a, 0x3a, 0x57, 0x3f, 0xa9, 0x38, 0xfe, 0xbe,
  0x2e, 0xc1, 0xd6, 0x3e, 0x65, 0xb3, 0x0a, 0x3f, 0x21, 0x0f, 0xcd, 0xbe,
  0x1e, 0x9a, 0x1f, 0xbe, 0x92, 0x5d, 0xe7, 0xbd, 0x6e, 0x2b, 0xab, 0xbe,
  0xff, 0xd0, 0xdf, 0xbe, 0x4a, 0x95, 0xa3, 0xbd, 0x96, 0xe6, 0x1c, 0xbe,
  0x24, 0x8d, 0x98, 0x3d, 0x66, 0xdb, 0x14, 0x3e, 0x37, 0x0c, 0x6d, 0x3e,
  0xed, 0x2f, 0x95, 0x3d, 0x3a, 0xcc, 0xcb, 0x3d, 0x71, 0x6e, 0xe9, 0x3e,
  0xa7, 0x48, 0xfd, 0xbd, 0xda, 0x7f, 0xae, 0xbe, 0x34, 0xe8, 0xf5, 0x3c,
  0x7f, 0x6e, 0x94, 0xbe, 0xb6, 0x6e, 0xd7, 0x3e, 0xac, 0xbd, 0x5d, 0xbf,
  0xcc, 0xf1, 0x22, 0xbf, 0xea, 0x60, 0x8e, 0xbf, 0xd4, 0x43, 0x3f, 0x3c,
  0x71, 0xfe, 0x0a, 0x3e, 0x31, 0xf2, 0x63, 0x3e, 0xfd, 0x42, 0xbc, 0xbe,
  0xa0, 0x57, 0x22, 0xbd, 0x4f, 0xec, 0xac, 0xbe, 0x82, 0x88, 0x42, 0xbd,
  0x6c, 0xe9, 0xce, 0x3d, 0x60, 0x72, 0xe2, 0xbe, 0x7c, 0x18, 0x89, 0x3e,
  0x59, 0xec, 0x8f, 0xbf, 0x08, 0xdb, 0x1a, 0xbe, 0x64, 0x4d, 0x34, 0xbe,
  0x39, 0x1b, 0xe3, 0x3a, 0x2b, 0x38, 0xa4, 0xbe, 0x20, 0x65, 0xf7, 0x3d,
  0xb4, 0xae, 0x3d, 0xbe, 0x87, 0xc4, 0xe7, 0xbe, 0xcb, 0x38, 0x84, 0xbe,
  0x3b, 0xf7, 0x50, 0xbe, 0x75, 0x29, 0x0a, 0x3f, 0x8f, 0x73, 0x07, 0xbf,
  0x05, 0xcd, 0xf6, 0xbe, 0x1a, 0x4d, 0xb0, 0x3d, 0xa0, 0x63, 0xe6, 0xbe,
  0x0a, 0xda, 0xf1, 0x3e, 0x13, 0x72, 0x98, 0x3e, 0xa2, 0x49, 0x74, 0xbf,
  0x61, 0x89, 0x5a, 0x3e, 0x46, 0xdf, 0xe0, 0x3d, 0xae, 0xfb, 0x23, 0xbe,
  0x7e, 0x3e, 0x8c, 0x3e, 0xec, 0x57, 0x87, 0xbe, 0xb1, 0x18, 0x8e, 0xbe,
  0x9b, 0x11, 0xf2, 0xbe, 0x6a, 0xc2, 0x77, 0x3e, 0xe3, 0xcf, 0xb3, 0xbe,
  0x50, 0x95, 0x0b, 0xbf, 0x03, 0x7d, 0x42, 0x3f, 0x43, 0x12, 0x85, 0xbe,
  0x68, 0x9b, 0x9b, 0xbe, 0x58, 0x9d, 0xd4, 0x3d, 0x49, 0x66, 0x97, 0xbe,
  0xdd, 0x27, 0x0a, 0x3f, 0xee, 0xe9, 0xff, 0x3c, 0x5c, 0xcd, 0x4f, 0xbf,
  0x72, 0xde, 0x8d, 0xbe, 0x6d, 0xc5, 0x43, 0x3d, 0x3a, 0x4d, 0x1a, 0x3e,
  0x36, 0x4f, 0x83, 0x3e, 0x34, 0xa9, 0x9a, 0xbc, 0x71, 0xd7, 0x3b, 0xbe,
  0xee, 0xe3, 0xa1, 0x3d, 0x10, 0xf9, 0x7e, 0xbf, 0xdf, 0x61, 0xe7, 0xbd,
  0x23, 0x4f, 0xfc, 0xbd, 0x35, 0x8b, 0x2e, 0xbe, 0x3d, 0x51, 0xc4, 0xbe,
  0xe6, 0x52, 0xc5, 0xbe, 0x8f, 0xae, 0xb9, 0xbd, 0x8d, 0xfd, 0x34, 0xbf,
  0x3b, 0x6e, 0x3d, 0x3f, 0xf2, 0x6f, 0x00, 0xbf, 0x66, 0x1d, 0xa2, 0x3d,
  0xcf, 0xca, 0x88, 0x3d, 0x08, 0x06, 0xd0, 0xbe, 0xfd, 0x8c, 0x9b, 0xbe,
  0xaa, 0xd1, 0x6f, 0xbe, 0xf4, 0xfa, 0x32, 0xbd, 0xb8, 0x2f, 0x25, 0x3f,
  0xd0, 0xe4, 0xd2, 0xbe, 0x6e, 0x8e, 0x1e, 0x3f, 0x93, 0xef, 0x3c, 0xbe,
  0x35, 0x66, 0x8c, 0x3d, 0x6e, 0x04, 0x94, 0x3e, 0x2b, 0xdf, 0x2d, 0x3f,
  0x07, 0xed, 0xbc, 0xbe, 0xec, 0xcf, 0x78, 0x3e, 0x15, 0x91, 0x02, 0x3f,
  0xd1, 0x2a, 0xe0, 0xbe, 0xdf, 0x2c, 0x05, 0x3e, 0x02, 0x8f, 0x47, 0xbd,
  0x22, 0x75, 0x2b, 0xbf, 0xdf, 0x2a, 0xad, 0xbd, 0x9a, 0x02, 0x79, 0x3e,
  0x36, 0xe4, 0x59, 0x3e, 0x0f, 0x5d, 0x32, 0xbd, 0xca, 0x21, 0x98, 0x3e,
  0xb2, 0xd6, 0x15, 0x3c, 0x49, 0x77, 0xa7, 0x3c, 0xd2, 0x62, 0x11, 0x3f,
  0x7d, 0x6e, 0x87, 0xbf, 0x7b, 0x1e, 0xc4, 0xbc, 0xd4, 0x18, 0xd4, 0xbd,
  0x2a, 0xce, 0xb1, 0x3e, 0x93, 0x36, 0x13, 0xbf, 0xb6, 0x24, 0x60, 0xbe,
  0x01, 0x5e, 0x99, 0x3e, 0x94, 0xac, 0xc4, 0xbc, 0x97, 0x1f, 0x97, 0xbf,
  0x5e, 0x90, 0x16, 0x3e, 0x21, 0x09, 0x63, 0x3f, 0xe7, 0x44, 0x20, 0xbf,
  0x24, 0x6d, 0x02, 0x3f, 0x28, 0x74, 0x12, 0xbf, 0x6b, 0x27, 0x0e, 0xbf,
  0x8a, 0xab, 0x2c, 0x3f, 0x10, 0xba, 0xb7, 0x3e, 0xcf, 0x0c, 0x83, 0x3c,
  0xe2, 0x32, 0x82, 0x3e, 0x57, 0x12, 0x36, 0x3f, 0xc4, 0x2f, 0x9c, 0xbe,
  0x19, 0x81, 0x2b, 0x3e, 0xd7, 0x7a, 0xd7, 0x3c, 0x36, 0x6e, 0xab, 0xbe,
  0xf7, 0x14, 0x8b, 0x3e, 0xef, 0x28, 0x2c, 0x3e, 0x4e, 0x0e, 0x3f, 0x3e,
  0xfa, 0x8c, 0x0a, 0xbf, 0x6f, 0x44, 0x63, 0xbf, 0x73, 0xa1, 0x9f, 0x3e,
  0x57, 0x89, 0xa4, 0xbc, 0x01, 0x85, 0x25, 0x3e, 0xcf, 0x63, 0x6d, 0x3e,
  0xf2, 0x28, 0xba, 0x3d, 0x6b, 0x29, 0xa6, 0x3e, 0xa7, 0xe8, 0x0b, 0x3f,
  0xdf, 0x1d, 0xd7, 0xbe, 0x66, 0x5c, 0xb4, 0x3e, 0x9d, 0x58, 0x83, 0x3e,
  0x42, 0xb7, 0x0f, 0xbf, 0x10, 0x26, 0x90, 0xbe, 0x8d, 0x0f, 0x59, 0xbf,
  0x8f, 0x10, 0x10, 0x3f, 0x1a, 0x66, 0x2c, 0x3d, 0x99, 0xb0, 0xc9, 0x3e,
  0x7e, 0x7b, 0xe9, 0x3d, 0xeb, 0x13, 0x63, 0xbf, 0x47, 0x43, 0x46, 0xbf,
  0xf7, 0xb8, 0xc4, 0x3e, 0x03, 0xc6, 0x7a, 0xbe, 0x02, 0x40, 0x30, 0xbf,
  0x04, 0x68, 0x89, 0xbe, 0x67, 0x47, 0x38, 0x3f, 0x73, 0xe1, 0xa0, 0x3d,
  0x8e, 0xd3, 0x79, 0x3c, 0x6d, 0x50, 0x45, 0x3e, 0xdc, 0xbf, 0x03, 0xbf,
  0x4a, 0xcf, 0x55, 0xbe, 0x57, 0xf5, 0xfb, 0x3e, 0xc8, 0x89, 0xe2, 0xbd,
  0x51, 0xbc, 0x41, 0x3f, 0xa2, 0x38, 0x8f, 0xbd, 0xcc, 0x2a, 0xfe, 0xbd,
  0x30, 0x20, 0x06, 0x3c, 0xf6, 0xc3, 0x24, 0xbf, 0xbb, 0xc1, 0x73, 0xbe,
  0xf1, 0x9a, 0x35, 0x3e, 0xc8, 0x9e, 0x5d, 0x3d, 0x97, 0x8c, 0xd8, 0x3d,
  0x6d, 0x54, 0x94, 0xbe, 0xe5, 0x74, 0xd4, 0xbe, 0xcb, 0xb3, 0x1f, 0xbe,
  0x78, 0x4c, 0xd9, 0x3e, 0x8e, 0x71, 0x5d, 0xbe, 0xeb, 0x2d, 0x1d, 0x3e,
  0xa1, 0x8a, 0x2e, 0xbf, 0x02, 0x0b, 0x02, 0x3d, 0xd3, 0x94, 0xbd, 0x3e,
  0x07, 0xf7, 0x36, 0x3d, 0x4a, 0x7b, 0x24, 0x3e, 0x8c, 0x5b, 0x06, 0xbe,
  0x26, 0x0c, 0x82, 0x3e, 0xc6, 0xfd, 0x5d, 0xbf, 0xef, 0xcb, 0x93, 0x3d,
  0x01, 0x6b, 0x1b, 0xbf, 0x42, 0xf1, 0xb0, 0x3c, 0xa9, 0x15, 0x56, 0x3e,
  0x63, 0x54, 0xbd, 0x3e, 0x2a, 0x8b, 0xbe, 0xbf, 0xee, 0xb2, 0xf8, 0xbc,
  0x9d, 0x41, 0x80, 0x3e, 0x58, 0x7d, 0x98, 0xbf, 0x6f, 0xb8, 0x49, 0xbe,
  0x12, 0x28, 0x81, 0x3e, 0x5d, 0x38, 0x12, 0xbf, 0x86, 0x25, 0xcc, 0x3e,
  0xaf, 0x06, 0xaa, 0xbf, 0x5a, 0x95, 0x8e, 0xbe, 0x1d, 0xc1, 0xe4, 0xbe,
  0xff, 0x34, 0x0a, 0xbf, 0x47, 0x14, 0x9a, 0xbe, 0x33, 0xe6, 0x1f, 0xbd,
  0xff, 0xe6, 0x50, 0xbe, 0x30, 0x71, 0xa6, 0x3e, 0x56, 0x6a, 0x2c, 0xbf,
  0xa7, 0x46, 0xaf, 0xbe, 0xd5, 0x94, 0x42, 0x3f, 0x30, 0x6b, 0x77, 0xbe,
  0x10, 0xb5, 0x3b, 0x3f, 0x01, 0x70, 0x76, 0x3d, 0x28, 0x9d, 0x2f, 0xbf,
  0x28, 0x43, 0xe6, 0x3e, 0x9b, 0x02, 0xc1, 0xbe, 0xd2, 0x19, 0xb8, 0xbc,
  0x72, 0x2c, 0x5b, 0xbf, 0x1c, 0xa4, 0x7c, 0x3e, 0x63, 0xd5, 0x16, 0xbf,
  0x21, 0xe7, 0x9b, 0xbe, 0x0f, 0xdf, 0xe0, 0x3e, 0x58, 0x97, 0x96, 0xbc,
  0x42, 0x4a, 0x4b, 0xbf, 0x38, 0xdd, 0xed, 0xbd, 0xba, 0x4d, 0xa1, 0x3e,
  0xef, 0x82, 0x1b, 0xbf, 0xc5, 0xf6, 0xc2, 0xbe, 0x3d, 0x66, 0x18, 0x3e,
  0xd5, 0x24, 0x59, 0x3b, 0x0e, 0xf3, 0x9f, 0x3e, 0x4e, 0xb6, 0x5c, 0xbe,
  0x56, 0xf2, 0xe3, 0x3e, 0x76, 0x29, 0x5b, 0xbe, 0x0d, 0x52, 0x9b, 0x3e,
  0x64, 0x1c, 0x0a, 0xbf, 0x62, 0xd3, 0x58, 0x3e, 0xe5, 0x55, 0xa7, 0xbd,
  0xc1, 0xca, 0xa6, 0x3e, 0x45, 0x5f, 0x1c, 0x3f, 0x35, 0xa7, 0x8e, 0xbd,
  0x9e, 0x76, 0xed, 0xbd, 0xf7, 0x13, 0x3c, 0x3f, 0x42, 0x2d, 0x82, 0xbf,
  0x5e, 0xa3, 0x0c, 0x3e, 0x19, 0x59, 0xc3, 0x3e, 0x9a, 0x97, 0x29, 0xbe,
  0xd3, 0xb9, 0xc0, 0x3e, 0x90, 0xa8, 0xcb, 0x3e, 0x13, 0x38, 0x9c, 0xbe,
  0xd0, 0x24, 0x1f, 0x3e, 0x91, 0x3c, 0x29, 0xbf, 0xe1, 0x89, 0xcb, 0x3d,
  0xba, 0x54, 0xfd, 0x3a, 0x54, 0xee, 0x94, 0x3d, 0xd6, 0x46, 0x3b, 0x3f,
  0x6e, 0x3b, 0x8d, 0xbe, 0x82, 0xfe, 0x1d, 0x3f, 0xe1, 0x79, 0xb5, 0x3b,
  0xf0, 0x00, 0x74, 0xbe, 0x45, 0x19, 0xdc, 0x3d, 0xaa, 0xb1, 0x4f, 0x3e,
  0x0a, 0xc2, 0x7a, 0xbf, 0xcc, 0x48, 0x57, 0xbe, 0x6c, 0xce, 0x9a, 0xbd,
  0x27, 0xaf, 0x5a, 0xbf, 0x91, 0xb1, 0x5c, 0xbf, 0x5f, 0x06, 0x14, 0xbf,
  0x77, 0x56, 0xce, 0xbd, 0x63, 0xe9, 0x32, 0x3e, 0x43, 0x96, 0x15, 0x3e,
  0xfd, 0xfa, 0x39, 0x3e, 0x76, 0x0a, 0x81, 0x3d, 0x49, 0xaf, 0xcb, 0x3e,
  0x7b, 0x69, 0xce, 0x3e, 0xdb, 0xc5, 0x1f, 0xbe, 0x9d, 0x78, 0x67, 0xbf,
  0x40, 0x1f, 0x00, 0xba, 0xde, 0x8e, 0x7b, 0xbe, 0xc6, 0x21, 0x89, 0x3f,
  0xfb, 0x3e, 0x00, 0xbe, 0x1f, 0xc9, 0x76, 0x3f, 0x69, 0x63, 0x18, 0xbe,
  0x02, 0xca, 0xad, 0xbe, 0x7a, 0xab, 0x70, 0x3e, 0x82, 0x8a, 0x81, 0x3e,
  0x77, 0x41, 0x08, 0xbf, 0x4a, 0xc7, 0xe2, 0x3d, 0xe5, 0xb5, 0xc1, 0x3e,
  0xec, 0x7d, 0x25, 0xbf, 0x62, 0x75, 0x4b, 0x3e, 0xf4, 0x82, 0x26, 0xbf,
  0x3a, 0xfe, 0xe1, 0xbe, 0x96, 0x05, 0x11, 0x3f, 0x51, 0x8f, 0x30, 0xbe,
  0xb4, 0x5e, 0x2c, 0x3e, 0xbf, 0x00, 0xed, 0xbd, 0x8e, 0x57, 0x70, 0x3e,
  0xec, 0xb1, 0x2f, 0x3f, 0x68, 0xa6, 0xd5, 0xbe, 0x39, 0xf6, 0x83, 0x3e,
  0xeb, 0xc0, 0x11, 0x3e, 0x40, 0x66, 0xed, 0xbe, 0xda, 0x17, 0x12, 0xbf,
  0xb8, 0x7d, 0xc9, 0xbd, 0xff, 0x00, 0x00, 0xbf, 0xae, 0x10, 0x0c, 0xbe,
  0x6c, 0x8b, 0x6f, 0x3e, 0x12, 0x12, 0x53, 0xbc, 0x5e, 0xd9, 0x0d, 0xbd,
  0xb4, 0x8a, 0xc9, 0xbe, 0xe1, 0x91, 0x16, 0xbe, 0xe6, 0xfb, 0xbc, 0xbe,
  0xa6, 0x51, 0x2e, 0x3f, 0x01, 0x12, 0x54, 0xbf, 0x82, 0xf1, 0xc8, 0x3b,
  0x1c, 0x72, 0x31, 0xbe, 0xd6, 0xac, 0xd2, 0xbe, 0xc1, 0x63, 0x54, 0x3e,
  0xd3, 0xf8, 0xba, 0xbe, 0xe0, 0x9d, 0x2d, 0xbe, 0x71, 0x20, 0x60, 0x3e,
  0x99, 0x0a, 0x49, 0x3d, 0x97, 0xc2, 0x61, 0x3e, 0x9a, 0xd5, 0xb3, 0xbe,
  0xfa, 0x53, 0x8c, 0xbc, 0x0e, 0x25, 0x95, 0x3e, 0x1b, 0xac, 0x2a, 0x3f,
  0x24, 0xd9, 0xbd, 0xbe, 0xe6, 0xc2, 0xdb, 0xbe, 0xc1, 0xc8, 0xa1, 0x3c,
  0xe3, 0x23, 0xed, 0xbe, 0x45, 0x31, 0xaa, 0xbe, 0x6d, 0x0f, 0xf9, 0xbc,
  0xa9, 0xb5, 0x6a, 0xbe, 0x5d, 0xb3, 0xb4, 0xbe, 0x60, 0x13, 0x07, 0x3c,
  0x3a, 0xc3, 0x28, 0x3f, 0x7a, 0x6f, 0xe4, 0xbf, 0x02, 0xd1, 0xf6, 0x3e,
  0xe1, 0xa1, 0x50, 0x3e, 0x6d, 0x57, 0x16, 0x3d, 0xe1, 0xcd, 0xfd, 0x3d,
  0x5d, 0xa9, 0x14, 0xbf, 0x1f, 0xb6, 0x5e, 0xbe, 0xb8, 0x88, 0x26, 0x3f,
  0x2a, 0x7c, 0xa2, 0x3e, 0xc7, 0x36, 0xb6, 0xbe, 0x72, 0x68, 0x08, 0xbf,
  0x42, 0x5d, 0xc0, 0x3d, 0x98, 0x16, 0xa0, 0xbe, 0xea, 0x16, 0x05, 0x3f,
  0xa3, 0x93, 0xbf, 0xbe, 0x37, 0x54, 0x28, 0x3e, 0xcf, 0xdb, 0xc9, 0xbd,
  0xb2, 0x15, 0x93, 0x3e, 0xe4, 0xf8, 0x5b, 0x3c, 0xfd, 0x5d, 0x04, 0xbf,
  0x44, 0x75, 0xe1, 0xbe, 0xe5, 0xa3, 0xf1, 0xbe, 0x35, 0x74, 0x2f, 0x3e,
  0x46, 0x8c, 0x7e, 0xbe, 0x5b, 0xdd, 0x69, 0xbf, 0x10, 0xc5, 0x71, 0x3e,
  0xba, 0x47, 0xb7, 0x3d, 0xb3, 0xf1, 0x41, 0x3d, 0x3f, 0xfc, 0x1c, 0xbd,
  0xfc, 0x98, 0xdb, 0xbe, 0xe1, 0xd5, 0xef, 0xbc, 0x71, 0x60, 0x9c, 0x3e,
  0x20, 0x35, 0x2a, 0x3e, 0x68, 0x6d, 0x27, 0xbf, 0xfc, 0x62, 0x09, 0x3e,
  0x24, 0x89, 0x3b, 0xbd, 0x28, 0x49, 0x01, 0xbf, 0x44, 0x21, 0xaf, 0xbd,
  0x1e, 0x8e, 0x6d, 0x3d, 0xda, 0xc8, 0xf2, 0x3d, 0x2d, 0xb7, 0x96, 0xbe,
  0x56, 0x1a, 0xa3, 0x3e, 0x2f, 0x61, 0xf0, 0x3d, 0x34, 0x77, 0x09, 0xbf,
  0x96, 0x17, 0xd6, 0x3e, 0x67, 0x2a, 0xda, 0x3e, 0x06, 0x4c, 0x4d, 0x3e,
  0x65, 0xd7, 0x98, 0xbf, 0x4b, 0x0f, 0xba, 0xbe, 0xbe, 0xe2, 0xfd, 0xbe,
  0xa1, 0xd3, 0xaf, 0x3e, 0x16, 0x82, 0xf3, 0x3e, 0xb0, 0x45, 0xce, 0x3e,
  0x28, 0xa6, 0x38, 0xbd, 0xbb, 0x03, 0x27, 0xbe, 0x69, 0x8f, 0x4d, 0xbe,
  0x7b, 0x01, 0x54, 0x3e, 0x00, 0x56, 0x30, 0xbf, 0x93, 0x2a, 0x03, 0x3e,
  0xe7, 0x47, 0x29, 0xbe, 0x2b, 0x90, 0x91, 0xbe, 0xb4, 0xdc, 0x43, 0xbf,
  0x65, 0x97, 0xdf, 0x3e, 0x2f, 0xc6, 0x7e, 0xbf, 0xf0, 0x88, 0xa7, 0xbe,
  0x15, 0xbd, 0xca, 0xbe, 0x8f, 0xc0, 0x56, 0x3c, 0x0c, 0xd9, 0x92, 0x3e,
  0x65, 0x53, 0xf9, 0x3e, 0xa3, 0x5f, 0x0d, 0x3e, 0x54, 0x95, 0xae, 0xbe,
  0x40, 0x7a, 0xe1, 0x36, 0x73, 0xd8, 0x20, 0x3f, 0x81, 0x2d, 0x6b, 0xbc,
  0x3f, 0x03, 0x6f, 0x3d, 0x17, 0xc7, 0x6e, 0xbc, 0x1f, 0x04, 0x6e, 0xbe,
  0x84, 0x99, 0xdc, 0x3e, 0xc2, 0x60, 0x6a, 0x3e, 0x93, 0xbc, 0xbe, 0x3c,
  0x6d, 0x29, 0x07, 0xbe, 0x0e, 0xfc, 0xb2, 0xbf, 0x10, 0xb7, 0x7d, 0xbe,
  0x71, 0x9d, 0x85, 0xbd, 0x82, 0x45, 0x3f, 0xbe, 0xb6, 0xb5, 0xb2, 0x3e,
  0xde, 0xbc, 0xa5, 0x3e, 0x2f, 0xc9, 0xc6, 0x3d, 0x6c, 0x9f, 0x90, 0xbe,
  0x83, 0x45, 0x25, 0xbf, 0xfe, 0xfd, 0x15, 0xbe, 0xcd, 0x75, 0xaf, 0x3d,
  0x50, 0x83, 0x5e, 0x3d, 0x6f, 0xbb, 0xe8, 0xbe, 0x65, 0x39, 0xa5, 0xbd,
  0xd6, 0xac, 0x11, 0x3f, 0xeb, 0xa0, 0x04, 0x3f, 0x7c, 0x1f, 0xda, 0x3e,
  0x94, 0xbb, 0x2a, 0xbe, 0x61, 0xb6, 0xa4, 0x3d, 0xa5, 0x6f, 0xd9, 0xbd,
  0x54, 0x6c, 0x01, 0xbf, 0xea, 0xc6, 0x90, 0x3d, 0x0e, 0xf7, 0x93, 0x3d,
  0x63, 0x7a, 0x15, 0xbf, 0x29, 0x37, 0x5a, 0xbd, 0x98, 0x6b, 0xe3, 0xbe,
  0xf2, 0xc5, 0xe9, 0x3d, 0xf0, 0x08, 0xe7, 0x3e, 0x41, 0xed, 0x95, 0x3d,
  0xae, 0x3b, 0xd0, 0x3e, 0xb3, 0x9e, 0xe4, 0xbe, 0xd6, 0x2d, 0xf8, 0x3e,
  0x72, 0x8a, 0x2f, 0xbf, 0x04, 0xf5, 0x97, 0xbd, 0x6e, 0xd5, 0x42, 0x3e,
  0x28, 0x95, 0xae, 0x3e, 0x9a, 0xa5, 0x54, 0xbe, 0x79, 0x88, 0x76, 0xbc,
  0xbe, 0x69, 0x77, 0x3e, 0x9c, 0x78, 0x17, 0xbf, 0xda, 0x39, 0x7e, 0x3e,
  0x63, 0xc7, 0x39, 0x3e, 0x5e, 0xac, 0xc9, 0xbe, 0x82, 0x0b, 0xbc, 0xbe,
  0x1d, 0x63, 0x8a, 0xbe, 0x2b, 0xc9, 0x8c, 0xbe, 0xbe, 0x3b, 0x16, 0xbf,
  0x11, 0x7b, 0x06, 0x3f, 0xcb, 0x32, 0xcf, 0xbe, 0x4a, 0x92, 0x21, 0xbf,
  0xaf, 0xdb, 0xfd, 0x3d, 0x64, 0x40, 0x00, 0xbf, 0x43, 0xb2, 0x75, 0x3f,
  0x80, 0xc2, 0x09, 0xbf, 0xc7, 0xac, 0x08, 0x3f, 0x39, 0xf2, 0x77, 0x3d,
  0x31, 0x23, 0xac, 0x3d, 0xd4, 0x74, 0xd2, 0x3d, 0x65, 0xf6, 0xa9, 0x3d,
  0x8f, 0xd3, 0x9c, 0xbf, 0xd5, 0x57, 0x59, 0x3d, 0x4c, 0x18, 0x20, 0xbe,
  0xb8, 0xf9, 0x43, 0xbf, 0x6d, 0xc9, 0x70, 0xbd, 0x65, 0x2c, 0xb1, 0x3c,
  0xba, 0xe4, 0x83, 0x3e, 0xd8, 0x09, 0xdb, 0xbc, 0xb2, 0xcc, 0x75, 0x3d,
  0x54, 0xa4, 0xbc, 0xbe, 0xb1, 0xb0, 0xcc, 0xbe, 0x71, 0x78, 0x10, 0x3e,
  0x27, 0x9b, 0x9a, 0x3d, 0xb6, 0x37, 0xf3, 0xbd, 0x9a, 0x93, 0x97, 0x3e,
  0xb4, 0xb1, 0x2c, 0xbe, 0xd7, 0x77, 0x18, 0x3e, 0x56, 0x7d, 0x07, 0xbf,
  0x19, 0x4e, 0x84, 0x3e, 0x7c, 0x49, 0x22, 0xbf, 0x65, 0x1a, 0xca, 0x3e,
  0xfe, 0x9b, 0x54, 0x3d, 0xcc, 0xc2, 0xbd, 0x3a, 0xda, 0xa9, 0x74, 0x3e,
  0x3a, 0xe5, 0x42, 0xbe, 0xb1, 0x58, 0x5e, 0x3e, 0xa8, 0xaa, 0x2c, 0x3e,
  0xa3, 0x0b, 0xa8, 0x3e, 0x8b, 0x23, 0x19, 0xbf, 0xc6, 0xc9, 0xe2, 0xbe,
  0x4d, 0x3a, 0x13, 0x3f, 0x79, 0x2d, 0x56, 0xbe, 0x9d, 0x45, 0xbd, 0x3d,
  0x48, 0x1d, 0xf9, 0xbe, 0x08, 0x5d, 0xb8, 0x3e, 0x30, 0x74, 0x87, 0xbf,
  0xcb, 0x22, 0x0d, 0x3c, 0x61, 0x1d, 0x80, 0xbf, 0xb6, 0xa7, 0x01, 0x3d,
  0xd7, 0xb6, 0x0b, 0x3d, 0x28, 0x9b, 0xd2, 0x3c, 0xb9, 0x4d, 0xdc, 0x3e,
  0xb9, 0xd8, 0x52, 0xbe, 0x38, 0x3b, 0x31, 0x3f, 0xa8, 0x3c, 0x01, 0x3e,
  0xd2, 0xf2, 0xd4, 0x3d, 0xa3, 0x76, 0xe9, 0x3e, 0x19, 0xb6, 0x52, 0x3e,
  0xce, 0x09, 0xff, 0xbe, 0x7e, 0x0a, 0xb3, 0xbc, 0xb2, 0xf2, 0x54, 0xbe,
  0x33, 0x77, 0x31, 0xbf, 0xc8, 0x6e, 0x9e, 0x3d, 0x13, 0x9f, 0x0b, 0x3f,
  0xbc, 0x96, 0xb1, 0xbd, 0xe5, 0x34, 0xc4, 0x3e, 0xb1, 0x7d, 0x6b, 0xbd,
  0x38, 0xbe, 0x33, 0xbd, 0x2a, 0xf4, 0x6c, 0xbd, 0xaf, 0xf2, 0xaf, 0xbe,
  0xec, 0x8c, 0x3b, 0xbc, 0xda, 0xee, 0x8a, 0xbf, 0xc5, 0x85, 0x36, 0x3f,
  0x43, 0xe9, 0xda, 0xbd, 0xa9, 0x2b, 0xb0, 0xbe, 0x8f, 0x9b, 0x6a, 0xbf,
  0xd4, 0x43, 0x3d, 0x3e, 0x7c, 0xae, 0xa3, 0xbf, 0x01, 0xb3, 0x3e, 0x3e,
  0x60, 0x07, 0x5f, 0x3c, 0x61, 0xc9, 0xa3, 0xbd, 0xe0, 0xbe, 0x81, 0x3e,
  0xa8, 0xf8, 0x82, 0xbd, 0x7f, 0x71, 0x54, 0x3e, 0x39, 0xc4, 0x1b, 0x3c,
  0x6b, 0xfd, 0x0a, 0xbf, 0xed, 0xec, 0xd4, 0xbb, 0x7c, 0x5f, 0xfe, 0xbd,
  0xf7, 0x54, 0xd3, 0xbd, 0x0d, 0xac, 0x75, 0x3b, 0x70, 0x37, 0x7c, 0xbc,
  0x6b, 0xc8, 0xfc, 0xbe, 0xdd, 0xe2, 0x71, 0xbd, 0xf9, 0x97, 0xb9, 0xbc,
  0x80, 0x57, 0xdc, 0xbd, 0x61, 0xe0, 0x82, 0xbe, 0xe8, 0x0d, 0x1d, 0x3e,
  0x23, 0x75, 0x13, 0x3c, 0xbb, 0xe1, 0xa2, 0x3e, 0x72, 0x95, 0x7f, 0xbf,
  0x87, 0x21, 0xd5, 0x3e, 0xae, 0xe4, 0x68, 0xbf, 0x8f, 0x0d, 0x52, 0xbe,
  0x13, 0xa6, 0x97, 0xbe, 0xa5, 0x24, 0x4a, 0x3d, 0x8f, 0x3d, 0x31, 0x3e,
  0xdb, 0x01, 0x32, 0x3e, 0xa0, 0x85, 0xb9, 0x3e, 0xcf, 0xc0, 0xb3, 0x3d,
  0xde, 0xf5, 0x3a, 0xbf, 0xd5, 0x3f, 0x41, 0x3e, 0x7a, 0xcc, 0x1a, 0xbf,
  0x30, 0x4c, 0xe9, 0x3d, 0x51, 0x33, 0x96, 0x3d, 0xae, 0x29, 0x55, 0xbe,
  0xa0, 0x5c, 0x0f, 0x3f, 0x48, 0x94, 0x98, 0x3e, 0xf2, 0x3d, 0x50, 0xbe,
  0x5b, 0x05, 0x15, 0x3f, 0xc1, 0x0e, 0x7e, 0xbf, 0x91, 0x6f, 0xe4, 0x3d,
  0x0d, 0x9e, 0xcb, 0x3d, 0x16, 0x20, 0x61, 0x3e, 0x92, 0x7c, 0x5b, 0x3e,
  0x36, 0xdf, 0x32, 0xbe, 0xef, 0x69, 0x57, 0xbe, 0xc2, 0x62, 0x17, 0x3d,
  0x4d, 0x70, 0xb0, 0xbf, 0x71, 0x16, 0x04, 0x3f, 0x86, 0x52, 0xe4, 0x3e,
  0xc6, 0xa1, 0xfc, 0xbd, 0xf9, 0xd0, 0x4d, 0xbe, 0x68, 0xd7, 0xd8, 0xbe,
  0x34, 0xe4, 0xbb, 0x3e, 0xea, 0x2a, 0x5e, 0x3e, 0xd4, 0xfd, 0x8a, 0x3e,
  0x78, 0x5d, 0xa4, 0xbe, 0x03, 0x3b, 0x4a, 0xbf, 0x5c, 0x0b, 0x9f, 0xbe,
  0xb1, 0x14, 0x4f, 0x3e, 0xa2, 0x6b, 0xfa, 0xbe, 0xbc, 0x36, 0xcf, 0x3e,
  0x73, 0xcc, 0x88, 0xbe, 0xd0, 0xe6, 0xa6, 0x3e, 0x15, 0x12, 0x97, 0x3b,
  0xb9, 0xa1, 0x23, 0xbf, 0x99, 0x0b, 0xe2, 0xbd, 0xf0, 0x82, 0x24, 0x3d,
  0x38, 0x17, 0xf6, 0xbe, 0xe9, 0xd5, 0x32, 0x3d, 0xb4, 0xdd, 0x2b, 0x3d,
  0x83, 0xb1, 0x42, 0x3c, 0x4b, 0xea, 0x33, 0x3e, 0xff, 0x92, 0x9f, 0xbe,
  0x9d, 0x16, 0x57, 0x3d, 0x8a, 0xfe, 0xff, 0xff, 0x04, 0x00, 0x00, 0x00,
  0x08, 0x00, 0x00, 0x00, 0xff, 0xff, 0xff, 0xff, 0x48, 0x00, 0x00, 0x00,
  0x9e, 0xfe, 0xff, 0xff, 0x04, 0x00, 0x00, 0x00, 0x28, 0x00, 0x00, 0x00,
  0xb0, 0x86, 0xc4, 0xbc, 0xbe, 0x2f, 0x73, 0x3c, 0xfd, 0x03, 0x9c, 0xbc,
  0xf3, 0x4d, 0xa4, 0x3d, 0x44, 0x90, 0xa3, 0xbb, 0x58, 0xb7, 0x67, 0xbd,
  0xeb, 0xcf, 0x00, 0x3c, 0x8a, 0x25, 0x94, 0xbd, 0xc9, 0x36, 0x3d, 0x3d,
  0x14, 0xd8, 0x8e, 0x3c, 0xd2, 0xfe, 0xff, 0xff, 0x04, 0x00, 0x00, 0x00,
  0x20, 0x01, 0x00, 0x00, 0x22, 0x3f, 0x50, 0x3f, 0x8e, 0xf6, 0x8b, 0x3f,
  0x86, 0xdf, 0x98, 0x3f, 0x16, 0xce, 0x70, 0xbe, 0xd7, 0x24, 0x49, 0xbf,
  0x60, 0xa5, 0x9e, 0x3e, 0x1a, 0x34, 0x4e, 0xbf, 0x7f, 0xa5, 0x7b, 0xbf,
  0xb1, 0x67, 0xdc, 0xbe, 0x6e, 0xe8, 0x86, 0x3e, 0xcb, 0x19, 0x2e, 0x3f,
  0x06, 0x23, 0x31, 0x3f, 0x51, 0x73, 0x3c, 0x3e, 0xa1, 0x2c, 0x7f, 0x3f,
  0x77, 0x3d, 0x75, 0x3f, 0x8d, 0x95, 0xc5, 0x3e, 0x4d, 0x99, 0x09, 0x3f,
  0x2a, 0xf0, 0x24, 0x3f, 0xfb, 0x78, 0x52, 0x3f, 0x3e, 0x3e, 0x4a, 0x3d,
  0x94, 0x83, 0x23, 0xbe, 0x6a, 0xbe, 0x87, 0xbf, 0x79, 0x40, 0xc6, 0xbf,
  0x45, 0x14, 0x4f, 0xbf, 0x05, 0xa7, 0xac, 0x3e, 0x5c, 0x32, 0xcf, 0x3e,
  0xfb, 0xa6, 0x3c, 0x3f, 0x94, 0x7c, 0x31, 0x3f, 0x14, 0xb2, 0xb0, 0xbe,
  0xf3, 0x17, 0x73, 0x3e, 0x1b, 0x1c, 0x00, 0x3f, 0xe0, 0xc7, 0x1b, 0x3f,
  0x05, 0xab, 0x3d, 0x3f, 0xb8, 0xa8, 0x10, 0xbe, 0xbf, 0x5c, 0x63, 0xbf,
  0xd7, 0xaa, 0x78, 0xbf, 0x8e, 0x9e, 0x03, 0xbf, 0x00, 0x1c, 0x9c, 0xbf,
  0x4c, 0xed, 0x2e, 0xbf, 0x9d, 0x6f, 0xab, 0xbe, 0x5c, 0x25, 0x5c, 0xbf,
  0x38, 0x60, 0x24, 0x3f, 0x68, 0x04, 0xf3, 0x3e, 0x47, 0xba, 0x02, 0xbd,
  0x2e, 0x03, 0x0a, 0x3f, 0x2d, 0x45, 0x0f, 0x3e, 0x00, 0xc3, 0x40, 0x3f,
  0xde, 0xd1, 0x99, 0xbe, 0x84, 0x9e, 0x6b, 0xbe, 0x25, 0x8e, 0x06, 0xbf,
  0xaa, 0x45, 0x1e, 0x3f, 0xf7, 0x0a, 0xed, 0x3d, 0xcd, 0xe2, 0x0f, 0xbf,
  0xd2, 0x3b, 0x16, 0x3f, 0xde, 0x56, 0x8a, 0x3e, 0xc3, 0xfa, 0x9d, 0x3f,
  0xb6, 0x50, 0xc6, 0x3e, 0x23, 0x9f, 0x82, 0x3e, 0x72, 0x32, 0x87, 0x3f,
  0x5a, 0x23, 0x01, 0x3e, 0x85, 0xac, 0x04, 0x3e, 0x2f, 0x6d, 0xfc, 0x3c,
  0x58, 0x16, 0x62, 0xbd, 0x3e, 0x3f, 0x17, 0xbf, 0xe0, 0x6a, 0x89, 0xbe,
  0xbd, 0x33, 0x62, 0x3f, 0xc5, 0x97, 0x81, 0xbd, 0x43, 0x98, 0x2a, 0x3f,
  0xd8, 0x9a, 0x7c, 0x3f, 0xe5, 0x37, 0xa5, 0x3e, 0xed, 0x61, 0x86, 0x3f,
  0x3e, 0x61, 0x53, 0x3f, 0x00, 0x00, 0x06, 0x00, 0x08, 0x00, 0x04, 0x00,
  0x06, 0x00, 0x00, 0x00, 0x04, 0x00, 0x00, 0x00, 0x20, 0x00, 0x00, 0x00,
  0x46, 0x70, 0x17, 0x3f, 0xa7, 0x69, 0x80, 0xbd, 0x17, 0x31, 0xff, 0x3e,
  0xcb, 0xd1, 0x84, 0x3e, 0xf0, 0x0e, 0x3a, 0x3f, 0x0d, 0xf2, 0xac, 0x3d,
  0x29, 0x48, 0x7e, 0xbc, 0x2f, 0xbe, 0x0c, 0x3e, 0x60, 0xfa, 0xff, 0xff,
  0x64, 0xfa, 0xff, 0xff, 0x0f, 0x00, 0x00, 0x00, 0x4d, 0x4c, 0x49, 0x52,
  0x20, 0x43, 0x6f, 0x6e, 0x76, 0x65, 0x72, 0x74, 0x65, 0x64, 0x2e, 0x00,
  0x01, 0x00, 0x00, 0x00, 0x14, 0x00, 0x00, 0x00, 0x00, 0x00, 0x0e, 0x00,
  0x18, 0x00, 0x14, 0x00, 0x10, 0x00, 0x0c, 0x00, 0x08, 0x00, 0x04, 0x00,
  0x0e, 0x00, 0x00, 0x00, 0x14, 0x00, 0x00, 0x00, 0x1c, 0x00, 0x00, 0x00,
  0x4c, 0x01, 0x00, 0x00, 0x50, 0x01, 0x00, 0x00, 0x54, 0x01, 0x00, 0x00,
  0x04, 0x00, 0x00, 0x00, 0x6d, 0x61, 0x69, 0x6e, 0x00, 0x00, 0x00, 0x00,
  0x04, 0x00, 0x00, 0x00, 0xe4, 0x00, 0x00, 0x00, 0x80, 0x00, 0x00, 0x00,
  0x48, 0x00, 0x00, 0x00, 0x04, 0x00, 0x00, 0x00, 0x9a, 0xff, 0xff, 0xff,
  0x14, 0x00, 0x00, 0x00, 0x00, 0x00, 0x00, 0x08, 0x10, 0x00, 0x00, 0x00,
  0x14, 0x00, 0x00, 0x00, 0x03, 0x00, 0x00, 0x00, 0xe4, 0xfa, 0xff, 0xff,
  0x01, 0x00, 0x00, 0x00, 0x09, 0x00, 0x00, 0x00, 0x03, 0x00, 0x00, 0x00,
  0x08, 0x00, 0x00, 0x00, 0x05, 0x00, 0x00, 0x00, 0x03, 0x00, 0x00, 0x00,
  0x00, 0x00, 0x0a, 0x00, 0x10, 0x00, 0x0c, 0x00, 0x08, 0x00, 0x04, 0x00,
  0x0a, 0x00, 0x00, 0x00, 0x0c, 0x00, 0x00, 0x00, 0x10, 0x00, 0x00, 0x00,
  0x02, 0x00, 0x00, 0x00, 0x01, 0x00, 0x00, 0x00, 0x08, 0x00, 0x00, 0x00,
  0x02, 0x00, 0x00, 0x00, 0x07, 0x00, 0x00, 0x00, 0x04, 0x00, 0x00, 0x00,
  0x00, 0x00, 0x0e, 0x00, 0x1a, 0x00, 0x14, 0x00, 0x10, 0x00, 0x0c, 0x00,
  0x0b, 0x00, 0x04, 0x00, 0x0e, 0x00, 0x00, 0x00, 0x24, 0x00, 0x00, 0x00,
  0x00, 0x00, 0x00, 0x05, 0x34, 0x00, 0x00, 0x00, 0x38, 0x00, 0x00, 0x00,
  0x01, 0x00, 0x00, 0x00, 0x00, 0x00, 0x0e, 0x00, 0x18, 0x00, 0x17, 0x00,
  0x10, 0x00, 0x0c, 0x00, 0x08, 0x00, 0x04, 0x00, 0x0e, 0x00, 0x00, 0x00,
  0x02, 0x00, 0x00, 0x00, 0x02, 0x00, 0x00, 0x00, 0x02, 0x00, 0x00, 0x00,
  0x02, 0x00, 0x00, 0x00, 0x00, 0x00, 0x00, 0x01, 0x01, 0x00, 0x00, 0x00,
  0x07, 0x00, 0x00, 0x00, 0x01, 0x00, 0x00, 0x00, 0x06, 0x00, 0x00, 0x00,
  0x00, 0x00, 0x0e, 0x00, 0x14, 0x00, 0x00, 0x00, 0x10, 0x00, 0x0c, 0x00,
  0x0b, 0x00, 0x04, 0x00, 0x0e, 0x00, 0x00, 0x00, 0x1c, 0x00, 0x00, 0x00,
  0x00, 0x00, 0x00, 0x01, 0x28, 0x00, 0x00, 0x00, 0x2c, 0x00, 0x00, 0x00,
  0x0c, 0x00, 0x14, 0x00, 0x13, 0x00, 0x0c, 0x00, 0x08, 0x00, 0x07, 0x00,
  0x0c, 0x00, 0x00, 0x00, 0x00, 0x00, 0x00, 0x01, 0x01, 0x00, 0x00, 0x00,
  0x01, 0x00, 0x00, 0x00, 0x00, 0x00, 0x00, 0x01, 0x01, 0x00, 0x00, 0x00,
  0x06, 0x00, 0x00, 0x00, 0x03, 0x00, 0x00, 0x00, 0x00, 0x00, 0x00, 0x00,
  0x02, 0x00, 0x00, 0x00, 0x01, 0x00, 0x00, 0x00, 0x01, 0x00, 0x00, 0x00,
  0x09, 0x00, 0x00, 0x00, 0x01, 0x00, 0x00, 0x00, 0x00, 0x00, 0x00, 0x00,
  0x0a, 0x00, 0x00, 0x00, 0xd0, 0x03, 0x00, 0x00, 0x60, 0x03, 0x00, 0x00,
  0xf4, 0x02, 0x00, 0x00, 0xa0, 0x02, 0x00, 0x00, 0x54, 0x02, 0x00, 0x00,
  0xf4, 0x01, 0x00, 0x00, 0x30, 0x01, 0x00, 0x00, 0xbc, 0x00, 0x00, 0x00,
  0x60, 0x00, 0x00, 0x00, 0x04, 0x00, 0x00, 0x00, 0x6e, 0xfc, 0xff, 0xff,
  0x00, 0x00, 0x00, 0x01, 0x14, 0x00, 0x00, 0x00, 0x1c, 0x00, 0x00, 0x00,
  0x1c, 0x00, 0x00, 0x00, 0x0a, 0x00, 0x00, 0x00, 0x34, 0x00, 0x00, 0x00,
  0x02, 0x00, 0x00, 0x00, 0xff, 0xff, 0xff, 0xff, 0x0a, 0x00, 0x00, 0x00,
  0x50, 0xfc, 0xff, 0xff, 0x19, 0x00, 0x00, 0x00, 0x53, 0x74, 0x61, 0x74,
  0x65, 0x66, 0x75, 0x6c, 0x50, 0x61, 0x72, 0x74, 0x69, 0x74, 0x69, 0x6f,
  0x6e, 0x65, 0x64, 0x43, 0x61, 0x6c, 0x6c, 0x3a, 0x30, 0x00, 0x00, 0x00,
  0x02, 0x00, 0x00, 0x00, 0x01, 0x00, 0x00, 0x00, 0x0a, 0x00, 0x00, 0x00,
  0xc6, 0xfc, 0xff, 0xff, 0x00, 0x00, 0x00, 0x01, 0x14, 0x00, 0x00, 0x00,
  0x1c, 0x00, 0x00, 0x00, 0x1c, 0x00, 0x00, 0x00, 0x09, 0x00, 0x00, 0x00,
  0x34, 0x00, 0x00, 0x00, 0x02, 0x00, 0x00, 0x00, 0xff, 0xff, 0xff, 0xff,
  0x48, 0x00, 0x00, 0x00, 0xa8, 0xfc, 0xff, 0xff, 0x1a, 0x00, 0x00, 0x00,
  0x73, 0x65, 0x71, 0x75, 0x65, 0x6e, 0x74, 0x69, 0x61, 0x6c, 0x2f, 0x66,
  0x6c, 0x61, 0x74, 0x74, 0x65, 0x6e, 0x2f, 0x52, 0x65, 0x73, 0x68, 0x61,
  0x70, 0x65, 0x00, 0x00, 0x02, 0x00, 0x00, 0x00, 0x01, 0x00, 0x00, 0x00,
  0x48, 0x00, 0x00, 0x00, 0x1e, 0xfd, 0xff, 0xff, 0x00, 0x00, 0x00, 0x01,
  0x14, 0x00, 0x00, 0x00, 0x24, 0x00, 0x00, 0x00, 0x24, 0x00, 0x00, 0x00,
  0x08, 0x00, 0x00, 0x00, 0x44, 0x00, 0x00, 0x00, 0x04, 0x00, 0x00, 0x00,
  0xff, 0xff, 0xff, 0xff, 0x03, 0x00, 0x00, 0x00, 0x03, 0x00, 0x00, 0x00,
  0x08, 0x00, 0x00, 0x00, 0x08, 0xfd, 0xff, 0xff, 0x20, 0x00, 0x00, 0x00,
  0x73, 0x65, 0x71, 0x75, 0x65, 0x6e, 0x74, 0x69, 0x61, 0x6c, 0x2f, 0x6d,
  0x61, 0x78, 0x5f, 0x70, 0x6f, 0x6f, 0x6c, 0x69, 0x6e, 0x67, 0x32, 0x64,
  0x2f, 0x4d, 0x61, 0x78, 0x50, 0x6f, 0x6f, 0x6c, 0x00, 0x00, 0x00, 0x00,
  0x04, 0x00, 0x00, 0x00, 0x01, 0x00, 0x00, 0x00, 0x03, 0x00, 0x00, 0x00,
  0x03, 0x00, 0x00, 0x00, 0x08, 0x00, 0x00, 0x00, 0x8e, 0xfd, 0xff, 0xff,
  0x00, 0x00, 0x00, 0x01, 0x14, 0x00, 0x00, 0x00, 0x24, 0x00, 0x00, 0x00,
  0x24, 0x00, 0x00, 0x00, 0x07, 0x00, 0x00, 0x00, 0x94, 0x00, 0x00, 0x00,
  0x04, 0x00, 0x00, 0x00, 0xff, 0xff, 0xff, 0xff, 0x06, 0x00, 0x00, 0x00,
  0x06, 0x00, 0x00, 0x00, 0x08, 0x00, 0x00, 0x00, 0x78, 0xfd, 0xff, 0xff,
  0x72, 0x00, 0x00, 0x00, 0x73, 0x65, 0x71, 0x75, 0x65, 0x6e, 0x74, 0x69,
  0x61, 0x6c, 0x2f, 0x63, 0x6f, 0x6e, 0x76, 0x32, 0x64, 0x2f, 0x52, 0x65,
  0x6c, 0x75, 0x3b, 0x73, 0x65, 0x71, 0x75, 0x65, 0x6e, 0x74, 0x69, 0x61,
  0x6c, 0x2f, 0x63, 0x6f, 0x6e, 0x76, 0x32, 0x64, 0x2f, 0x42, 0x69, 0x61,
  0x73, 0x41, 0x64, 0x64, 0x3b, 0x73, 0x65, 0x71, 0x75, 0x65, 0x6e, 0x74,
  0x69, 0x61, 0x6c, 0x2f, 0x63, 0x6f, 0x6e, 0x76, 0x32, 0x64, 0x2f, 0x43,
  0x6f, 0x6e, 0x76, 0x32, 0x44, 0x3b, 0x73, 0x65, 0x71, 0x75, 0x65, 0x6e,
  0x74, 0x69, 0x61, 0x6c, 0x2f, 0x63, 0x6f, 0x6e, 0x76, 0x32, 0x64, 0x2f,
  0x42, 0x69, 0x61, 0x73, 0x41, 0x64, 0x64, 0x2f, 0x52, 0x65, 0x61, 0x64,
  0x56, 0x61, 0x72, 0x69, 0x61, 0x62, 0x6c, 0x65, 0x4f, 0x70, 0x00, 0x00,
  0x04, 0x00, 0x00, 0x00, 0x01, 0x00, 0x00, 0x00, 0x06, 0x00, 0x00, 0x00,
  0x06, 0x00, 0x00, 0x00, 0x08, 0x00, 0x00, 0x00, 0xba, 0xfe, 0xff, 0xff,
  0x00, 0x00, 0x00, 0x01, 0x10, 0x00, 0x00, 0x00, 0x10, 0x00, 0x00, 0x00,
  0x06, 0x00, 0x00, 0x00, 0x24, 0x00, 0x00, 0x00, 0x20, 0xfe, 0xff, 0xff,
  0x17, 0x00, 0x00, 0x00, 0x73, 0x65, 0x71, 0x75, 0x65, 0x6e, 0x74, 0x69,
  0x61, 0x6c, 0x2f, 0x64, 0x65, 0x6e, 0x73, 0x65, 0x2f, 0x4d, 0x61, 0x74,
  0x4d, 0x75, 0x6c, 0x00, 0x02, 0x00, 0x00, 0x00, 0x0a, 0x00, 0x00, 0x00,
  0x48, 0x00, 0x00, 0x00, 0x00, 0x00, 0x16, 0x00, 0x1c, 0x00, 0x18, 0x00,
  0x17, 0x00, 0x10, 0x00, 0x0c, 0x00, 0x08, 0x00, 0x00, 0x00, 0x00, 0x00,
  0x00, 0x00, 0x07, 0x00, 0x16, 0x00, 0x00, 0x00, 0x00, 0x00, 0x00, 0x01,
  0x14, 0x00, 0x00, 0x00, 0x14, 0x00, 0x00, 0x00, 0x05, 0x00, 0x00, 0x00,
  0x00, 0x00, 0x00, 0x02, 0x28, 0x00, 0x00, 0x00, 0x80, 0xfe, 0xff, 0xff,
  0x18, 0x00, 0x00, 0x00, 0x73, 0x65, 0x71, 0x75, 0x65, 0x6e, 0x74, 0x69,
  0x61, 0x6c, 0x2f, 0x66, 0x6c, 0x61, 0x74, 0x74, 0x65, 0x6e, 0x2f, 0x43,
  0x6f, 0x6e, 0x73, 0x74, 0x00, 0x00, 0x00, 0x00, 0x01, 0x00, 0x00, 0x00,
  0x02, 0x00, 0x00, 0x00, 0x5e, 0xff, 0xff, 0xff, 0x00, 0x00, 0x00, 0x01,
  0x10, 0x00, 0x00, 0x00, 0x10, 0x00, 0x00, 0x00, 0x04, 0x00, 0x00, 0x00,
  0x34, 0x00, 0x00, 0x00, 0xc4, 0xfe, 0xff, 0xff, 0x27, 0x00, 0x00, 0x00,
  0x73, 0x65, 0x71, 0x75, 0x65, 0x6e, 0x74, 0x69, 0x61, 0x6c, 0x2f, 0x64,
  0x65, 0x6e, 0x73, 0x65, 0x2f, 0x42, 0x69, 0x61, 0x73, 0x41, 0x64, 0x64,
  0x2f, 0x52, 0x65, 0x61, 0x64, 0x56, 0x61, 0x72, 0x69, 0x61, 0x62, 0x6c,
  0x65, 0x4f, 0x70, 0x00, 0x01, 0x00, 0x00, 0x00, 0x0a, 0x00, 0x00, 0x00,
  0xae, 0xff, 0xff, 0xff, 0x00, 0x00, 0x00, 0x01, 0x10, 0x00, 0x00, 0x00,
  0x10, 0x00, 0x00, 0x00, 0x03, 0x00, 0x00, 0x00, 0x28, 0x00, 0x00, 0x00,
  0x14, 0xff, 0xff, 0xff, 0x18, 0x00, 0x00, 0x00, 0x73, 0x65, 0x71, 0x75,
  0x65, 0x6e, 0x74, 0x69, 0x61, 0x6c, 0x2f, 0x63, 0x6f, 0x6e, 0x76, 0x32,
  0x64, 0x2f, 0x43, 0x6f, 0x6e, 0x76, 0x32, 0x44, 0x00, 0x00, 0x00, 0x00,
  0x04, 0x00, 0x00, 0x00, 0x08, 0x00, 0x00, 0x00, 0x03, 0x00, 0x00, 0x00,
  0x03, 0x00, 0x00, 0x00, 0x01, 0x00, 0x00, 0x00, 0x00, 0x00, 0x16, 0x00,
  0x18, 0x00, 0x14, 0x00, 0x00, 0x00, 0x10, 0x00, 0x0c, 0x00, 0x08, 0x00,
  0x00, 0x00, 0x00, 0x00, 0x00, 0x00, 0x07, 0x00, 0x16, 0x00, 0x00, 0x00,
  0x00, 0x00, 0x00, 0x01, 0x10, 0x00, 0x00, 0x00, 0x10, 0x00, 0x00, 0x00,
  0x02, 0x00, 0x00, 0x00, 0x38, 0x00, 0x00, 0x00, 0x7c, 0xff, 0xff, 0xff,
  0x28, 0x00, 0x00, 0x00, 0x73, 0x65, 0x71, 0x75, 0x65, 0x6e, 0x74, 0x69,
  0x61, 0x6c, 0x2f, 0x63, 0x6f, 0x6e, 0x76, 0x32, 0x64, 0x2f, 0x42, 0x69,
  0x61, 0x73, 0x41, 0x64, 0x64, 0x2f, 0x52, 0x65, 0x61, 0x64, 0x56, 0x61,
  0x72, 0x69, 0x61, 0x62, 0x6c, 0x65, 0x4f, 0x70, 0x00, 0x00, 0x00, 0x00,
  0x01, 0x00, 0x00, 0x00, 0x08, 0x00, 0x00, 0x00, 0x00, 0x00, 0x16, 0x00,
  0x1c, 0x00, 0x18, 0x00, 0x00, 0x00, 0x14, 0x00, 0x10, 0x00, 0x0c, 0x00,
  0x00, 0x00, 0x00, 0x00, 0x08, 0x00, 0x07, 0x00, 0x16, 0x00, 0x00, 0x00,
  0x00, 0x00, 0x00, 0x01, 0x14, 0x00, 0x00, 0x00, 0x28, 0x00, 0x00, 0x00,
  0x28, 0x00, 0x00, 0x00, 0x01, 0x00, 0x00, 0x00, 0x44, 0x00, 0x00, 0x00,
  0x04, 0x00, 0x00, 0x00, 0xff, 0xff, 0xff, 0xff, 0x08, 0x00, 0x00, 0x00,
  0x08, 0x00, 0x00, 0x00, 0x01, 0x00, 0x00, 0x00, 0x04, 0x00, 0x04, 0x00,
  0x04, 0x00, 0x00, 0x00, 0x1e, 0x00, 0x00, 0x00, 0x73, 0x65, 0x72, 0x76,
  0x69, 0x6e, 0x67, 0x5f, 0x64, 0x65, 0x66, 0x61, 0x75, 0x6c, 0x74, 0x5f,
  0x63, 0x6f, 0x6e, 0x76, 0x32, 0x64, 0x5f, 0x69, 0x6e, 0x70, 0x75, 0x74,
  0x3a, 0x30, 0x00, 0x00, 0x04, 0x00, 0x00, 0x00, 0x01, 0x00, 0x00, 0x00,
  0x08, 0x00, 0x00, 0x00, 0x08, 0x00, 0x00, 0x00, 0x01, 0x00, 0x00, 0x00,
  0x04, 0x00, 0x00, 0x00, 0x40, 0x00, 0x00, 0x00, 0x24, 0x00, 0x00, 0x00,
  0x14, 0x00, 0x00, 0x00, 0x04, 0x00, 0x00, 0x00, 0xdc, 0xff, 0xff, 0xff,
  0x09, 0x00, 0x00, 0x00, 0x00, 0x00, 0x00, 0x09, 0xe8, 0xff, 0xff, 0xff,
  0x16, 0x00, 0x00, 0x00, 0x00, 0x00, 0x00, 0x16, 0xf4, 0xff, 0xff, 0xff,
  0x11, 0x00, 0x00, 0x00, 0x00, 0x00, 0x00, 0x11, 0x0c, 0x00, 0x0c, 0x00,
  0x0b, 0x00, 0x00, 0x00, 0x00, 0x00, 0x04, 0x00, 0x0c, 0x00, 0x00, 0x00,
  0x03, 0x00, 0x00, 0x00, 0x00, 0x00, 0x00, 0x03
};

const int .\models\model_quant_float32_len = 5360;
