#ifdef __has_attribute
#define HAVE_ATTRIBUTE(x) __has_attribute(x)
#else
#define HAVE_ATTRIBUTE(x) 0
#endif
#if HAVE_ATTRIBUTE(aligned) || (defined(__GNUC__) && !defined(__clang__))
#define DATA_ALIGN_ATTRIBUTE __attribute__((aligned(4)))
#else
#define DATA_ALIGN_ATTRIBUTE
#endif

const unsigned char .\models\model_quant_float32[]  DATA_ALIGN_ATTRIBUTE = {
 0x1c, 0x00, 0x00, 0x00, 0x54, 0x46, 0x4c, 0x33, 0x14, 0x00, 0x20, 0x00,
  0x1c, 0x00, 0x18, 0x00, 0x14, 0x00, 0x10, 0x00, 0x0c, 0x00, 0x00, 0x00,
  0x08, 0x00, 0x04, 0x00, 0x14, 0x00, 0x00, 0x00, 0x1c, 0x00, 0x00, 0x00,
  0x88, 0x00, 0x00, 0x00, 0xe0, 0x00, 0x00, 0x00, 0x9c, 0x0e, 0x00, 0x00,
  0xac, 0x0e, 0x00, 0x00, 0x6c, 0x14, 0x00, 0x00, 0x03, 0x00, 0x00, 0x00,
  0x01, 0x00, 0x00, 0x00, 0x04, 0x00, 0x00, 0x00, 0xe2, 0xf0, 0xff, 0xff,
  0x0c, 0x00, 0x00, 0x00, 0x1c, 0x00, 0x00, 0x00, 0x38, 0x00, 0x00, 0x00,
  0x0f, 0x00, 0x00, 0x00, 0x73, 0x65, 0x72, 0x76, 0x69, 0x6e, 0x67, 0x5f,
  0x64, 0x65, 0x66, 0x61, 0x75, 0x6c, 0x74, 0x00, 0x01, 0x00, 0x00, 0x00,
  0x04, 0x00, 0x00, 0x00, 0x94, 0xff, 0xff, 0xff, 0x09, 0x00, 0x00, 0x00,
  0x04, 0x00, 0x00, 0x00, 0x05, 0x00, 0x00, 0x00, 0x64, 0x65, 0x6e, 0x73,
  0x65, 0x00, 0x00, 0x00, 0x01, 0x00, 0x00, 0x00, 0x04, 0x00, 0x00, 0x00,
  0x02, 0xf2, 0xff, 0xff, 0x04, 0x00, 0x00, 0x00, 0x0c, 0x00, 0x00, 0x00,
  0x63, 0x6f, 0x6e, 0x76, 0x32, 0x64, 0x5f, 0x69, 0x6e, 0x70, 0x75, 0x74,
  0x00, 0x00, 0x00, 0x00, 0x02, 0x00, 0x00, 0x00, 0x34, 0x00, 0x00, 0x00,
  0x04, 0x00, 0x00, 0x00, 0xdc, 0xff, 0xff, 0xff, 0x0c, 0x00, 0x00, 0x00,
  0x04, 0x00, 0x00, 0x00, 0x13, 0x00, 0x00, 0x00, 0x43, 0x4f, 0x4e, 0x56,
  0x45, 0x52, 0x53, 0x49, 0x4f, 0x4e, 0x5f, 0x4d, 0x45, 0x54, 0x41, 0x44,
  0x41, 0x54, 0x41, 0x00, 0x08, 0x00, 0x0c, 0x00, 0x08, 0x00, 0x04, 0x00,
  0x08, 0x00, 0x00, 0x00, 0x0b, 0x00, 0x00, 0x00, 0x04, 0x00, 0x00, 0x00,
  0x13, 0x00, 0x00, 0x00, 0x6d, 0x69, 0x6e, 0x5f, 0x72, 0x75, 0x6e, 0x74,
  0x69, 0x6d, 0x65, 0x5f, 0x76, 0x65, 0x72, 0x73, 0x69, 0x6f, 0x6e, 0x00,
  0x0d, 0x00, 0x00, 0x00, 0xb8, 0x0d, 0x00, 0x00, 0xb0, 0x0d, 0x00, 0x00,
  0x80, 0x0d, 0x00, 0x00, 0x48, 0x0c, 0x00, 0x00, 0x10, 0x0c, 0x00, 0x00,
  0xf8, 0x0b, 0x00, 0x00, 0xa8, 0x00, 0x00, 0x00, 0xa0, 0x00, 0x00, 0x00,
  0x98, 0x00, 0x00, 0x00, 0x90, 0x00, 0x00, 0x00, 0x88, 0x00, 0x00, 0x00,
  0x68, 0x00, 0x00, 0x00, 0x04, 0x00, 0x00, 0x00, 0xb2, 0xf2, 0xff, 0xff,
  0x04, 0x00, 0x00, 0x00, 0x54, 0x00, 0x00, 0x00, 0x0c, 0x00, 0x00, 0x00,
  0x08, 0x00, 0x0e, 0x00, 0x08, 0x00, 0x04, 0x00, 0x08, 0x00, 0x00, 0x00,
  0x10, 0x00, 0x00, 0x00, 0x24, 0x00, 0x00, 0x00, 0x00, 0x00, 0x06, 0x00,
  0x08, 0x00, 0x04, 0x00, 0x06, 0x00, 0x00, 0x00, 0x04, 0x00, 0x00, 0x00,
  0x00, 0x00, 0x00, 0x00, 0x00, 0x00, 0x0a, 0x00, 0x10, 0x00, 0x0c, 0x00,
  0x08, 0x00, 0x04, 0x00, 0x0a, 0x00, 0x00, 0x00, 0x02, 0x00, 0x00, 0x00,
  0x02, 0x00, 0x00, 0x00, 0x04, 0x00, 0x00, 0x00, 0x06, 0x00, 0x00, 0x00,
  0x32, 0x2e, 0x31, 0x35, 0x2e, 0x30, 0x00, 0x00, 0x12, 0xf3, 0xff, 0xff,
  0x04, 0x00, 0x00, 0x00, 0x10, 0x00, 0x00, 0x00, 0x31, 0x2e, 0x35, 0x2e,
  0x30, 0x00, 0x00, 0x00, 0x00, 0x00, 0x00, 0x00, 0x00, 0x00, 0x00, 0x00,
  0x5c, 0xed, 0xff, 0xff, 0x60, 0xed, 0xff, 0xff, 0x64, 0xed, 0xff, 0xff,
  0x68, 0xed, 0xff, 0xff, 0x3e, 0xf3, 0xff, 0xff, 0x04, 0x00, 0x00, 0x00,
  0x40, 0x0b, 0x00, 0x00, 0x67, 0x2b, 0xbc, 0xbd, 0x7c, 0xb8, 0x3f, 0x3e,
  0x2e, 0x73, 0xba, 0xbd, 0x32, 0x6d, 0x8b, 0xbf, 0xec, 0xe3, 0x8c, 0xbe,
  0xf5, 0xc6, 0x7a, 0xbd, 0x37, 0x75, 0x37, 0xbf, 0xf3, 0x73, 0xa6, 0xbe,
  0x59, 0x87, 0x06, 0xbf, 0x0b, 0x97, 0xb9, 0xbe, 0x14, 0xcd, 0x05, 0x3f,
  0x06, 0x50, 0xe9, 0x3b, 0xdd, 0xdd, 0x3f, 0x3f, 0x3a, 0x97, 0xaf, 0x3d,
  0x35, 0xe3, 0x14, 0x3f, 0xd6, 0x7d, 0x34, 0x3e, 0xdc, 0xa3, 0x18, 0x3f,
  0xc8, 0x80, 0x03, 0x3e, 0x96, 0xff, 0x39, 0x3e, 0x90, 0xa5, 0xab, 0xbe,
  0x7a, 0x6e, 0xe8, 0xbe, 0xb6, 0x77, 0x71, 0x3e, 0x1c, 0x1a, 0x0f, 0xbf,
  0x05, 0xb2, 0x4c, 0xbe, 0x7b, 0xe1, 0x6f, 0xbd, 0x1b, 0x99, 0xbf, 0x3e,
  0x1c, 0x37, 0x76, 0xbf, 0xf4, 0x8b, 0x42, 0xbe, 0x4b, 0x3f, 0xb0, 0xbe,
  0x26, 0xcf, 0x52, 0xbd, 0x16, 0xca, 0x0d, 0xbf, 0x36, 0xbe, 0xa7, 0xbd,
  0x33, 0x6b, 0x60, 0xbf, 0x3e, 0x7e, 0xd3, 0xbe, 0xb9, 0x38, 0x6d, 0xbe,
  0xf0, 0x2a, 0x09, 0x3f, 0x3a, 0x23, 0x26, 0x3f, 0x4e, 0xfd, 0xae, 0xbe,
  0x04, 0xa9, 0xa0, 0x3e, 0x8a, 0x0d, 0xbc, 0xbe, 0x4e, 0x05, 0xbe, 0xbe,
  0x19, 0xf1, 0x0b, 0xbe, 0x37, 0x56, 0x03, 0xbf, 0x3e, 0x31, 0x4a, 0xbf,
  0xd9, 0x2f, 0x25, 0xbe, 0x76, 0xec, 0x27, 0x3f, 0x4f, 0x65, 0x75, 0xbf,
  0x39, 0x22, 0xc6, 0xbe, 0x01, 0x15, 0x2b, 0x3f, 0x6a, 0xe0, 0xff, 0x3e,
  0xe6, 0x30, 0x46, 0xbe, 0x34, 0x1a, 0x88, 0xbf, 0x39, 0x89, 0xd9, 0x3e,
  0xab, 0x46, 0xeb, 0x3d, 0xf8, 0xf6, 0x35, 0x3e, 0x19, 0x48, 0xc5, 0x3e,
  0x1d, 0x23, 0xdc, 0x3e, 0xbb, 0xcf, 0xfa, 0x3d, 0x8f, 0x33, 0x91, 0xbd,
  0xf7, 0x01, 0xc1, 0xbc, 0xef, 0x14, 0xeb, 0xbe, 0xab, 0xef, 0xe6, 0xbe,
  0x50, 0x41, 0xb6, 0xbf, 0xbf, 0x98, 0xbb, 0xbd, 0x29, 0xee, 0xd5, 0xbe,
  0x6a, 0x9f, 0x5b, 0xbe, 0xdd, 0xc1, 0x53, 0xbd, 0x13, 0x06, 0xc6, 0xbe,
  0x93, 0xf2, 0xb5, 0xbc, 0x04, 0xc0, 0xb4, 0xbd, 0xad, 0x4b, 0xed, 0x3c,
  0xb7, 0x27, 0xfc, 0xbd, 0xe7, 0x36, 0x1e, 0x3f, 0x55, 0xd9, 0xde, 0xbe,
  0x11, 0x2e, 0x86, 0xbf, 0x15, 0xdf, 0x13, 0x3e, 0xfe, 0xb1, 0xb3, 0x3d,
  0x85, 0xc6, 0xa9, 0xbe, 0xc4, 0x37, 0xce, 0xbd, 0x52, 0x44, 0x37, 0xbf,
  0x92, 0x23, 0xfe, 0xbe, 0x59, 0xaf, 0x0d, 0x3f, 0x07, 0x84, 0x39, 0xbf,
  0x24, 0xac, 0x2d, 0xbf, 0x79, 0x82, 0xb8, 0xbe, 0x06, 0x1d, 0x80, 0x3e,
  0x34, 0x63, 0xd0, 0xbf, 0xd5, 0x7c, 0x88, 0xbe, 0x4a, 0x09, 0x75, 0xbf,
  0xef, 0x38, 0x69, 0xbe, 0x7a, 0x74, 0x92, 0xbd, 0xca, 0x5f, 0x0f, 0x3e,
  0xb9, 0x1f, 0xa1, 0xbd, 0xca, 0x32, 0xc3, 0xbe, 0xb9, 0x13, 0x5b, 0x3d,
  0x31, 0xc7, 0x39, 0x3d, 0x86, 0x51, 0x61, 0xbf, 0x54, 0x9d, 0x33, 0xbf,
  0x03, 0x9a, 0x12, 0x3e, 0xa2, 0x66, 0xa3, 0xbd, 0x02, 0x69, 0x0f, 0x3d,
  0x83, 0xa7, 0x20, 0x3f, 0x52, 0x55, 0x88, 0x3d, 0x10, 0x49, 0x0e, 0xbf,
  0x44, 0x38, 0x15, 0xbe, 0x02, 0x02, 0x1f, 0x3e, 0x35, 0xc5, 0x19, 0xbf,
  0xeb, 0x63, 0x99, 0x3d, 0xc3, 0x20, 0x5d, 0xbe, 0x62, 0xc4, 0x38, 0x3e,
  0xdc, 0x18, 0x81, 0xbe, 0xc7, 0x74, 0x90, 0x3e, 0x80, 0xef, 0xdb, 0xbe,
  0xf0, 0x1a, 0xc4, 0x3c, 0x13, 0x63, 0xdc, 0xbe, 0x3c, 0x69, 0x8e, 0x3e,
  0xe7, 0xa8, 0xe0, 0xbe, 0xc8, 0x85, 0x47, 0xbf, 0x8c, 0x57, 0x11, 0x3e,
  0xb6, 0x13, 0xed, 0x3e, 0x31, 0x26, 0x45, 0xbe, 0xf4, 0xe2, 0x1e, 0xbf,
  0xb3, 0x14, 0x26, 0xbe, 0x58, 0xa4, 0xc3, 0xbd, 0x9e, 0x77, 0x25, 0x3e,
  0x4d, 0x55, 0x51, 0x3e, 0xf8, 0x20, 0x76, 0xbe, 0xb0, 0xfa, 0x05, 0xbf,
  0x5e, 0x67, 0x47, 0xbd, 0x8d, 0x5e, 0xb2, 0x3e, 0x33, 0x35, 0x74, 0xbf,
  0xa4, 0xb8, 0xce, 0xbe, 0xa7, 0xff, 0x04, 0x3d, 0x80, 0xdf, 0xd3, 0x3e,
  0xb7, 0x97, 0x07, 0xbd, 0x79, 0x96, 0x50, 0xbe, 0x11, 0x7b, 0xc1, 0x3c,
  0xf1, 0x32, 0x82, 0x3e, 0x41, 0x9b, 0xfb, 0xbe, 0xcd, 0xd7, 0xbd, 0x3e,
  0x3c, 0xbb, 0x68, 0xbf, 0x6e, 0x0e, 0x5d, 0xbf, 0x85, 0xa0, 0xe2, 0xbe,
  0x90, 0xd6, 0x89, 0x3e, 0x52, 0x29, 0x17, 0xbf, 0xd8, 0xf7, 0x54, 0xbe,
  0x7b, 0xb2, 0x32, 0x3f, 0xa4, 0xa0, 0x6b, 0xbe, 0xf6, 0xb1, 0x45, 0xbd,
  0x93, 0xdb, 0x15, 0x3b, 0x02, 0xc4, 0xdc, 0x3e, 0xe2, 0x95, 0xf1, 0x3e,
  0x3d, 0xda, 0xf8, 0x3e, 0x31, 0xe3, 0x89, 0x3e, 0xdc, 0xfe, 0xcb, 0xbe,
  0x3e, 0x82, 0x42, 0xbf, 0xae, 0x78, 0x40, 0x3f, 0x4c, 0xb3, 0xc6, 0x3e,
  0x7f, 0x4e, 0x84, 0x3e, 0xe8, 0x16, 0x23, 0xbe, 0x5f, 0x1a, 0x93, 0xbe,
  0xbf, 0xf7, 0x39, 0xbe, 0x54, 0xd3, 0x34, 0xbe, 0x8b, 0x52, 0x69, 0x3e,
  0x24, 0x42, 0x33, 0xbe, 0xc8, 0xd8, 0x06, 0xbf, 0x02, 0x67, 0x80, 0x3d,
  0xc2, 0xd2, 0x8a, 0xbe, 0x08, 0x17, 0x92, 0xbd, 0x39, 0x5d, 0x38, 0xbf,
  0x0d, 0xe4, 0x65, 0xbf, 0x02, 0xe4, 0xeb, 0x3e, 0xd6, 0x21, 0x30, 0xbe,
  0xa9, 0xe0, 0xd6, 0xbe, 0x78, 0x7b, 0x4e, 0x3e, 0x72, 0x7f, 0x2d, 0xbe,
  0xaf, 0x28, 0x4b, 0xbe, 0xe6, 0x70, 0x12, 0xbf, 0x3e, 0x47, 0x4e, 0x3e,
  0x8a, 0xad, 0xc9, 0xbe, 0xb9, 0x94, 0x9a, 0x3e, 0xfa, 0xbb, 0xdc, 0xbd,
  0xfd, 0xb0, 0x7c, 0xbe, 0x97, 0xf3, 0xf4, 0xbe, 0xe0, 0xa4, 0xb3, 0xbe,
  0x95, 0xd3, 0x8d, 0xbe, 0x49, 0x62, 0x8e, 0x3e, 0x85, 0x01, 0x67, 0xbe,
  0x96, 0xc3, 0xf3, 0x3e, 0x4f, 0x7f, 0xdb, 0xbe, 0x35, 0x1d, 0x26, 0x3f,
  0xd2, 0xb6, 0x0e, 0x3d, 0x2c, 0x8c, 0x0b, 0xbf, 0x83, 0x3c, 0x1a, 0xbe,
  0xc9, 0xfc, 0x17, 0xbe, 0x56, 0x78, 0x1e, 0xbf, 0xfd, 0x8c, 0xfa, 0x3d,
  0xca, 0xd5, 0x75, 0x3e, 0xe5, 0xa4, 0xef, 0xbd, 0xd8, 0x46, 0x70, 0xbe,
  0xba, 0xb7, 0xaa, 0x3d, 0x00, 0xd9, 0x13, 0x3f, 0x5f, 0xb7, 0x4f, 0xbf,
  0xfa, 0x61, 0xbc, 0x3e, 0x19, 0x4a, 0x69, 0xbf, 0xfd, 0xe5, 0x40, 0xbe,
  0x5f, 0x8d, 0x31, 0xbf, 0x72, 0xf0, 0xbc, 0x3e, 0x15, 0x1c, 0x27, 0x3c,
  0xc6, 0xe2, 0x97, 0x3e, 0xa6, 0x07, 0x92, 0x3d, 0xbc, 0x3d, 0x11, 0x3f,
  0x8a, 0x98, 0x87, 0xbf, 0xbd, 0x7f, 0x38, 0xbf, 0x62, 0x2a, 0x82, 0xbf,
  0x49, 0xae, 0x00, 0xbe, 0x81, 0xfb, 0xff, 0xbe, 0xdf, 0x91, 0x18, 0xbf,
  0xbf, 0x06, 0x2a, 0x3f, 0x5e, 0xf7, 0x55, 0x3f, 0x54, 0xf0, 0x06, 0xbe,
  0x92, 0xe2, 0x77, 0xbd, 0x0e, 0x93, 0x14, 0x3f, 0xbf, 0x3c, 0x5f, 0x3e,
  0xc1, 0x46, 0x0f, 0xbb, 0x6c, 0x16, 0xe0, 0xbe, 0x86, 0x26, 0xc6, 0xbd,
  0x41, 0x67, 0x3b, 0xbf, 0x20, 0x2c, 0x35, 0x3f, 0x30, 0x0f, 0x84, 0xbd,
  0x29, 0x03, 0x83, 0x3e, 0xb0, 0x68, 0x3a, 0xbe, 0x4c, 0xf7, 0x2c, 0x3e,
  0xa0, 0x79, 0xcf, 0xbb, 0xee, 0xea, 0x94, 0x3b, 0x89, 0xe6, 0x02, 0xbd,
  0x6e, 0xdb, 0x7c, 0x3f, 0x5f, 0x28, 0x09, 0xbf, 0x90, 0x24, 0xb8, 0x3e,
  0x9e, 0x73, 0xa3, 0x3e, 0x59, 0x39, 0x01, 0xbe, 0xf5, 0x16, 0x5a, 0xbf,
  0x29, 0x7b, 0xc2, 0x3a, 0xdd, 0x6b, 0x8e, 0x3e, 0x3d, 0xaa, 0x9d, 0xbd,
  0x66, 0x75, 0x0d, 0xbf, 0x51, 0xee, 0xbc, 0xbd, 0xeb, 0x12, 0x08, 0xbd,
  0x31, 0x33, 0x35, 0x3e, 0xdd, 0x88, 0xc0, 0xbe, 0x4d, 0xa5, 0xe3, 0x3e,
  0x71, 0xc5, 0x72, 0xbf, 0xeb, 0x72, 0x35, 0xbd, 0x0e, 0x8f, 0x1d, 0x3e,
  0xf2, 0x76, 0x9e, 0x3c, 0x2a, 0x37, 0x8a, 0xbc, 0x3d, 0xfe, 0x2d, 0x3f,
  0x81, 0x09, 0xb8, 0x3d, 0x57, 0x00, 0x23, 0x3f, 0x77, 0x5e, 0x99, 0x3e,
  0xd5, 0x08, 0x19, 0xbf, 0xc4, 0x04, 0x28, 0xbf, 0x41, 0x8f, 0xc5, 0xbe,
  0x10, 0x1c, 0x1a, 0x3d, 0xa7, 0xc0, 0xe3, 0x3e, 0x0c, 0x6a, 0x6c, 0x3e,
  0xc6, 0x2b, 0x0f, 0x3e, 0xeb, 0x70, 0xe2, 0x3d, 0x5c, 0x64, 0x89, 0xbe,
  0x13, 0xc2, 0xdf, 0xbe, 0x81, 0x7c, 0xf1, 0xbe, 0xa9, 0x2d, 0xe6, 0xbe,
  0xfa, 0x88, 0x74, 0xbe, 0x9f, 0x27, 0x4d, 0xbe, 0x33, 0x9e, 0x30, 0x3f,
  0x27, 0x1a, 0x5c, 0xbd, 0x60, 0x7c, 0x03, 0xbe, 0x7f, 0x41, 0x3f, 0xbe,
  0x27, 0x1d, 0xb4, 0x3d, 0x2f, 0xd5, 0x81, 0xbe, 0x3b, 0x88, 0xd0, 0x3e,
  0x55, 0xa5, 0xe6, 0x3d, 0xc7, 0xee, 0x9d, 0x3e, 0xd6, 0xb7, 0x94, 0xbe,
  0xb5, 0xc1, 0x37, 0xbf, 0xe5, 0x2c, 0x63, 0x3e, 0x4f, 0xc6, 0xd6, 0xbd,
  0x9e, 0x37, 0xbb, 0x3d, 0x2c, 0xf0, 0xc0, 0x3d, 0x86, 0xd1, 0xc4, 0xbe,
  0x31, 0xf0, 0x85, 0xbf, 0x38, 0xcd, 0x9d, 0xbc, 0xf3, 0xd9, 0x07, 0xbf,
  0xcc, 0xa9, 0x2b, 0xbe, 0x69, 0xac, 0xa8, 0xbf, 0x89, 0x08, 0x10, 0xbf,
  0x26, 0x3a, 0x81, 0xbd, 0x47, 0x55, 0x80, 0xbd, 0xb7, 0x9d, 0x4c, 0x3e,
  0x52, 0xe9, 0x31, 0xbf, 0xac, 0x59, 0x1f, 0xbf, 0x10, 0x96, 0xd2, 0xbe,
  0x01, 0x78, 0x84, 0xbf, 0x2e, 0x33, 0xe9, 0x3d, 0x44, 0x27, 0x53, 0x3e,
  0x92, 0x87, 0xad, 0xbe, 0xeb, 0xd8, 0x94, 0x3e, 0x76, 0x19, 0xb9, 0x3d,
  0x2e, 0x15, 0x1f, 0x3e, 0x07, 0x1f, 0x35, 0xbf, 0x51, 0x19, 0x0f, 0xbf,
  0x2f, 0x21, 0x7c, 0xbe, 0x99, 0xcc, 0xcf, 0xbe, 0xf5, 0x62, 0x18, 0x3f,
  0x8e, 0x84, 0x31, 0x3e, 0x45, 0x4e, 0xfc, 0xbe, 0x64, 0xa9, 0xef, 0xbe,
  0x08, 0x2b, 0x36, 0x3d, 0x6c, 0xa1, 0x39, 0xbf, 0xf8, 0xf6, 0x0b, 0x3f,
  0x43, 0xb0, 0xdd, 0x3e, 0x73, 0xde, 0x16, 0x3e, 0x4d, 0xc8, 0x4b, 0xbe,
  0xdb, 0x5d, 0x94, 0x3c, 0x94, 0x06, 0x1b, 0xbf, 0x54, 0xe9, 0xb6, 0xbe,
  0x5c, 0x83, 0x00, 0xbf, 0xf0, 0x0b, 0xdf, 0x3e, 0x96, 0x06, 0x99, 0xbe,
  0x76, 0x87, 0x73, 0xbd, 0xb7, 0x99, 0x8d, 0x3e, 0x83, 0x91, 0xca, 0x3d,
  0xdf, 0xf5, 0x63, 0xbf, 0xd7, 0x3d, 0x45, 0x3e, 0x47, 0x87, 0xee, 0xbb,
  0x75, 0x00, 0x6e, 0x3e, 0x33, 0xc9, 0xd6, 0xbe, 0x23, 0x30, 0x4a, 0xbe,
  0x57, 0xc9, 0x88, 0xbb, 0x15, 0x88, 0xf9, 0x3e, 0x98, 0x58, 0x95, 0xb9,
  0xf0, 0x69, 0x94, 0x3e, 0x2f, 0xf9, 0x2b, 0x3e, 0x4f, 0xb4, 0x94, 0x3e,
  0x8f, 0x6f, 0x27, 0xbe, 0x0e, 0xeb, 0x8b, 0x3d, 0xdd, 0x57, 0x1e, 0xbe,
  0xb5, 0xad, 0xea, 0xbe, 0x31, 0x6a, 0x07, 0x3f, 0x5a, 0x61, 0x49, 0x3e,
  0x92, 0xff, 0x0a, 0x3f, 0x05, 0x2d, 0x73, 0xbe, 0xdd, 0x4d, 0x1a, 0xbe,
  0x25, 0xb8, 0x80, 0xbe, 0x33, 0x5c, 0x08, 0xbe, 0x2d, 0x2d, 0xd6, 0x3e,
  0x20, 0xfc, 0x6b, 0x3f, 0x38, 0xe4, 0x17, 0xbf, 0x9b, 0xd0, 0x07, 0x3f,
  0xc6, 0x6f, 0x10, 0x3e, 0xf7, 0x6f, 0x77, 0x3e, 0x79, 0xdb, 0x87, 0x3e,
  0x15, 0xaa, 0x52, 0xbe, 0xde, 0x86, 0x36, 0xbf, 0x98, 0x31, 0x56, 0x3c,
  0xab, 0xb1, 0x13, 0x3e, 0x06, 0x8e, 0x30, 0xbe, 0xc8, 0xc2, 0xc8, 0x3e,
  0x17, 0x0e, 0x3b, 0xbf, 0x32, 0x73, 0x7e, 0x3e, 0xee, 0xaf, 0x77, 0xbe,
  0x67, 0xc0, 0xe5, 0x3e, 0x29, 0xc4, 0x2f, 0xbf, 0x6e, 0xc4, 0xc0, 0xbe,
  0xa3, 0x98, 0x3d, 0x3e, 0x7a, 0xe6, 0xd7, 0x3d, 0xed, 0x11, 0xb7, 0xbe,
  0xed, 0xa2, 0x3d, 0xbf, 0xf3, 0x86, 0x5f, 0xbe, 0x7f, 0x8d, 0x70, 0x3e,
  0xd0, 0x22, 0x51, 0x3f, 0x38, 0x3b, 0x54, 0x3e, 0xa2, 0xdd, 0x00, 0x3f,
  0x88, 0xf0, 0x75, 0x3e, 0x5a, 0x16, 0x33, 0x3e, 0xcb, 0xa3, 0x64, 0x3d,
  0x88, 0xbd, 0x28, 0x3d, 0x89, 0x78, 0xb1, 0xbd, 0xa0, 0x12, 0x3e, 0xbe,
  0x31, 0xe2, 0xbb, 0x3e, 0xbe, 0x5a, 0xfc, 0x3e, 0xf8, 0xac, 0x26, 0x3e,
  0x85, 0xa9, 0xd3, 0x3e, 0xdf, 0xcb, 0xce, 0xbb, 0xbf, 0xe7, 0xb4, 0xbe,
  0xca, 0x50, 0x05, 0x3f, 0x2e, 0xda, 0xf9, 0xbd, 0x2c, 0xc5, 0x8e, 0x3d,
  0x87, 0xf5, 0xf3, 0x3d, 0xc6, 0x79, 0x1f, 0xbe, 0x73, 0xb3, 0x5a, 0x3e,
  0x46, 0xb8, 0xa5, 0x3c, 0xc1, 0xe2, 0x77, 0x3b, 0x9d, 0xe4, 0x00, 0xbf,
  0x75, 0x4d, 0x62, 0xbf, 0x48, 0xd2, 0x1a, 0xbf, 0xf4, 0x75, 0x4c, 0xbf,
  0x3c, 0x28, 0x41, 0xbf, 0x19, 0x17, 0xd9, 0x3e, 0x6e, 0x75, 0x0b, 0x3d,
  0x59, 0x01, 0x4c, 0xbf, 0x2d, 0x9b, 0xd6, 0x3e, 0x36, 0xa5, 0x94, 0xbe,
  0x07, 0x07, 0x06, 0xbf, 0xd3, 0x10, 0xcc, 0xbe, 0x98, 0x40, 0x11, 0x3d,
  0x8d, 0xb4, 0xc0, 0xbe, 0x1a, 0xc4, 0x35, 0xbe, 0x6e, 0x4b, 0x02, 0x3f,
  0xd6, 0x6c, 0xe4, 0xbe, 0xf3, 0xc1, 0xa4, 0x3d, 0x64, 0x12, 0xae, 0xbe,
  0xb4, 0x4b, 0xf6, 0xbe, 0x15, 0x56, 0xb6, 0xbe, 0xf2, 0x6f, 0xc3, 0xbe,
  0xb8, 0x55, 0xa8, 0xbe, 0x5f, 0x18, 0x4b, 0x3e, 0x19, 0x4c, 0x84, 0xbe,
  0xa4, 0xd9, 0x99, 0x3e, 0xfe, 0xf9, 0xc9, 0xbd, 0x08, 0x56, 0xce, 0x3e,
  0x7c, 0xd0, 0xb1, 0x3d, 0xfa, 0xcd, 0x49, 0xbc, 0x54, 0x42, 0xda, 0xbd,
  0x8f, 0x1f, 0xc2, 0xbf, 0xa7, 0x7e, 0x77, 0xbf, 0xde, 0x31, 0x07, 0x3e,
  0xd1, 0xf2, 0x42, 0xbc, 0xc1, 0xa7, 0xfc, 0xbe, 0x6f, 0x9f, 0x08, 0xbf,
  0xaa, 0x6f, 0xcb, 0xbe, 0xcd, 0x54, 0x6b, 0x3e, 0x17, 0x80, 0xe0, 0x3e,
  0x7d, 0x0a, 0xe8, 0x3e, 0x88, 0xc7, 0xd5, 0xbe, 0x17, 0x1d, 0xee, 0xbe,
  0xbf, 0xaf, 0x50, 0x3e, 0xf5, 0x0a, 0x35, 0xbe, 0xf4, 0x7e, 0xfb, 0xbd,
  0x68, 0xd4, 0x11, 0xbf, 0x0e, 0x17, 0x30, 0xbf, 0x7f, 0x10, 0xd3, 0x3d,
  0x6c, 0xdf, 0xb6, 0x3e, 0x3e, 0xc8, 0x5c, 0xbf, 0xbd, 0x61, 0xae, 0x3e,
  0x52, 0xb9, 0x2e, 0xbf, 0xc4, 0x33, 0x14, 0xbd, 0x74, 0x93, 0xa3, 0x3d,
  0x53, 0x2d, 0x75, 0xbf, 0x9f, 0x49, 0x99, 0xbf, 0x71, 0x64, 0xb3, 0x3b,
  0x43, 0x70, 0x09, 0x3d, 0x5e, 0xe8, 0x4b, 0xbf, 0x83, 0x84, 0x95, 0xbe,
  0x37, 0x85, 0xa0, 0xbd, 0x64, 0x62, 0x5f, 0x3e, 0xcb, 0x11, 0xf7, 0x3d,
  0xf6, 0xbf, 0x2d, 0x3f, 0x9c, 0x85, 0x84, 0xbe, 0x7e, 0x9a, 0x12, 0xbf,
  0x66, 0xdd, 0xee, 0xbe, 0xdb, 0x17, 0xc4, 0x3e, 0xc5, 0x23, 0x6a, 0x3d,
  0x96, 0xe6, 0x73, 0x3d, 0x02, 0x49, 0xd6, 0x3d, 0x0e, 0xc1, 0x1a, 0xbd,
  0xed, 0x17, 0x58, 0xbf, 0xa4, 0x16, 0x92, 0xbe, 0xbf, 0x38, 0x23, 0xbf,
  0xf7, 0x8e, 0x37, 0xbf, 0xf9, 0x38, 0x13, 0x3e, 0x4d, 0x5c, 0xed, 0xbd,
  0xb1, 0x8e, 0x81, 0x3e, 0x6e, 0x13, 0x9f, 0xbf, 0x9b, 0xcd, 0xec, 0x3d,
  0xe3, 0x95, 0xdb, 0x3e, 0x18, 0x70, 0x9d, 0x3e, 0xa4, 0x62, 0x87, 0x3d,
  0xa2, 0x1f, 0xf9, 0x3e, 0x2a, 0x15, 0x35, 0x3d, 0xf3, 0x2f, 0xb6, 0xbe,
  0x67, 0xd9, 0x18, 0x3e, 0xb4, 0x65, 0xf1, 0xbd, 0x50, 0x1b, 0xc2, 0xbe,
  0xaf, 0x82, 0xa2, 0x3e, 0x09, 0x2d, 0x2c, 0x3e, 0x77, 0x18, 0x03, 0x3f,
  0x79, 0xa0, 0x42, 0x3e, 0xc7, 0x2a, 0x4f, 0x3d, 0xe9, 0x55, 0xf2, 0xbe,
  0x46, 0x53, 0x86, 0xbf, 0xc5, 0xc9, 0x2a, 0x3f, 0x60, 0x59, 0x0f, 0xbf,
  0x93, 0xee, 0x09, 0x3d, 0xd1, 0x8d, 0x49, 0xbf, 0x33, 0x3d, 0x3f, 0xbf,
  0x7f, 0x6d, 0x00, 0x3f, 0x0f, 0x14, 0xa6, 0x3e, 0x03, 0x81, 0x92, 0x3e,
  0x54, 0xe5, 0xc1, 0x3d, 0xc8, 0x90, 0x1a, 0x3f, 0xd5, 0xa6, 0x27, 0xbf,
  0x4a, 0xa5, 0x59, 0xbd, 0x21, 0xdc, 0xad, 0xbe, 0x2b, 0x6a, 0xa1, 0x3d,
  0x07, 0x6b, 0x08, 0xbe, 0xe2, 0xaa, 0x9e, 0x3e, 0xc9, 0x8f, 0x04, 0x3d,
  0x35, 0xf9, 0x09, 0x3f, 0xb2, 0xae, 0x1f, 0xbe, 0x3c, 0xe2, 0x1b, 0xbf,
  0x42, 0xb4, 0x90, 0x3e, 0x43, 0x7c, 0x56, 0xbe, 0x35, 0xf9, 0x4c, 0x3e,
  0x08, 0x04, 0x1a, 0x3e, 0x2c, 0x39, 0x34, 0x3e, 0x72, 0x2f, 0x5d, 0xbd,
  0x89, 0x10, 0x77, 0x3e, 0x93, 0x2f, 0x0e, 0x3e, 0x32, 0x9c, 0xc9, 0xbe,
  0x81, 0x5f, 0x87, 0x3e, 0x96, 0xb3, 0x1d, 0xbe, 0x19, 0x0b, 0xe4, 0x3d,
  0x5f, 0x47, 0x33, 0xbc, 0x26, 0xf6, 0xb5, 0xbd, 0x01, 0xdd, 0x71, 0xbe,
  0x26, 0x44, 0x93, 0xbe, 0x99, 0x4a, 0xca, 0xbe, 0xd8, 0x4a, 0x30, 0xbe,
  0x63, 0xfe, 0xe6, 0xbe, 0x4f, 0x72, 0xc7, 0xbe, 0xd5, 0x72, 0x2d, 0x3e,
  0x2c, 0xfc, 0x29, 0xbf, 0x18, 0x12, 0x95, 0x3d, 0xd1, 0x45, 0xd7, 0xbe,
  0x1a, 0x6f, 0x12, 0xbe, 0x06, 0xef, 0xc8, 0xbd, 0xbc, 0x09, 0x17, 0xbd,
  0x47, 0x52, 0xfe, 0xbe, 0x72, 0xb5, 0xa8, 0x3e, 0xb6, 0xef, 0x3d, 0x3e,
  0xbe, 0x21, 0x72, 0x3e, 0xae, 0x75, 0x7d, 0xbf, 0xf7, 0x0e, 0x99, 0xbf,
  0xed, 0xba, 0xd2, 0xbe, 0x3f, 0xba, 0xa7, 0x3d, 0x31, 0xf9, 0x80, 0x3d,
  0x20, 0x10, 0x10, 0xbe, 0xc7, 0x43, 0x41, 0xbe, 0x0b, 0x31, 0x79, 0xbe,
  0x28, 0x17, 0x42, 0xbf, 0xd2, 0x25, 0x19, 0xbc, 0xcc, 0x50, 0xdd, 0x3e,
  0xf7, 0xa6, 0xaf, 0x3e, 0xe4, 0xb8, 0xac, 0xbe, 0xb4, 0xf5, 0x60, 0x3e,
  0xd5, 0x16, 0x04, 0x3f, 0xb4, 0x50, 0x2f, 0x3e, 0x91, 0xb1, 0x20, 0xbe,
  0x41, 0x76, 0x70, 0xbf, 0x30, 0xde, 0xd1, 0xbe, 0x1d, 0x54, 0x4b, 0xbe,
  0x1b, 0x87, 0x4e, 0x3f, 0xfe, 0x77, 0xdf, 0xbe, 0xba, 0xe7, 0x4f, 0x3f,
  0xa5, 0xb9, 0x7e, 0xbd, 0xb7, 0x86, 0xcd, 0x3e, 0xb3, 0xd0, 0xb2, 0x3c,
  0x96, 0x6f, 0x1e, 0xbe, 0x2b, 0x60, 0x2b, 0xbf, 0x77, 0xd1, 0x8f, 0xbd,
  0xa0, 0xfe, 0x4f, 0x3d, 0xc3, 0xa2, 0x4d, 0x3e, 0x96, 0x24, 0x30, 0x3e,
  0x38, 0x25, 0x0a, 0x3e, 0x9f, 0xca, 0x8d, 0xbd, 0x64, 0x4d, 0x19, 0x3e,
  0x55, 0x94, 0x7a, 0xbe, 0xa9, 0xac, 0x6c, 0xbf, 0x30, 0x5b, 0x77, 0xbe,
  0x97, 0x41, 0x2e, 0xbf, 0x5d, 0xaa, 0xe0, 0x3d, 0x31, 0xcd, 0x16, 0x3f,
  0xce, 0xfc, 0x62, 0x3e, 0x43, 0x86, 0xbe, 0x3e, 0xf2, 0xf5, 0x37, 0xbe,
  0x9d, 0x76, 0x0f, 0xbf, 0x22, 0xbc, 0xd8, 0xbd, 0x91, 0x40, 0x4c, 0xbc,
  0x63, 0x00, 0x78, 0xbc, 0xd2, 0x34, 0x34, 0x3e, 0x63, 0x73, 0xe8, 0xbe,
  0xf1, 0x27, 0x46, 0xbd, 0x27, 0xab, 0xa6, 0xbd, 0x02, 0xd9, 0xbe, 0x3e,
  0x2a, 0xe2, 0x8b, 0x3c, 0x02, 0xed, 0xcd, 0xbc, 0x43, 0xd7, 0x57, 0xbe,
  0xb4, 0xdf, 0x05, 0x3f, 0x0e, 0x88, 0x2c, 0x3b, 0x53, 0x51, 0x0d, 0x3f,
  0x2e, 0xf7, 0x09, 0xbf, 0xfe, 0xe2, 0x97, 0xbf, 0xa1, 0xa0, 0x30, 0xbe,
  0x97, 0xde, 0x3d, 0xbf, 0xbc, 0xc6, 0xc2, 0xbc, 0xa7, 0xdd, 0xe7, 0x3e,
  0x9c, 0xe3, 0x8f, 0xbc, 0x34, 0x00, 0x40, 0x3e, 0x56, 0xc0, 0xca, 0x3e,
  0x28, 0xd6, 0x25, 0x3f, 0x88, 0x9e, 0x58, 0xbf, 0x28, 0x8b, 0x05, 0x3f,
  0xd8, 0x5f, 0x04, 0xbd, 0x31, 0xc1, 0x1a, 0xbf, 0x60, 0xc5, 0x85, 0xbe,
  0x8b, 0xc4, 0x50, 0x3e, 0x73, 0x9c, 0xcb, 0xbf, 0x9d, 0x28, 0xb4, 0x3e,
  0x05, 0x2c, 0xa0, 0x3d, 0x3a, 0xbe, 0xa2, 0xbd, 0x97, 0x95, 0x97, 0xbe,
  0xe5, 0xbe, 0xc1, 0x3d, 0x3b, 0x37, 0x60, 0x3d, 0xde, 0x74, 0x6f, 0x3e,
  0x58, 0x21, 0x2b, 0xbf, 0x8e, 0x18, 0x1e, 0x3d, 0x16, 0x09, 0x19, 0xbf,
  0xa9, 0x08, 0x3f, 0x3e, 0x6e, 0x83, 0xd5, 0x3d, 0x12, 0x86, 0x03, 0x3f,
  0xe6, 0x61, 0x87, 0x3e, 0xb8, 0x9c, 0x22, 0x3f, 0x04, 0xd4, 0xfc, 0xbe,
  0x75, 0x43, 0x89, 0xbf, 0x5f, 0xd7, 0x66, 0xbe, 0x6a, 0x44, 0xb6, 0x3d,
  0x5a, 0x82, 0x5f, 0x3d, 0xcb, 0xdc, 0x6b, 0x3d, 0x77, 0x4a, 0x17, 0x3f,
  0x91, 0x2a, 0xdf, 0xbd, 0x56, 0x60, 0x90, 0xbe, 0x09, 0xc0, 0x8d, 0x3e,
  0xfa, 0x9d, 0x4d, 0x3e, 0x54, 0xbb, 0xa0, 0xbd, 0x59, 0x0e, 0x3d, 0x3d,
  0x1c, 0xb6, 0x77, 0x3e, 0x0f, 0xbd, 0x0e, 0xbd, 0x6f, 0x6c, 0x68, 0x3d,
  0x14, 0x92, 0x70, 0x3d, 0x1a, 0xad, 0x0e, 0xbf, 0x11, 0xaf, 0x34, 0xbd,
  0xc5, 0xa2, 0x27, 0xbf, 0x3a, 0x60, 0x6d, 0xbc, 0xfe, 0x49, 0xe2, 0x3e,
  0x89, 0xb4, 0xa6, 0x3e, 0x6e, 0xc0, 0xee, 0x3e, 0x83, 0x89, 0xf5, 0xbd,
  0x14, 0x8f, 0xb4, 0xbf, 0xde, 0xaf, 0x11, 0x3e, 0x70, 0xba, 0x7b, 0xbf,
  0x99, 0xa3, 0x02, 0xbe, 0xc0, 0x25, 0x46, 0x3e, 0x8c, 0xb0, 0xfe, 0xbe,
  0xe5, 0xb7, 0xfa, 0x3e, 0xd6, 0x98, 0x81, 0x3e, 0xd6, 0xd2, 0x72, 0x3e,
  0x0c, 0x7a, 0x0c, 0x3e, 0x5b, 0x0c, 0x0e, 0x3f, 0x8b, 0xb3, 0x88, 0xbe,
  0x47, 0x8d, 0xdf, 0xbe, 0x21, 0x55, 0x88, 0xbe, 0x2f, 0x34, 0xc7, 0xbe,
  0x56, 0x31, 0xb1, 0xbe, 0xba, 0xad, 0x0c, 0x3e, 0x83, 0xf2, 0x15, 0x3e,
  0xd0, 0x51, 0x05, 0x3f, 0xcb, 0x59, 0xf3, 0xbd, 0xea, 0xf0, 0x89, 0x3e,
  0xb8, 0xb3, 0x8a, 0xbe, 0xaf, 0x25, 0xee, 0xbe, 0x2e, 0x34, 0x02, 0x3e,
  0x77, 0x74, 0x4d, 0x3e, 0x5f, 0x1c, 0x57, 0x3e, 0x4d, 0xeb, 0x84, 0xbd,
  0x05, 0x95, 0xa4, 0x3e, 0xa5, 0x95, 0x79, 0xbe, 0xad, 0xc1, 0x86, 0xbe,
  0xc5, 0xc9, 0x35, 0x3e, 0x09, 0x05, 0xf3, 0x3e, 0x61, 0x42, 0x32, 0xbe,
  0xd3, 0x7f, 0xc5, 0xbe, 0x2d, 0x79, 0xe6, 0xbd, 0x62, 0x0f, 0x84, 0xbf,
  0xda, 0xa3, 0xda, 0xbe, 0xc6, 0x0c, 0x26, 0xbf, 0x32, 0xfe, 0xde, 0xbe,
  0xb6, 0x3c, 0xf6, 0x3e, 0x0c, 0xaa, 0xa5, 0x3e, 0xde, 0xe2, 0xf8, 0xbe,
  0x09, 0xfb, 0xa7, 0x3e, 0x01, 0x46, 0xeb, 0xbe, 0xc9, 0x70, 0x98, 0xbe,
  0x86, 0xcc, 0x62, 0xbd, 0x5e, 0xc5, 0xf2, 0xbd, 0x28, 0xf9, 0xc1, 0xbe,
  0x52, 0x43, 0x1c, 0x3e, 0x9a, 0x9f, 0xe9, 0xbd, 0xf1, 0xba, 0x3b, 0xbe,
  0x60, 0x80, 0xd4, 0xbe, 0x8a, 0xfe, 0xff, 0xff, 0x04, 0x00, 0x00, 0x00,
  0x08, 0x00, 0x00, 0x00, 0xff, 0xff, 0xff, 0xff, 0x48, 0x00, 0x00, 0x00,
  0x9e, 0xfe, 0xff, 0xff, 0x04, 0x00, 0x00, 0x00, 0x28, 0x00, 0x00, 0x00,
  0xba, 0x65, 0xc9, 0xbc, 0x4b, 0x46, 0x92, 0x3d, 0x4e, 0xf4, 0x85, 0x3d,
  0xdd, 0x45, 0xc5, 0x3c, 0xa1, 0x7a, 0x7e, 0xbc, 0x95, 0x07, 0xa1, 0xbc,
  0xaf, 0xd5, 0xca, 0x3c, 0x9e, 0xa7, 0x41, 0xbc, 0xc4, 0x8e, 0x17, 0xbd,
  0x88, 0xe1, 0xb2, 0xbd, 0xd2, 0xfe, 0xff, 0xff, 0x04, 0x00, 0x00, 0x00,
  0x20, 0x01, 0x00, 0x00, 0xef, 0x16, 0x3d, 0x3f, 0x9d, 0x6d, 0x82, 0xbc,
  0xff, 0x87, 0x5f, 0xbf, 0x7d, 0xd5, 0x26, 0xbe, 0x82, 0x6d, 0x20, 0x3f,
  0x15, 0xa9, 0xaa, 0xbe, 0x9f, 0x2a, 0x37, 0xbf, 0x2f, 0x7d, 0x28, 0x3f,
  0x39, 0x37, 0x0d, 0x3f, 0xa4, 0xa1, 0x4d, 0x3f, 0xe4, 0x65, 0xdb, 0x3d,
  0x3c, 0xeb, 0x79, 0xbe, 0xbe, 0xd5, 0x3f, 0x3f, 0x58, 0x1c, 0x83, 0x3f,
  0xa8, 0x5f, 0x95, 0xbe, 0xdb, 0x54, 0x00, 0x3f, 0x67, 0xd4, 0x89, 0x3f,
  0xfd, 0x94, 0x26, 0x3f, 0x20, 0x18, 0x38, 0xbf, 0x67, 0x15, 0x85, 0x3e,
  0x15, 0xf2, 0x9e, 0x3e, 0x5c, 0x16, 0x00, 0xbd, 0x1b, 0x65, 0x79, 0xbd,
  0x8d, 0x3d, 0x22, 0x3f, 0x7b, 0x65, 0x23, 0x3f, 0x41, 0xf0, 0xe1, 0xbe,
  0x5f, 0x72, 0x70, 0xbf, 0x1d, 0x7a, 0x3f, 0x3f, 0x07, 0x8d, 0xaa, 0x3e,
  0xc0, 0x9a, 0xea, 0x3e, 0x9a, 0xe2, 0x28, 0xbe, 0x26, 0xd9, 0xa0, 0xbf,
  0xb8, 0xff, 0x9e, 0xbf, 0xe2, 0x46, 0x3b, 0x3f, 0xd3, 0x65, 0x18, 0x3e,
  0xf6, 0x37, 0xb0, 0x3e, 0x89, 0x9f, 0x5b, 0x3f, 0x1d, 0xeb, 0x82, 0xbe,
  0x35, 0xee, 0x33, 0x3f, 0xf6, 0x37, 0xe9, 0xbe, 0x9e, 0x65, 0xa6, 0xbf,
  0x0d, 0x70, 0xc2, 0x3e, 0x82, 0xd1, 0x88, 0xbf, 0x6d, 0xb0, 0x34, 0xbf,
  0xb0, 0x18, 0x2c, 0x3d, 0x36, 0xdd, 0x8b, 0xbd, 0x1d, 0xa8, 0x37, 0x3f,
  0x02, 0xa3, 0x6f, 0x3f, 0xe1, 0x9d, 0x37, 0xbe, 0x74, 0x54, 0x5f, 0x3f,
  0x8e, 0x19, 0x5b, 0x3f, 0x6f, 0x48, 0x0b, 0xbf, 0x19, 0xae, 0xcc, 0xbd,
  0x88, 0xe7, 0x61, 0x3e, 0x5a, 0x2b, 0x4c, 0x3f, 0x78, 0x68, 0x38, 0x3f,
  0x7f, 0x55, 0x83, 0x3f, 0x47, 0x8c, 0x04, 0x3e, 0xf1, 0x9d, 0x06, 0xbf,
  0xd8, 0x62, 0x84, 0x3e, 0x2a, 0x46, 0x49, 0xbf, 0xa7, 0x3c, 0x78, 0xbf,
  0xbf, 0x13, 0x2b, 0xbf, 0x11, 0x2d, 0x87, 0x3f, 0x45, 0xa8, 0x77, 0x3f,
  0x59, 0x1b, 0xc9, 0xbe, 0x3b, 0x26, 0x7a, 0x3f, 0xd7, 0xdb, 0x3d, 0x3d,
  0xa3, 0x1a, 0x73, 0x3d, 0x0c, 0xaf, 0xfb, 0x3e, 0x9b, 0xaa, 0x90, 0xbe,
  0x5d, 0x79, 0x90, 0x3e, 0x00, 0x00, 0x06, 0x00, 0x08, 0x00, 0x04, 0x00,
  0x06, 0x00, 0x00, 0x00, 0x04, 0x00, 0x00, 0x00, 0x20, 0x00, 0x00, 0x00,
  0x6d, 0x17, 0x5f, 0x3d, 0x9d, 0xec, 0x09, 0x3d, 0xbe, 0xf3, 0x85, 0x3e,
  0x45, 0xe2, 0xe3, 0x3e, 0xca, 0xff, 0x54, 0x3f, 0xd9, 0x33, 0x9f, 0x3b,
  0xd7, 0x3a, 0x21, 0x3f, 0x59, 0x03, 0xb9, 0xbc, 0x60, 0xfa, 0xff, 0xff,
  0x64, 0xfa, 0xff, 0xff, 0x0f, 0x00, 0x00, 0x00, 0x4d, 0x4c, 0x49, 0x52,
  0x20, 0x43, 0x6f, 0x6e, 0x76, 0x65, 0x72, 0x74, 0x65, 0x64, 0x2e, 0x00,
  0x01, 0x00, 0x00, 0x00, 0x14, 0x00, 0x00, 0x00, 0x00, 0x00, 0x0e, 0x00,
  0x18, 0x00, 0x14, 0x00, 0x10, 0x00, 0x0c, 0x00, 0x08, 0x00, 0x04, 0x00,
  0x0e, 0x00, 0x00, 0x00, 0x14, 0x00, 0x00, 0x00, 0x1c, 0x00, 0x00, 0x00,
  0x4c, 0x01, 0x00, 0x00, 0x50, 0x01, 0x00, 0x00, 0x54, 0x01, 0x00, 0x00,
  0x04, 0x00, 0x00, 0x00, 0x6d, 0x61, 0x69, 0x6e, 0x00, 0x00, 0x00, 0x00,
  0x04, 0x00, 0x00, 0x00, 0xe4, 0x00, 0x00, 0x00, 0x80, 0x00, 0x00, 0x00,
  0x48, 0x00, 0x00, 0x00, 0x04, 0x00, 0x00, 0x00, 0x9a, 0xff, 0xff, 0xff,
  0x14, 0x00, 0x00, 0x00, 0x00, 0x00, 0x00, 0x08, 0x10, 0x00, 0x00, 0x00,
  0x14, 0x00, 0x00, 0x00, 0x03, 0x00, 0x00, 0x00, 0xe4, 0xfa, 0xff, 0xff,
  0x01, 0x00, 0x00, 0x00, 0x09, 0x00, 0x00, 0x00, 0x03, 0x00, 0x00, 0x00,
  0x08, 0x00, 0x00, 0x00, 0x05, 0x00, 0x00, 0x00, 0x03, 0x00, 0x00, 0x00,
  0x00, 0x00, 0x0a, 0x00, 0x10, 0x00, 0x0c, 0x00, 0x08, 0x00, 0x04, 0x00,
  0x0a, 0x00, 0x00, 0x00, 0x0c, 0x00, 0x00, 0x00, 0x10, 0x00, 0x00, 0x00,
  0x02, 0x00, 0x00, 0x00, 0x01, 0x00, 0x00, 0x00, 0x08, 0x00, 0x00, 0x00,
  0x02, 0x00, 0x00, 0x00, 0x07, 0x00, 0x00, 0x00, 0x04, 0x00, 0x00, 0x00,
  0x00, 0x00, 0x0e, 0x00, 0x1a, 0x00, 0x14, 0x00, 0x10, 0x00, 0x0c, 0x00,
  0x0b, 0x00, 0x04, 0x00, 0x0e, 0x00, 0x00, 0x00, 0x24, 0x00, 0x00, 0x00,
  0x00, 0x00, 0x00, 0x05, 0x34, 0x00, 0x00, 0x00, 0x38, 0x00, 0x00, 0x00,
  0x01, 0x00, 0x00, 0x00, 0x00, 0x00, 0x0e, 0x00, 0x18, 0x00, 0x17, 0x00,
  0x10, 0x00, 0x0c, 0x00, 0x08, 0x00, 0x04, 0x00, 0x0e, 0x00, 0x00, 0x00,
  0x02, 0x00, 0x00, 0x00, 0x02, 0x00, 0x00, 0x00, 0x02, 0x00, 0x00, 0x00,
  0x02, 0x00, 0x00, 0x00, 0x00, 0x00, 0x00, 0x01, 0x01, 0x00, 0x00, 0x00,
  0x07, 0x00, 0x00, 0x00, 0x01, 0x00, 0x00, 0x00, 0x06, 0x00, 0x00, 0x00,
  0x00, 0x00, 0x0e, 0x00, 0x14, 0x00, 0x00, 0x00, 0x10, 0x00, 0x0c, 0x00,
  0x0b, 0x00, 0x04, 0x00, 0x0e, 0x00, 0x00, 0x00, 0x1c, 0x00, 0x00, 0x00,
  0x00, 0x00, 0x00, 0x01, 0x28, 0x00, 0x00, 0x00, 0x2c, 0x00, 0x00, 0x00,
  0x0c, 0x00, 0x14, 0x00, 0x13, 0x00, 0x0c, 0x00, 0x08, 0x00, 0x07, 0x00,
  0x0c, 0x00, 0x00, 0x00, 0x00, 0x00, 0x00, 0x01, 0x01, 0x00, 0x00, 0x00,
  0x01, 0x00, 0x00, 0x00, 0x00, 0x00, 0x00, 0x01, 0x01, 0x00, 0x00, 0x00,
  0x06, 0x00, 0x00, 0x00, 0x03, 0x00, 0x00, 0x00, 0x00, 0x00, 0x00, 0x00,
  0x02, 0x00, 0x00, 0x00, 0x01, 0x00, 0x00, 0x00, 0x01, 0x00, 0x00, 0x00,
  0x09, 0x00, 0x00, 0x00, 0x01, 0x00, 0x00, 0x00, 0x00, 0x00, 0x00, 0x00,
  0x0a, 0x00, 0x00, 0x00, 0xd0, 0x03, 0x00, 0x00, 0x60, 0x03, 0x00, 0x00,
  0xf4, 0x02, 0x00, 0x00, 0xa0, 0x02, 0x00, 0x00, 0x54, 0x02, 0x00, 0x00,
  0xf4, 0x01, 0x00, 0x00, 0x30, 0x01, 0x00, 0x00, 0xbc, 0x00, 0x00, 0x00,
  0x60, 0x00, 0x00, 0x00, 0x04, 0x00, 0x00, 0x00, 0x6e, 0xfc, 0xff, 0xff,
  0x00, 0x00, 0x00, 0x01, 0x14, 0x00, 0x00, 0x00, 0x1c, 0x00, 0x00, 0x00,
  0x1c, 0x00, 0x00, 0x00, 0x0a, 0x00, 0x00, 0x00, 0x34, 0x00, 0x00, 0x00,
  0x02, 0x00, 0x00, 0x00, 0xff, 0xff, 0xff, 0xff, 0x0a, 0x00, 0x00, 0x00,
  0x50, 0xfc, 0xff, 0xff, 0x19, 0x00, 0x00, 0x00, 0x53, 0x74, 0x61, 0x74,
  0x65, 0x66, 0x75, 0x6c, 0x50, 0x61, 0x72, 0x74, 0x69, 0x74, 0x69, 0x6f,
  0x6e, 0x65, 0x64, 0x43, 0x61, 0x6c, 0x6c, 0x3a, 0x30, 0x00, 0x00, 0x00,
  0x02, 0x00, 0x00, 0x00, 0x01, 0x00, 0x00, 0x00, 0x0a, 0x00, 0x00, 0x00,
  0xc6, 0xfc, 0xff, 0xff, 0x00, 0x00, 0x00, 0x01, 0x14, 0x00, 0x00, 0x00,
  0x1c, 0x00, 0x00, 0x00, 0x1c, 0x00, 0x00, 0x00, 0x09, 0x00, 0x00, 0x00,
  0x34, 0x00, 0x00, 0x00, 0x02, 0x00, 0x00, 0x00, 0xff, 0xff, 0xff, 0xff,
  0x48, 0x00, 0x00, 0x00, 0xa8, 0xfc, 0xff, 0xff, 0x1a, 0x00, 0x00, 0x00,
  0x73, 0x65, 0x71, 0x75, 0x65, 0x6e, 0x74, 0x69, 0x61, 0x6c, 0x2f, 0x66,
  0x6c, 0x61, 0x74, 0x74, 0x65, 0x6e, 0x2f, 0x52, 0x65, 0x73, 0x68, 0x61,
  0x70, 0x65, 0x00, 0x00, 0x02, 0x00, 0x00, 0x00, 0x01, 0x00, 0x00, 0x00,
  0x48, 0x00, 0x00, 0x00, 0x1e, 0xfd, 0xff, 0xff, 0x00, 0x00, 0x00, 0x01,
  0x14, 0x00, 0x00, 0x00, 0x24, 0x00, 0x00, 0x00, 0x24, 0x00, 0x00, 0x00,
  0x08, 0x00, 0x00, 0x00, 0x44, 0x00, 0x00, 0x00, 0x04, 0x00, 0x00, 0x00,
  0xff, 0xff, 0xff, 0xff, 0x03, 0x00, 0x00, 0x00, 0x03, 0x00, 0x00, 0x00,
  0x08, 0x00, 0x00, 0x00, 0x08, 0xfd, 0xff, 0xff, 0x20, 0x00, 0x00, 0x00,
  0x73, 0x65, 0x71, 0x75, 0x65, 0x6e, 0x74, 0x69, 0x61, 0x6c, 0x2f, 0x6d,
  0x61, 0x78, 0x5f, 0x70, 0x6f, 0x6f, 0x6c, 0x69, 0x6e, 0x67, 0x32, 0x64,
  0x2f, 0x4d, 0x61, 0x78, 0x50, 0x6f, 0x6f, 0x6c, 0x00, 0x00, 0x00, 0x00,
  0x04, 0x00, 0x00, 0x00, 0x01, 0x00, 0x00, 0x00, 0x03, 0x00, 0x00, 0x00,
  0x03, 0x00, 0x00, 0x00, 0x08, 0x00, 0x00, 0x00, 0x8e, 0xfd, 0xff, 0xff,
  0x00, 0x00, 0x00, 0x01, 0x14, 0x00, 0x00, 0x00, 0x24, 0x00, 0x00, 0x00,
  0x24, 0x00, 0x00, 0x00, 0x07, 0x00, 0x00, 0x00, 0x94, 0x00, 0x00, 0x00,
  0x04, 0x00, 0x00, 0x00, 0xff, 0xff, 0xff, 0xff, 0x06, 0x00, 0x00, 0x00,
  0x06, 0x00, 0x00, 0x00, 0x08, 0x00, 0x00, 0x00, 0x78, 0xfd, 0xff, 0xff,
  0x72, 0x00, 0x00, 0x00, 0x73, 0x65, 0x71, 0x75, 0x65, 0x6e, 0x74, 0x69,
  0x61, 0x6c, 0x2f, 0x63, 0x6f, 0x6e, 0x76, 0x32, 0x64, 0x2f, 0x52, 0x65,
  0x6c, 0x75, 0x3b, 0x73, 0x65, 0x71, 0x75, 0x65, 0x6e, 0x74, 0x69, 0x61,
  0x6c, 0x2f, 0x63, 0x6f, 0x6e, 0x76, 0x32, 0x64, 0x2f, 0x42, 0x69, 0x61,
  0x73, 0x41, 0x64, 0x64, 0x3b, 0x73, 0x65, 0x71, 0x75, 0x65, 0x6e, 0x74,
  0x69, 0x61, 0x6c, 0x2f, 0x63, 0x6f, 0x6e, 0x76, 0x32, 0x64, 0x2f, 0x43,
  0x6f, 0x6e, 0x76, 0x32, 0x44, 0x3b, 0x73, 0x65, 0x71, 0x75, 0x65, 0x6e,
  0x74, 0x69, 0x61, 0x6c, 0x2f, 0x63, 0x6f, 0x6e, 0x76, 0x32, 0x64, 0x2f,
  0x42, 0x69, 0x61, 0x73, 0x41, 0x64, 0x64, 0x2f, 0x52, 0x65, 0x61, 0x64,
  0x56, 0x61, 0x72, 0x69, 0x61, 0x62, 0x6c, 0x65, 0x4f, 0x70, 0x00, 0x00,
  0x04, 0x00, 0x00, 0x00, 0x01, 0x00, 0x00, 0x00, 0x06, 0x00, 0x00, 0x00,
  0x06, 0x00, 0x00, 0x00, 0x08, 0x00, 0x00, 0x00, 0xba, 0xfe, 0xff, 0xff,
  0x00, 0x00, 0x00, 0x01, 0x10, 0x00, 0x00, 0x00, 0x10, 0x00, 0x00, 0x00,
  0x06, 0x00, 0x00, 0x00, 0x24, 0x00, 0x00, 0x00, 0x20, 0xfe, 0xff, 0xff,
  0x17, 0x00, 0x00, 0x00, 0x73, 0x65, 0x71, 0x75, 0x65, 0x6e, 0x74, 0x69,
  0x61, 0x6c, 0x2f, 0x64, 0x65, 0x6e, 0x73, 0x65, 0x2f, 0x4d, 0x61, 0x74,
  0x4d, 0x75, 0x6c, 0x00, 0x02, 0x00, 0x00, 0x00, 0x0a, 0x00, 0x00, 0x00,
  0x48, 0x00, 0x00, 0x00, 0x00, 0x00, 0x16, 0x00, 0x1c, 0x00, 0x18, 0x00,
  0x17, 0x00, 0x10, 0x00, 0x0c, 0x00, 0x08, 0x00, 0x00, 0x00, 0x00, 0x00,
  0x00, 0x00, 0x07, 0x00, 0x16, 0x00, 0x00, 0x00, 0x00, 0x00, 0x00, 0x01,
  0x14, 0x00, 0x00, 0x00, 0x14, 0x00, 0x00, 0x00, 0x05, 0x00, 0x00, 0x00,
  0x00, 0x00, 0x00, 0x02, 0x28, 0x00, 0x00, 0x00, 0x80, 0xfe, 0xff, 0xff,
  0x18, 0x00, 0x00, 0x00, 0x73, 0x65, 0x71, 0x75, 0x65, 0x6e, 0x74, 0x69,
  0x61, 0x6c, 0x2f, 0x66, 0x6c, 0x61, 0x74, 0x74, 0x65, 0x6e, 0x2f, 0x43,
  0x6f, 0x6e, 0x73, 0x74, 0x00, 0x00, 0x00, 0x00, 0x01, 0x00, 0x00, 0x00,
  0x02, 0x00, 0x00, 0x00, 0x5e, 0xff, 0xff, 0xff, 0x00, 0x00, 0x00, 0x01,
  0x10, 0x00, 0x00, 0x00, 0x10, 0x00, 0x00, 0x00, 0x04, 0x00, 0x00, 0x00,
  0x34, 0x00, 0x00, 0x00, 0xc4, 0xfe, 0xff, 0xff, 0x27, 0x00, 0x00, 0x00,
  0x73, 0x65, 0x71, 0x75, 0x65, 0x6e, 0x74, 0x69, 0x61, 0x6c, 0x2f, 0x64,
  0x65, 0x6e, 0x73, 0x65, 0x2f, 0x42, 0x69, 0x61, 0x73, 0x41, 0x64, 0x64,
  0x2f, 0x52, 0x65, 0x61, 0x64, 0x56, 0x61, 0x72, 0x69, 0x61, 0x62, 0x6c,
  0x65, 0x4f, 0x70, 0x00, 0x01, 0x00, 0x00, 0x00, 0x0a, 0x00, 0x00, 0x00,
  0xae, 0xff, 0xff, 0xff, 0x00, 0x00, 0x00, 0x01, 0x10, 0x00, 0x00, 0x00,
  0x10, 0x00, 0x00, 0x00, 0x03, 0x00, 0x00, 0x00, 0x28, 0x00, 0x00, 0x00,
  0x14, 0xff, 0xff, 0xff, 0x18, 0x00, 0x00, 0x00, 0x73, 0x65, 0x71, 0x75,
  0x65, 0x6e, 0x74, 0x69, 0x61, 0x6c, 0x2f, 0x63, 0x6f, 0x6e, 0x76, 0x32,
  0x64, 0x2f, 0x43, 0x6f, 0x6e, 0x76, 0x32, 0x44, 0x00, 0x00, 0x00, 0x00,
  0x04, 0x00, 0x00, 0x00, 0x08, 0x00, 0x00, 0x00, 0x03, 0x00, 0x00, 0x00,
  0x03, 0x00, 0x00, 0x00, 0x01, 0x00, 0x00, 0x00, 0x00, 0x00, 0x16, 0x00,
  0x18, 0x00, 0x14, 0x00, 0x00, 0x00, 0x10, 0x00, 0x0c, 0x00, 0x08, 0x00,
  0x00, 0x00, 0x00, 0x00, 0x00, 0x00, 0x07, 0x00, 0x16, 0x00, 0x00, 0x00,
  0x00, 0x00, 0x00, 0x01, 0x10, 0x00, 0x00, 0x00, 0x10, 0x00, 0x00, 0x00,
  0x02, 0x00, 0x00, 0x00, 0x38, 0x00, 0x00, 0x00, 0x7c, 0xff, 0xff, 0xff,
  0x28, 0x00, 0x00, 0x00, 0x73, 0x65, 0x71, 0x75, 0x65, 0x6e, 0x74, 0x69,
  0x61, 0x6c, 0x2f, 0x63, 0x6f, 0x6e, 0x76, 0x32, 0x64, 0x2f, 0x42, 0x69,
  0x61, 0x73, 0x41, 0x64, 0x64, 0x2f, 0x52, 0x65, 0x61, 0x64, 0x56, 0x61,
  0x72, 0x69, 0x61, 0x62, 0x6c, 0x65, 0x4f, 0x70, 0x00, 0x00, 0x00, 0x00,
  0x01, 0x00, 0x00, 0x00, 0x08, 0x00, 0x00, 0x00, 0x00, 0x00, 0x16, 0x00,
  0x1c, 0x00, 0x18, 0x00, 0x00, 0x00, 0x14, 0x00, 0x10, 0x00, 0x0c, 0x00,
  0x00, 0x00, 0x00, 0x00, 0x08, 0x00, 0x07, 0x00, 0x16, 0x00, 0x00, 0x00,
  0x00, 0x00, 0x00, 0x01, 0x14, 0x00, 0x00, 0x00, 0x28, 0x00, 0x00, 0x00,
  0x28, 0x00, 0x00, 0x00, 0x01, 0x00, 0x00, 0x00, 0x44, 0x00, 0x00, 0x00,
  0x04, 0x00, 0x00, 0x00, 0xff, 0xff, 0xff, 0xff, 0x08, 0x00, 0x00, 0x00,
  0x08, 0x00, 0x00, 0x00, 0x01, 0x00, 0x00, 0x00, 0x04, 0x00, 0x04, 0x00,
  0x04, 0x00, 0x00, 0x00, 0x1e, 0x00, 0x00, 0x00, 0x73, 0x65, 0x72, 0x76,
  0x69, 0x6e, 0x67, 0x5f, 0x64, 0x65, 0x66, 0x61, 0x75, 0x6c, 0x74, 0x5f,
  0x63, 0x6f, 0x6e, 0x76, 0x32, 0x64, 0x5f, 0x69, 0x6e, 0x70, 0x75, 0x74,
  0x3a, 0x30, 0x00, 0x00, 0x04, 0x00, 0x00, 0x00, 0x01, 0x00, 0x00, 0x00,
  0x08, 0x00, 0x00, 0x00, 0x08, 0x00, 0x00, 0x00, 0x01, 0x00, 0x00, 0x00,
  0x04, 0x00, 0x00, 0x00, 0x40, 0x00, 0x00, 0x00, 0x24, 0x00, 0x00, 0x00,
  0x14, 0x00, 0x00, 0x00, 0x04, 0x00, 0x00, 0x00, 0xdc, 0xff, 0xff, 0xff,
  0x09, 0x00, 0x00, 0x00, 0x00, 0x00, 0x00, 0x09, 0xe8, 0xff, 0xff, 0xff,
  0x16, 0x00, 0x00, 0x00, 0x00, 0x00, 0x00, 0x16, 0xf4, 0xff, 0xff, 0xff,
  0x11, 0x00, 0x00, 0x00, 0x00, 0x00, 0x00, 0x11, 0x0c, 0x00, 0x0c, 0x00,
  0x0b, 0x00, 0x00, 0x00, 0x00, 0x00, 0x04, 0x00, 0x0c, 0x00, 0x00, 0x00,
  0x03, 0x00, 0x00, 0x00, 0x00, 0x00, 0x00, 0x03
};

const int .\models\model_quant_float32_len = 5360;
