#ifdef __has_attribute
#define HAVE_ATTRIBUTE(x) __has_attribute(x)
#else
#define HAVE_ATTRIBUTE(x) 0
#endif
#if HAVE_ATTRIBUTE(aligned) || (defined(__GNUC__) && !defined(__clang__))
#define DATA_ALIGN_ATTRIBUTE __attribute__((aligned(4)))
#else
#define DATA_ALIGN_ATTRIBUTE
#endif

const unsigned char .\models\model_quant_float32[]  DATA_ALIGN_ATTRIBUTE = {
 0x1c, 0x00, 0x00, 0x00, 0x54, 0x46, 0x4c, 0x33, 0x14, 0x00, 0x20, 0x00,
  0x1c, 0x00, 0x18, 0x00, 0x14, 0x00, 0x10, 0x00, 0x0c, 0x00, 0x00, 0x00,
  0x08, 0x00, 0x04, 0x00, 0x14, 0x00, 0x00, 0x00, 0x1c, 0x00, 0x00, 0x00,
  0x90, 0x00, 0x00, 0x00, 0xe8, 0x00, 0x00, 0x00, 0xa8, 0x0e, 0x00, 0x00,
  0xb8, 0x0e, 0x00, 0x00, 0x1c, 0x15, 0x00, 0x00, 0x03, 0x00, 0x00, 0x00,
  0x01, 0x00, 0x00, 0x00, 0x10, 0x00, 0x00, 0x00, 0x00, 0x00, 0x0a, 0x00,
  0x10, 0x00, 0x0c, 0x00, 0x08, 0x00, 0x04, 0x00, 0x0a, 0x00, 0x00, 0x00,
  0x0c, 0x00, 0x00, 0x00, 0x1c, 0x00, 0x00, 0x00, 0x38, 0x00, 0x00, 0x00,
  0x0f, 0x00, 0x00, 0x00, 0x73, 0x65, 0x72, 0x76, 0x69, 0x6e, 0x67, 0x5f,
  0x64, 0x65, 0x66, 0x61, 0x75, 0x6c, 0x74, 0x00, 0x01, 0x00, 0x00, 0x00,
  0x04, 0x00, 0x00, 0x00, 0x98, 0xff, 0xff, 0xff, 0x0c, 0x00, 0x00, 0x00,
  0x04, 0x00, 0x00, 0x00, 0x07, 0x00, 0x00, 0x00, 0x64, 0x65, 0x6e, 0x73,
  0x65, 0x5f, 0x33, 0x00, 0x01, 0x00, 0x00, 0x00, 0x04, 0x00, 0x00, 0x00,
  0x22, 0xf2, 0xff, 0xff, 0x04, 0x00, 0x00, 0x00, 0x0b, 0x00, 0x00, 0x00,
  0x64, 0x65, 0x6e, 0x73, 0x65, 0x5f, 0x69, 0x6e, 0x70, 0x75, 0x74, 0x00,
  0x02, 0x00, 0x00, 0x00, 0x34, 0x00, 0x00, 0x00, 0x04, 0x00, 0x00, 0x00,
  0xdc, 0xff, 0xff, 0xff, 0x0f, 0x00, 0x00, 0x00, 0x04, 0x00, 0x00, 0x00,
  0x13, 0x00, 0x00, 0x00, 0x43, 0x4f, 0x4e, 0x56, 0x45, 0x52, 0x53, 0x49,
  0x4f, 0x4e, 0x5f, 0x4d, 0x45, 0x54, 0x41, 0x44, 0x41, 0x54, 0x41, 0x00,
  0x08, 0x00, 0x0c, 0x00, 0x08, 0x00, 0x04, 0x00, 0x08, 0x00, 0x00, 0x00,
  0x0e, 0x00, 0x00, 0x00, 0x04, 0x00, 0x00, 0x00, 0x13, 0x00, 0x00, 0x00,
  0x6d, 0x69, 0x6e, 0x5f, 0x72, 0x75, 0x6e, 0x74, 0x69, 0x6d, 0x65, 0x5f,
  0x76, 0x65, 0x72, 0x73, 0x69, 0x6f, 0x6e, 0x00, 0x10, 0x00, 0x00, 0x00,
  0xbc, 0x0d, 0x00, 0x00, 0xb4, 0x0d, 0x00, 0x00, 0x64, 0x0d, 0x00, 0x00,
  0x2c, 0x0d, 0x00, 0x00, 0x18, 0x0d, 0x00, 0x00, 0x88, 0x0c, 0x00, 0x00,
  0xf8, 0x0a, 0x00, 0x00, 0xe8, 0x02, 0x00, 0x00, 0xd8, 0x00, 0x00, 0x00,
  0xa8, 0x00, 0x00, 0x00, 0xa0, 0x00, 0x00, 0x00, 0x98, 0x00, 0x00, 0x00,
  0x90, 0x00, 0x00, 0x00, 0x88, 0x00, 0x00, 0x00, 0x68, 0x00, 0x00, 0x00,
  0x04, 0x00, 0x00, 0x00, 0xda, 0xf2, 0xff, 0xff, 0x04, 0x00, 0x00, 0x00,
  0x54, 0x00, 0x00, 0x00, 0x0c, 0x00, 0x00, 0x00, 0x08, 0x00, 0x0e, 0x00,
  0x08, 0x00, 0x04, 0x00, 0x08, 0x00, 0x00, 0x00, 0x10, 0x00, 0x00, 0x00,
  0x24, 0x00, 0x00, 0x00, 0x00, 0x00, 0x06, 0x00, 0x08, 0x00, 0x04, 0x00,
  0x06, 0x00, 0x00, 0x00, 0x04, 0x00, 0x00, 0x00, 0x00, 0x00, 0x00, 0x00,
  0x00, 0x00, 0x0a, 0x00, 0x10, 0x00, 0x0c, 0x00, 0x08, 0x00, 0x04, 0x00,
  0x0a, 0x00, 0x00, 0x00, 0x02, 0x00, 0x00, 0x00, 0x02, 0x00, 0x00, 0x00,
  0x04, 0x00, 0x00, 0x00, 0x06, 0x00, 0x00, 0x00, 0x32, 0x2e, 0x31, 0x35,
  0x2e, 0x30, 0x00, 0x00, 0x3a, 0xf3, 0xff, 0xff, 0x04, 0x00, 0x00, 0x00,
  0x10, 0x00, 0x00, 0x00, 0x31, 0x2e, 0x35, 0x2e, 0x30, 0x00, 0x00, 0x00,
  0x00, 0x00, 0x00, 0x00, 0x00, 0x00, 0x00, 0x00, 0xb8, 0xec, 0xff, 0xff,
  0xbc, 0xec, 0xff, 0xff, 0xc0, 0xec, 0xff, 0xff, 0xc4, 0xec, 0xff, 0xff,
  0x66, 0xf3, 0xff, 0xff, 0x04, 0x00, 0x00, 0x00, 0x20, 0x00, 0x00, 0x00,
  0x7c, 0xa1, 0x78, 0x3f, 0xb6, 0x4e, 0x1d, 0x3f, 0x00, 0x36, 0x35, 0xbf,
  0x93, 0xf1, 0x40, 0x3f, 0x90, 0xeb, 0xd5, 0xbd, 0x62, 0x50, 0x31, 0x3f,
  0x01, 0x69, 0x04, 0xbf, 0x63, 0x37, 0x70, 0x3e, 0x92, 0xf3, 0xff, 0xff,
  0x04, 0x00, 0x00, 0x00, 0x00, 0x02, 0x00, 0x00, 0xf4, 0xb1, 0x25, 0x3f,
  0x22, 0xfa, 0x7d, 0xbb, 0xcb, 0xf5, 0x01, 0x3f, 0xe6, 0x8f, 0xc0, 0x34,
  0x5e, 0x1d, 0xef, 0xbe, 0x96, 0x79, 0x8b, 0xbc, 0x0c, 0xae, 0x18, 0xbd,
  0x90, 0x79, 0xfa, 0x3e, 0x50, 0x8a, 0x3e, 0xbd, 0xc6, 0x37, 0xaa, 0x3e,
  0x7f, 0x2a, 0x8f, 0x3e, 0x0f, 0x1f, 0xde, 0x3e, 0x26, 0xc3, 0xf7, 0x3c,
  0x16, 0xb9, 0x36, 0x3f, 0xc9, 0xed, 0x3a, 0xb8, 0x98, 0x8c, 0x66, 0xbe,
  0x8d, 0x74, 0x8d, 0xbc, 0xbf, 0x55, 0x4d, 0xbd, 0xf4, 0xeb, 0x50, 0xa9,
  0xc0, 0x12, 0x4f, 0xac, 0xa5, 0xcd, 0x7a, 0xa3, 0x21, 0xff, 0x2d, 0xbd,
  0x70, 0x0b, 0x6f, 0x22, 0x42, 0xff, 0x92, 0xa5, 0x2d, 0xe4, 0x92, 0x36,
  0x11, 0xc7, 0xe6, 0xbc, 0xc6, 0x06, 0x9b, 0xab, 0x70, 0x23, 0xf0, 0x3a,
  0xfa, 0x45, 0xbd, 0x23, 0xf0, 0x34, 0x75, 0xb7, 0x3b, 0x09, 0xe5, 0xbc,
  0x12, 0x6a, 0x1b, 0x25, 0x31, 0xb9, 0xcf, 0x3e, 0x61, 0x84, 0xb5, 0xbb,
  0x37, 0xaf, 0x46, 0xbd, 0x9f, 0xb3, 0xcc, 0x34, 0xc6, 0x9d, 0x80, 0xbe,
  0x57, 0x11, 0x29, 0xba, 0x19, 0x73, 0xba, 0x38, 0x30, 0x61, 0x18, 0x3e,
  0x06, 0x1c, 0x74, 0xa2, 0x0f, 0x93, 0x33, 0xbe, 0x94, 0x4d, 0x2f, 0xbe,
  0xc4, 0x9c, 0x8c, 0x3c, 0xed, 0x0d, 0x5d, 0xa8, 0x57, 0xbb, 0x84, 0xbe,
  0xa9, 0x58, 0x33, 0xbb, 0xf9, 0xc7, 0x00, 0xbe, 0x33, 0xac, 0x0e, 0x3f,
  0xa7, 0x17, 0x2b, 0xbd, 0x0f, 0x97, 0x7e, 0x3d, 0x86, 0xc7, 0x4a, 0xb5,
  0x1d, 0x03, 0xb1, 0xbe, 0x87, 0x24, 0x4e, 0x2c, 0xb0, 0x63, 0xb0, 0xbb,
  0xb7, 0x75, 0x2f, 0x3f, 0x6f, 0x67, 0xb1, 0xb9, 0x15, 0xb6, 0xb4, 0x3d,
  0xca, 0x92, 0xc0, 0xbe, 0xd9, 0x69, 0x1e, 0x3f, 0x36, 0x71, 0xf8, 0x3c,
  0x2e, 0xb8, 0x09, 0x3f, 0x08, 0x53, 0x14, 0xb8, 0xb4, 0x97, 0xd3, 0x3e,
  0x90, 0x26, 0x8a, 0x3b, 0xa2, 0x51, 0xfd, 0xbc, 0x97, 0xa8, 0x07, 0xa6,
  0xb6, 0x0e, 0x32, 0xbd, 0xd5, 0x41, 0xcf, 0xb7, 0xda, 0xb7, 0xba, 0xa0,
  0xfc, 0x3f, 0xe1, 0xa9, 0xf3, 0x80, 0x94, 0x3b, 0xe8, 0x73, 0x7c, 0x23,
  0x68, 0x42, 0x2b, 0xbd, 0xf8, 0x0e, 0xbb, 0xba, 0x39, 0x86, 0xb3, 0x21,
  0x86, 0x2c, 0x18, 0x38, 0xde, 0xab, 0x08, 0xbc, 0xde, 0xb4, 0x5d, 0xbd,
  0x2f, 0x39, 0x05, 0x3a, 0xd6, 0x95, 0x01, 0x3c, 0xac, 0x69, 0x96, 0x3a,
  0x2b, 0x3b, 0xcd, 0x3e, 0x90, 0x90, 0x06, 0x3d, 0x78, 0xf9, 0xff, 0x3d,
  0xe0, 0x02, 0x22, 0x39, 0x53, 0x71, 0x4c, 0x3d, 0xf3, 0x5f, 0x93, 0x3e,
  0x5e, 0x71, 0xc1, 0xa3, 0xdb, 0x0d, 0x2c, 0x3e, 0x3c, 0x29, 0xe4, 0xbe,
  0x42, 0x71, 0x16, 0xbe, 0xb0, 0x64, 0x76, 0x3d, 0xa7, 0x04, 0x15, 0x3f,
  0xce, 0x85, 0x73, 0x3d, 0xb7, 0xa4, 0xda, 0xbe, 0x80, 0x84, 0xc0, 0xbe,
  0x82, 0xe4, 0x88, 0xb8, 0x67, 0x9d, 0x80, 0x3e, 0x01, 0x78, 0xa5, 0xb5,
  0x89, 0xc7, 0xac, 0x3e, 0x52, 0xf2, 0x10, 0xa4, 0xc1, 0x25, 0x3d, 0x3c,
  0x53, 0x34, 0xf1, 0xbe, 0xf9, 0x0f, 0xcc, 0x23, 0x2a, 0xa9, 0x75, 0x3d,
  0xb4, 0x2e, 0x85, 0x3d, 0xd1, 0x9b, 0x06, 0xbf, 0x76, 0x19, 0x86, 0x3b,
  0x2a, 0x43, 0xde, 0x3e, 0x18, 0xb5, 0xf2, 0xb9, 0xc6, 0x05, 0xee, 0x3e,
  0x7f, 0x86, 0x28, 0x3f, 0x3c, 0x87, 0x69, 0xbc, 0x82, 0x75, 0x25, 0x3f,
  0xbf, 0x12, 0xeb, 0x33, 0xe4, 0x53, 0x57, 0x3d, 0xef, 0x97, 0xc1, 0x3a,
  0x0f, 0xa9, 0x57, 0xa2, 0x30, 0x62, 0x11, 0x3f, 0x46, 0x95, 0x50, 0x22,
  0x6c, 0x34, 0x7f, 0xbd, 0x68, 0x50, 0x66, 0xbf, 0xee, 0x6f, 0x53, 0xbd,
  0x20, 0xc0, 0x33, 0x3d, 0x57, 0x90, 0x20, 0xbe, 0x27, 0x8d, 0x74, 0x3c,
  0x52, 0xf1, 0x3d, 0x3e, 0x9e, 0xf5, 0xff, 0xff, 0x04, 0x00, 0x00, 0x00,
  0x00, 0x08, 0x00, 0x00, 0xe2, 0xd6, 0x01, 0x3b, 0x1d, 0xf9, 0xe2, 0x3c,
  0x7a, 0x46, 0x23, 0xbe, 0x6a, 0xfa, 0x9e, 0xa2, 0x29, 0xe1, 0xb4, 0xbd,
  0xd3, 0x87, 0x6e, 0x3e, 0x13, 0x24, 0xf9, 0x32, 0xf7, 0x56, 0xc4, 0x3e,
  0xff, 0xed, 0x1e, 0x2c, 0x23, 0xf6, 0xf5, 0x3d, 0xbf, 0xd4, 0x13, 0x27,
  0x8b, 0x9f, 0x1b, 0xbe, 0x3a, 0xbb, 0xb6, 0x3e, 0x61, 0xc6, 0x6d, 0xbe,
  0x91, 0x12, 0x86, 0x3e, 0x21, 0xee, 0x07, 0x3f, 0xa7, 0xf4, 0xbe, 0x3e,
  0x01, 0x53, 0x47, 0xbe, 0x51, 0x30, 0x0a, 0x3e, 0x2a, 0x6b, 0xd8, 0x3e,
  0x47, 0xb6, 0x24, 0xa4, 0x7d, 0x17, 0x08, 0x3e, 0xb0, 0xc7, 0x1c, 0x1f,
  0xd9, 0x7d, 0x83, 0xb7, 0x3e, 0x67, 0x18, 0x3d, 0x70, 0x33, 0xa9, 0xbc,
  0x92, 0x2a, 0xcd, 0x3e, 0x60, 0xac, 0x90, 0x3d, 0x9b, 0xcb, 0x57, 0xbf,
  0xd5, 0x7b, 0xeb, 0xbb, 0xd2, 0x40, 0xb1, 0x3e, 0x1e, 0xe1, 0xbf, 0x3e,
  0xac, 0x7f, 0xa8, 0x23, 0x68, 0x62, 0xdf, 0x38, 0x32, 0xe2, 0xf7, 0xbd,
  0x0c, 0xcb, 0x11, 0x39, 0x34, 0xa2, 0xe1, 0xa5, 0x95, 0x3b, 0x15, 0xbe,
  0xc0, 0xe8, 0x8b, 0x25, 0xa0, 0x7d, 0x1a, 0xbe, 0x59, 0xbb, 0x4a, 0xba,
  0x96, 0x91, 0x2c, 0x3e, 0x17, 0x1b, 0x53, 0xbb, 0xf4, 0xc3, 0xcc, 0x22,
  0xff, 0xa3, 0x12, 0xbc, 0xb8, 0x2e, 0x04, 0x3b, 0x26, 0x01, 0x23, 0xbd,
  0x8e, 0xbc, 0x78, 0x3e, 0x09, 0x27, 0xfe, 0xbc, 0xed, 0xfa, 0x95, 0x3b,
  0x8e, 0x57, 0x16, 0xbe, 0xd4, 0x75, 0x7e, 0x3e, 0xe1, 0x2d, 0x0e, 0xb8,
  0xe9, 0xfd, 0x0b, 0xbc, 0xae, 0xd8, 0xa4, 0xb6, 0x37, 0xf6, 0x21, 0xbc,
  0xae, 0x1b, 0xc0, 0xa5, 0xd7, 0x29, 0xb6, 0x38, 0xdc, 0x4e, 0xe0, 0x3c,
  0x35, 0xc0, 0x64, 0xbe, 0x76, 0xc5, 0xce, 0xbb, 0x48, 0xa9, 0x04, 0xbd,
  0xc7, 0xa4, 0x7b, 0xbd, 0xda, 0xc7, 0x9c, 0xbc, 0x07, 0x9a, 0x92, 0x25,
  0x25, 0x39, 0x94, 0x3e, 0xad, 0xc8, 0x0e, 0x3e, 0xdc, 0xba, 0xcf, 0xa0,
  0x9b, 0xa2, 0x21, 0xbe, 0x38, 0x4f, 0x8c, 0x3e, 0x7d, 0x99, 0x05, 0x38,
  0xa0, 0xba, 0xde, 0xbc, 0x4a, 0x62, 0x65, 0x26, 0x29, 0xa2, 0x4d, 0xbd,
  0x4f, 0x3e, 0xf1, 0xa9, 0x2b, 0x71, 0x81, 0xbe, 0x67, 0x7a, 0x04, 0x3f,
  0xb0, 0xc9, 0xa4, 0xbe, 0xd9, 0x84, 0x16, 0xbd, 0x3a, 0x0b, 0xae, 0x3e,
  0x94, 0x31, 0x0f, 0x3f, 0xa4, 0x40, 0x96, 0xbd, 0xd2, 0xc6, 0xf1, 0x3e,
  0x59, 0x51, 0x10, 0x3f, 0x0e, 0xb7, 0x03, 0x3c, 0x61, 0xb1, 0xe1, 0x3e,
  0x77, 0x11, 0x8a, 0x33, 0x12, 0x6e, 0x18, 0x25, 0x61, 0xe8, 0x06, 0x3f,
  0x80, 0xd3, 0xe9, 0x39, 0xce, 0xc0, 0xaa, 0x3d, 0x6a, 0x84, 0x6b, 0x3e,
  0xe1, 0x5c, 0x3c, 0xbf, 0xc8, 0xfe, 0x0e, 0x3f, 0xb9, 0x9f, 0x6f, 0x3d,
  0xc9, 0x36, 0xae, 0x3e, 0x5c, 0xb9, 0x92, 0x33, 0x5f, 0xb8, 0x33, 0x3b,
  0xf4, 0x38, 0x42, 0xbc, 0x3b, 0xf6, 0x47, 0x2c, 0xbd, 0xb8, 0xb2, 0xab,
  0xba, 0xcf, 0xa5, 0xbc, 0xf0, 0x21, 0xce, 0x28, 0x8d, 0xf1, 0x88, 0xbc,
  0x09, 0x6f, 0x64, 0xbb, 0x73, 0xd5, 0x8d, 0xbc, 0x38, 0xdb, 0xf9, 0x30,
  0x58, 0x60, 0x81, 0x39, 0x27, 0x70, 0x91, 0xbc, 0xd9, 0x5f, 0xde, 0x2d,
  0xf4, 0xf2, 0xa9, 0xbc, 0xc4, 0x76, 0x71, 0xbc, 0x32, 0x27, 0x83, 0xbc,
  0xdc, 0x88, 0x26, 0xb4, 0xbf, 0x10, 0x87, 0xbc, 0x68, 0x7b, 0x8f, 0xbc,
  0xc4, 0xfe, 0x03, 0x3b, 0xec, 0x66, 0xa4, 0xbc, 0x09, 0x16, 0x60, 0xb8,
  0xa2, 0x9b, 0xe7, 0x1f, 0xc2, 0x1f, 0x72, 0xbc, 0x04, 0x84, 0x97, 0x3b,
  0x19, 0x1d, 0x5a, 0xbc, 0x75, 0xa7, 0x8a, 0xbc, 0x31, 0x80, 0x19, 0xbc,
  0xc4, 0xc3, 0x86, 0xbc, 0x9e, 0x5c, 0xc1, 0xbb, 0xce, 0xbd, 0x22, 0xbc,
  0xe3, 0xb8, 0xae, 0x34, 0xcb, 0xd2, 0x0f, 0xbd, 0x91, 0x9c, 0x4e, 0xbe,
  0xce, 0x6b, 0x26, 0x3b, 0xc1, 0x74, 0x35, 0xbe, 0xc6, 0xbd, 0x8b, 0xbd,
  0x6d, 0xa4, 0x4f, 0xbb, 0x0b, 0x6d, 0x43, 0x3e, 0xc6, 0x76, 0x6b, 0xa2,
  0x60, 0x3f, 0xcb, 0x3c, 0xca, 0x9b, 0x63, 0x31, 0x3e, 0x57, 0xe4, 0x3d,
  0xff, 0xa3, 0x42, 0xbd, 0xc4, 0xe9, 0x54, 0x3c, 0x88, 0x75, 0xb2, 0x3d,
  0xd8, 0x85, 0x8d, 0xbd, 0xd6, 0xe5, 0x5f, 0xbe, 0xa8, 0x75, 0xf6, 0xbd,
  0x8c, 0x3e, 0x28, 0x3d, 0xda, 0xae, 0xa4, 0x3d, 0x83, 0xed, 0xaa, 0x9f,
  0x25, 0x6b, 0x58, 0xbe, 0xdd, 0x23, 0xbb, 0xa2, 0x6c, 0xe9, 0x04, 0xbc,
  0x77, 0x40, 0xea, 0xbe, 0x58, 0x1b, 0x9f, 0xbd, 0xaf, 0x52, 0x8e, 0x3e,
  0xf3, 0x59, 0x6c, 0x3d, 0xab, 0x38, 0x44, 0x3e, 0xb4, 0x2d, 0x65, 0x3e,
  0x7f, 0x3a, 0x03, 0x3e, 0x9f, 0xd0, 0x8d, 0xbd, 0x80, 0x27, 0x70, 0x27,
  0xc8, 0xb8, 0xfb, 0xa2, 0xd9, 0x9c, 0x6d, 0xbd, 0x8d, 0x5e, 0x51, 0x24,
  0xdf, 0x05, 0x01, 0x22, 0x0f, 0xef, 0x00, 0xbd, 0x19, 0x64, 0x72, 0xb6,
  0x6c, 0x9b, 0x18, 0x3d, 0x78, 0xd5, 0x14, 0xbb, 0xe3, 0x69, 0x39, 0xbe,
  0x4f, 0x44, 0x37, 0xbb, 0x1d, 0xe6, 0x82, 0x3b, 0x1e, 0xe9, 0xfe, 0x3d,
  0xbb, 0x49, 0x43, 0xae, 0x51, 0x1c, 0xaf, 0x3d, 0x6e, 0xf1, 0xde, 0xbd,
  0xa0, 0x3f, 0xe4, 0x3c, 0x8a, 0x76, 0xb6, 0x22, 0xef, 0x56, 0x26, 0xbe,
  0xa5, 0x47, 0x5f, 0xbc, 0xc0, 0x84, 0x94, 0x37, 0x76, 0x59, 0x93, 0xbb,
  0xc8, 0x51, 0x4a, 0xba, 0x93, 0xf8, 0x4f, 0xae, 0x2e, 0x0c, 0x7b, 0xbc,
  0x78, 0x2e, 0x83, 0xb7, 0xc9, 0x53, 0x03, 0x3e, 0xa3, 0xc3, 0x81, 0xbc,
  0xcd, 0xcf, 0x8f, 0xa2, 0x5b, 0x3d, 0xaf, 0xbd, 0x46, 0x54, 0x61, 0x24,
  0xaa, 0x64, 0x0a, 0x3e, 0x25, 0xa5, 0x85, 0xb6, 0x51, 0xe9, 0xe8, 0xba,
  0xcc, 0xa1, 0x32, 0xbe, 0x65, 0xa1, 0x89, 0xba, 0x32, 0x7e, 0xe1, 0x22,
  0x5a, 0x8d, 0x9f, 0xbd, 0x6f, 0xb0, 0x7b, 0xb9, 0x20, 0x9f, 0x38, 0x3d,
  0xde, 0x8f, 0x06, 0xbb, 0xf1, 0xa9, 0x3d, 0xbc, 0x7c, 0x06, 0x7b, 0x34,
  0x6a, 0xe2, 0xaa, 0x2d, 0xb4, 0x65, 0xc4, 0x3d, 0x78, 0x1c, 0x8e, 0xbb,
  0xd2, 0xd4, 0xf7, 0x3b, 0x73, 0x66, 0x21, 0xbc, 0x37, 0x71, 0x76, 0xbd,
  0xc4, 0x38, 0x73, 0xb8, 0xb3, 0xf1, 0x9d, 0xbd, 0x8c, 0xdd, 0xfb, 0xbb,
  0x09, 0x88, 0x03, 0xba, 0xdf, 0x89, 0xf3, 0xbd, 0xac, 0x15, 0x82, 0xa5,
  0x36, 0x3c, 0x49, 0x36, 0xf4, 0x9a, 0x58, 0x3d, 0x22, 0xb2, 0x65, 0xa2,
  0xfa, 0x58, 0x30, 0x3b, 0xc5, 0x9c, 0x00, 0x3e, 0x84, 0xfb, 0xbd, 0x33,
  0x00, 0xa1, 0xe5, 0x3c, 0x6c, 0x9b, 0x22, 0xb9, 0xa9, 0x56, 0x4e, 0xbd,
  0x02, 0x5a, 0x95, 0x39, 0x16, 0xd5, 0x8a, 0xbe, 0xbd, 0x6c, 0xb4, 0x3d,
  0x44, 0xeb, 0xb3, 0x39, 0xeb, 0xcd, 0x4b, 0xbe, 0x6b, 0x09, 0x1c, 0xbd,
  0xa1, 0x77, 0xb6, 0x24, 0x71, 0x47, 0xd6, 0x3e, 0x08, 0xf0, 0x79, 0x33,
  0x70, 0xb6, 0x04, 0x3f, 0xed, 0x01, 0x2a, 0xba, 0x8b, 0xe4, 0x54, 0x3e,
  0x93, 0x5e, 0x0a, 0x3f, 0x44, 0xad, 0x5c, 0xbe, 0xdc, 0x8f, 0x89, 0xbc,
  0x2c, 0x97, 0x59, 0x3e, 0xf7, 0xff, 0xa5, 0xbd, 0xee, 0xbd, 0x94, 0xbe,
  0xa3, 0xb0, 0xb5, 0x3e, 0x4d, 0xe0, 0xf1, 0xbd, 0x79, 0x16, 0xb7, 0x31,
  0xc9, 0xb6, 0xfc, 0x3d, 0x3e, 0xd3, 0xb0, 0xa1, 0xd9, 0x1c, 0x41, 0x3b,
  0x06, 0x3f, 0xd7, 0x3e, 0x39, 0x2e, 0x83, 0xbd, 0x6f, 0x99, 0x84, 0x3e,
  0x4e, 0xed, 0x93, 0x3e, 0xba, 0x00, 0xff, 0xbe, 0x57, 0xea, 0x85, 0x3e,
  0xb9, 0xe0, 0x44, 0x3d, 0x15, 0x3e, 0x6f, 0x3e, 0x12, 0x21, 0xfb, 0xa2,
  0x5d, 0xa4, 0x17, 0x2d, 0x93, 0xb6, 0x0e, 0xbb, 0xd2, 0xec, 0xe0, 0xba,
  0x3b, 0x7e, 0x61, 0xb7, 0x09, 0x23, 0x2e, 0x3c, 0x4c, 0xe9, 0x76, 0x3b,
  0x84, 0xc7, 0xfb, 0xbb, 0xd0, 0x54, 0x65, 0x22, 0x5c, 0xec, 0xb5, 0xb0,
  0xb2, 0x3a, 0xd2, 0xa0, 0x1d, 0xbc, 0x6d, 0xba, 0x0e, 0xc6, 0x3b, 0x29,
  0x3a, 0x14, 0x1d, 0xb3, 0x52, 0x16, 0xd5, 0xba, 0x10, 0x9c, 0x8b, 0x9e,
  0x60, 0x35, 0xb7, 0x25, 0x8b, 0x77, 0xd4, 0x3a, 0xbc, 0xa5, 0x77, 0xb9,
  0x2e, 0x67, 0x28, 0xbc, 0x71, 0x6e, 0x7a, 0x35, 0x91, 0x88, 0x83, 0xba,
  0xbc, 0x97, 0x52, 0x2f, 0x39, 0x25, 0xe9, 0x22, 0xa0, 0x71, 0x26, 0x3b,
  0xa8, 0xb6, 0x1b, 0xa8, 0xc3, 0x3b, 0x9e, 0xba, 0xb5, 0x96, 0x0a, 0xbc,
  0x80, 0xd9, 0xfa, 0xb7, 0xed, 0x64, 0x11, 0x34, 0xf4, 0x09, 0xa0, 0xaa,
  0x26, 0x62, 0x3a, 0xba, 0x32, 0xd2, 0xec, 0xa2, 0x1e, 0xd6, 0x82, 0x3d,
  0xf1, 0xb1, 0x9e, 0x3e, 0x6d, 0x95, 0xb6, 0xba, 0xe5, 0xa6, 0xb1, 0x3c,
  0x6e, 0xb0, 0x2d, 0x3e, 0x82, 0x15, 0xd2, 0xb4, 0x18, 0x91, 0x0c, 0x3f,
  0xd7, 0xda, 0x44, 0x33, 0xe7, 0x3a, 0x09, 0x3f, 0xe8, 0x9b, 0x56, 0x23,
  0xaa, 0x48, 0x0a, 0xbe, 0x5e, 0xd6, 0xde, 0x3e, 0xa6, 0x3b, 0xab, 0xbd,
  0x1e, 0xe5, 0x82, 0x3e, 0xc8, 0x71, 0x41, 0x3d, 0x07, 0x18, 0xcd, 0x3e,
  0x09, 0x0d, 0x8a, 0xbd, 0x30, 0xf3, 0x37, 0x3e, 0x9c, 0x3e, 0x62, 0x3e,
  0xf0, 0xc9, 0xe4, 0x21, 0x9d, 0x13, 0xa4, 0xbc, 0x30, 0xbf, 0x08, 0xbb,
  0xd6, 0x1f, 0x35, 0xac, 0x33, 0xdc, 0xae, 0x3e, 0xb5, 0xbd, 0x0f, 0xba,
  0x2a, 0x7c, 0x1f, 0x3f, 0xf8, 0xc6, 0x9b, 0x3e, 0x7d, 0x32, 0x38, 0xbf,
  0x46, 0xf2, 0xe3, 0xbc, 0x0a, 0x6d, 0xcd, 0x3d, 0xa3, 0x23, 0x6a, 0x3c,
  0x98, 0xd9, 0x04, 0xa0, 0x39, 0xf6, 0x0d, 0xbd, 0xb2, 0x7a, 0xa5, 0xbd,
  0x46, 0xd7, 0x06, 0xa5, 0xc2, 0xa1, 0x2d, 0x3d, 0xf2, 0xa0, 0x4e, 0x3e,
  0x5a, 0x39, 0x38, 0xa9, 0xd1, 0x61, 0x9c, 0x3e, 0x4c, 0x1f, 0xe0, 0x3b,
  0x72, 0xbf, 0x9b, 0xbe, 0x6a, 0x21, 0x24, 0xa8, 0xda, 0x80, 0x22, 0x3f,
  0x01, 0x2b, 0x62, 0x3e, 0xf9, 0xdc, 0x32, 0x3c, 0x2a, 0x41, 0xf1, 0xbd,
  0xc9, 0x82, 0xf9, 0xbe, 0xdd, 0x54, 0x60, 0xbe, 0x50, 0x6d, 0x3d, 0xbe,
  0x8d, 0xa1, 0x92, 0xbc, 0x52, 0x3a, 0x3a, 0xbd, 0xc3, 0x30, 0xca, 0xbb,
  0xb3, 0xd5, 0x83, 0x3e, 0x1f, 0x40, 0x94, 0x37, 0xa1, 0x3b, 0x46, 0xbb,
  0x3e, 0x29, 0x91, 0xbd, 0x16, 0xc1, 0x80, 0xb6, 0xce, 0xe0, 0x9e, 0xbd,
  0x8c, 0x57, 0x29, 0x3e, 0xab, 0x37, 0xc3, 0x3e, 0x1f, 0x00, 0xc0, 0x3e,
  0x45, 0x7f, 0x72, 0xbe, 0xab, 0x74, 0x27, 0x3c, 0x38, 0xdf, 0x09, 0x3a,
  0x2f, 0x77, 0xf9, 0xbd, 0xfd, 0x85, 0x39, 0x3e, 0x89, 0x1d, 0x0c, 0x3c,
  0x58, 0xff, 0x4c, 0x3e, 0x84, 0xec, 0x4d, 0x3e, 0x98, 0x40, 0x25, 0x21,
  0x29, 0xd0, 0xaa, 0x3e, 0x60, 0xd3, 0xa2, 0x3a, 0x18, 0x51, 0x3c, 0xbd,
  0x63, 0x56, 0xbe, 0xbb, 0xce, 0x3d, 0x13, 0x3e, 0x49, 0xdf, 0xa8, 0x3e,
  0x2d, 0xb2, 0xd0, 0xbe, 0x52, 0xdd, 0x18, 0x3f, 0x0f, 0xfb, 0x07, 0x3f,
  0x11, 0x52, 0x2d, 0x3e, 0xc1, 0x4e, 0x94, 0xbc, 0x24, 0x5d, 0x02, 0x3f,
  0xd7, 0x88, 0x28, 0x3e, 0xd0, 0x7e, 0x4d, 0x9f, 0xab, 0x07, 0x81, 0x3e,
  0xda, 0xf2, 0xd1, 0xa2, 0xe6, 0xa6, 0x2b, 0x28, 0x99, 0xff, 0x5d, 0x3d,
  0xcd, 0x80, 0x06, 0x3d, 0xcc, 0x54, 0x02, 0x3f, 0x9e, 0xa0, 0x37, 0xbd,
  0x99, 0xe9, 0x6a, 0xbf, 0x02, 0xba, 0xc7, 0x3d, 0xc6, 0x82, 0x08, 0x3f,
  0x45, 0xa2, 0x39, 0x3e, 0x01, 0x4b, 0xa8, 0xaa, 0xf3, 0x42, 0x28, 0xbc,
  0x42, 0x94, 0xe9, 0xb4, 0x27, 0x26, 0x35, 0xa9, 0xe7, 0xbc, 0x06, 0xb6,
  0x06, 0x71, 0xc6, 0xb7, 0x32, 0x27, 0x73, 0xb5, 0x14, 0xe4, 0x9a, 0x23,
  0xfe, 0xfb, 0x70, 0xa4, 0x50, 0xab, 0xe0, 0x9f, 0x30, 0x93, 0xa3, 0x2e,
  0xa6, 0x5d, 0x20, 0x23, 0xd6, 0x0a, 0x07, 0xbc, 0xff, 0x4d, 0x86, 0x2a,
  0xda, 0x6a, 0x80, 0x2a, 0x6f, 0x27, 0x01, 0x3a, 0xbc, 0xdb, 0xb5, 0x22,
  0x15, 0xc7, 0xbc, 0xb7, 0x9e, 0xb8, 0x44, 0x21, 0x7a, 0xf1, 0x41, 0xa1,
  0x19, 0xed, 0x2e, 0x3b, 0x11, 0xa2, 0x38, 0xa3, 0x6b, 0xfc, 0xa3, 0x27,
  0x91, 0x95, 0x5e, 0xbb, 0x9f, 0x65, 0x03, 0xae, 0x42, 0x9e, 0x09, 0x3a,
  0xbd, 0x3d, 0x90, 0x3b, 0x35, 0x6d, 0x99, 0xbb, 0x98, 0x64, 0xc5, 0x20,
  0xeb, 0x86, 0xaf, 0xb2, 0x8f, 0x2f, 0x4d, 0xbb, 0x02, 0xe2, 0xce, 0x3b,
  0x07, 0xe8, 0x95, 0x33, 0xc2, 0x98, 0x8c, 0xbd, 0xef, 0x49, 0x0d, 0xbe,
  0x5c, 0x1f, 0x49, 0xb8, 0xa7, 0x75, 0x88, 0xbe, 0x25, 0xbf, 0xff, 0x3d,
  0xfa, 0x3a, 0xdb, 0xa1, 0x6d, 0x75, 0xd6, 0x3e, 0x9c, 0xad, 0xb2, 0x37,
  0x94, 0xaf, 0x97, 0x3d, 0x3f, 0xa3, 0x50, 0xa4, 0x05, 0x9a, 0x9a, 0x3c,
  0xbb, 0x42, 0x01, 0x3f, 0x2f, 0xc7, 0x7f, 0xbe, 0x04, 0xc8, 0x13, 0x3f,
  0xfe, 0x6f, 0x04, 0x3f, 0x2e, 0xfe, 0x87, 0x3e, 0xac, 0x21, 0x06, 0xbe,
  0x51, 0x55, 0x3e, 0x3e, 0x9f, 0xa8, 0xdc, 0x3e, 0x5e, 0xa3, 0xb8, 0x35,
  0x84, 0x73, 0x9d, 0x3e, 0x4a, 0x6a, 0x56, 0x38, 0x6e, 0x49, 0xcd, 0xb6,
  0x97, 0x7b, 0x80, 0x3e, 0x5f, 0x8d, 0x21, 0xbc, 0x34, 0x00, 0xa5, 0x3e,
  0xdc, 0x5d, 0x8d, 0x3e, 0x7a, 0xd6, 0x39, 0xbe, 0x37, 0x9f, 0x88, 0x3e,
  0xb1, 0xd1, 0xdd, 0x3e, 0x15, 0x60, 0xce, 0x3c, 0x6f, 0x63, 0xdd, 0xb4,
  0x20, 0xcf, 0x3b, 0xba, 0x42, 0x03, 0x19, 0x27, 0xe5, 0xae, 0xa6, 0xb7,
  0x3d, 0x2c, 0x14, 0x35, 0xb4, 0x4a, 0x83, 0xba, 0xeb, 0x48, 0x63, 0xb0,
  0x9b, 0x95, 0x06, 0xbc, 0xad, 0x91, 0x0e, 0xa3, 0xcd, 0xa0, 0x8f, 0x28,
  0xde, 0xa9, 0xdb, 0xba, 0x57, 0x4a, 0x0f, 0x23, 0xf8, 0x78, 0x31, 0xb2,
  0xe1, 0x8d, 0xd6, 0xb5, 0x26, 0x30, 0xdd, 0x22, 0xf3, 0x68, 0x21, 0xa3,
  0x05, 0x80, 0x52, 0xa9, 0xf0, 0xae, 0x58, 0xa3, 0xe6, 0x59, 0xdf, 0xa6,
  0xb0, 0x16, 0x65, 0xba, 0x27, 0x1a, 0xcf, 0x2d, 0xd1, 0x7c, 0x0f, 0xb9,
  0xa0, 0x83, 0x47, 0xba, 0x0e, 0x18, 0x3a, 0x23, 0x6e, 0x44, 0xb0, 0x22,
  0x6a, 0x41, 0x08, 0x27, 0xcc, 0xd0, 0xfe, 0x33, 0x4d, 0x2a, 0x44, 0x3a,
  0x70, 0xdb, 0xd5, 0xb9, 0x74, 0x5d, 0x04, 0xa2, 0xe0, 0xef, 0x84, 0x26,
  0xb6, 0xcf, 0xc0, 0xa4, 0x67, 0x24, 0x09, 0xa4, 0x0d, 0x67, 0x84, 0x3e,
  0xf0, 0x5a, 0x96, 0xbe, 0x64, 0x43, 0x5e, 0x3a, 0xaf, 0x13, 0x1f, 0xbe,
  0x0e, 0x39, 0x35, 0xbe, 0xe4, 0x24, 0x6b, 0xb1, 0xda, 0xb0, 0x96, 0x3e,
  0x46, 0xeb, 0xcf, 0x27, 0xc8, 0x95, 0x0c, 0x3e, 0xa3, 0x68, 0xc1, 0x38,
  0x76, 0xde, 0x6a, 0x3e, 0xd3, 0xf0, 0x9f, 0x3e, 0x81, 0xf7, 0x62, 0xbe,
  0x19, 0xd5, 0x88, 0xbe, 0xcb, 0x8d, 0xee, 0xbd, 0xd3, 0x0d, 0x74, 0x3e,
  0x4b, 0xcd, 0x44, 0x3e, 0xaa, 0x53, 0x9c, 0x3e, 0x54, 0xb3, 0x5a, 0xbe,
  0x32, 0x9a, 0x90, 0xaa, 0xe7, 0x90, 0xcb, 0xbe, 0x3e, 0x46, 0x1d, 0xab,
  0x11, 0xf6, 0x6e, 0xa3, 0x19, 0x8b, 0xc3, 0xbd, 0x6f, 0xe8, 0xb4, 0x3d,
  0x54, 0xe8, 0x8d, 0xbd, 0x49, 0xfb, 0x84, 0xbe, 0xe8, 0x24, 0x84, 0x3e,
  0x30, 0x9f, 0x2e, 0xbe, 0xc3, 0x93, 0x39, 0xbe, 0x5c, 0x06, 0x37, 0xbc,
  0xaa, 0xfd, 0xff, 0xff, 0x04, 0x00, 0x00, 0x00, 0x80, 0x01, 0x00, 0x00,
  0x8e, 0xf8, 0xa5, 0xb9, 0xf4, 0x22, 0x86, 0xbc, 0x82, 0xfd, 0xf1, 0xa3,
  0x64, 0xff, 0xa0, 0xbe, 0x16, 0xf7, 0x81, 0x3e, 0xad, 0xc5, 0x95, 0x3d,
  0x8e, 0xef, 0x81, 0x3e, 0x86, 0x05, 0x06, 0x3e, 0x3a, 0x2e, 0x9c, 0x3e,
  0xd4, 0xbd, 0xd2, 0xbc, 0x7a, 0x0f, 0x67, 0xbc, 0x61, 0xb1, 0x49, 0x36,
  0x11, 0xeb, 0x8a, 0x3e, 0x0e, 0x0d, 0x47, 0xbe, 0x5f, 0x89, 0x19, 0xbe,
  0x91, 0xd3, 0x5d, 0x3e, 0xfe, 0x00, 0x74, 0x3e, 0xef, 0xae, 0xb8, 0x3e,
  0x3c, 0xe3, 0x52, 0xb4, 0x65, 0x82, 0x5e, 0xb9, 0xa4, 0x1a, 0xb3, 0xa0,
  0xe0, 0x0f, 0xce, 0x3e, 0x71, 0xbe, 0x9a, 0x3e, 0x6b, 0xf2, 0xbc, 0x3e,
  0x0a, 0x54, 0xa2, 0xba, 0x71, 0xfc, 0x92, 0xa2, 0x40, 0x55, 0xbd, 0xb8,
  0xe4, 0xca, 0xfb, 0x3e, 0xf7, 0x8e, 0xa2, 0x3e, 0x97, 0x5e, 0x0d, 0x3f,
  0x66, 0x28, 0x8a, 0xbb, 0x76, 0x74, 0x4a, 0xbc, 0xbf, 0xc7, 0x26, 0xaa,
  0xdd, 0x10, 0xe9, 0x3e, 0x1f, 0xc3, 0x15, 0xbd, 0xcb, 0x1b, 0x76, 0xbe,
  0xe1, 0x94, 0xb4, 0xbd, 0xe9, 0x52, 0x13, 0x3f, 0x64, 0x07, 0x11, 0x3f,
  0xec, 0x24, 0x53, 0xbe, 0x34, 0xdb, 0xd2, 0x3e, 0xb7, 0xc5, 0xa2, 0xbd,
  0xec, 0xf4, 0xd2, 0xbd, 0x35, 0xe9, 0x85, 0x3d, 0x56, 0xf6, 0x06, 0x3f,
  0x24, 0xca, 0x80, 0x3e, 0xa3, 0xde, 0xa4, 0xbd, 0x89, 0x89, 0xb7, 0x3e,
  0x35, 0x19, 0x05, 0xbd, 0xca, 0x79, 0xf5, 0x3e, 0x46, 0x6c, 0x00, 0x3f,
  0x79, 0xcd, 0x65, 0x3e, 0x0a, 0xfd, 0x49, 0x3d, 0x17, 0xf6, 0xd4, 0xbe,
  0x27, 0xb2, 0x94, 0x3e, 0x68, 0x8c, 0x97, 0x3e, 0x7a, 0x1d, 0xde, 0x3e,
  0x9f, 0xf1, 0x07, 0x3f, 0xa8, 0xc0, 0x07, 0x3e, 0xd2, 0x29, 0xfc, 0x3e,
  0x48, 0x8d, 0xe5, 0xbb, 0x20, 0x9b, 0x83, 0xba, 0x2b, 0xe6, 0x67, 0xbb,
  0xcc, 0xd8, 0x24, 0x3e, 0x40, 0xa2, 0x55, 0x3e, 0xa1, 0x40, 0x43, 0x3e,
  0xad, 0x6e, 0x8b, 0xba, 0x6d, 0x1b, 0x13, 0x20, 0x67, 0xb7, 0x28, 0x2d,
  0xa4, 0xfd, 0x9a, 0xbb, 0x80, 0xc6, 0x3e, 0xb9, 0xfe, 0xac, 0x6f, 0xa3,
  0xe3, 0x93, 0x41, 0xbe, 0xd4, 0xb5, 0x13, 0x3f, 0xf5, 0x80, 0xa2, 0x3d,
  0xaf, 0x74, 0x28, 0xbe, 0x39, 0xa9, 0xad, 0xbe, 0x59, 0xaa, 0x30, 0x3e,
  0xf1, 0xa1, 0x61, 0xbe, 0x39, 0x54, 0x7a, 0x3e, 0x65, 0xd8, 0xf6, 0x3e,
  0x49, 0x3a, 0x82, 0x3e, 0x4e, 0xe1, 0x0f, 0x3f, 0xeb, 0x14, 0xc1, 0x3e,
  0xde, 0xed, 0x5e, 0x3e, 0xed, 0xa8, 0xcd, 0x3e, 0x8c, 0xfc, 0x9b, 0xbe,
  0x75, 0x8f, 0xf5, 0x3e, 0x31, 0x7d, 0x86, 0x3e, 0xd4, 0x79, 0x0f, 0x3e,
  0x40, 0x9c, 0xad, 0xbd, 0x41, 0xfe, 0x50, 0xbe, 0x49, 0x77, 0xe9, 0x3e,
  0xa8, 0x49, 0x94, 0x3e, 0x6b, 0x03, 0x0b, 0x3f, 0x97, 0xcc, 0x9c, 0x3e,
  0x36, 0xff, 0xff, 0xff, 0x04, 0x00, 0x00, 0x00, 0x80, 0x00, 0x00, 0x00,
  0x00, 0x00, 0x00, 0x00, 0xd9, 0xe9, 0x30, 0xbd, 0x8b, 0xaf, 0x9a, 0xbd,
  0x00, 0x00, 0x00, 0x00, 0x9b, 0x0b, 0x0c, 0xbd, 0x3d, 0x7c, 0x0d, 0x3e,
  0x00, 0x00, 0x00, 0x00, 0x31, 0xd9, 0x42, 0x3e, 0x00, 0x00, 0x00, 0x00,
  0xe9, 0x6e, 0x56, 0x3e, 0x00, 0x00, 0x00, 0x00, 0x53, 0x58, 0x0b, 0x3e,
  0x10, 0xb0, 0x58, 0x3e, 0x83, 0x0f, 0xb5, 0x3c, 0xa7, 0xa1, 0x59, 0x3e,
  0x58, 0x69, 0x61, 0x3e, 0x9a, 0x65, 0x50, 0x3e, 0x90, 0x02, 0x04, 0xbd,
  0xcc, 0xe2, 0x49, 0x3e, 0xb1, 0xfc, 0x5b, 0x3e, 0x00, 0x00, 0x00, 0x00,
  0x5a, 0x32, 0x6e, 0x3e, 0x00, 0x00, 0x00, 0x00, 0x00, 0x00, 0x00, 0x00,
  0x7f, 0x5a, 0x82, 0x3e, 0xf7, 0x4e, 0x4a, 0xbc, 0xd1, 0x33, 0x4c, 0x3e,
  0x12, 0x44, 0x65, 0x3e, 0xfa, 0xb8, 0xf1, 0x3c, 0x3f, 0x9e, 0x40, 0x3e,
  0x2e, 0x28, 0xfd, 0x3d, 0xf4, 0x38, 0x7a, 0x3e, 0xc2, 0xff, 0xff, 0xff,
  0x04, 0x00, 0x00, 0x00, 0x04, 0x00, 0x00, 0x00, 0xe8, 0xc8, 0x10, 0x3e,
  0xd2, 0xff, 0xff, 0xff, 0x04, 0x00, 0x00, 0x00, 0x20, 0x00, 0x00, 0x00,
  0xe6, 0xd1, 0x19, 0x3e, 0x00, 0x00, 0x00, 0x00, 0x40, 0xa7, 0x09, 0xbd,
  0x71, 0xe7, 0x22, 0x3e, 0x00, 0x00, 0x00, 0x00, 0x91, 0xdd, 0x20, 0x3e,
  0x1b, 0x83, 0x10, 0xbd, 0xbc, 0xba, 0x2e, 0x3e, 0x00, 0x00, 0x06, 0x00,
  0x08, 0x00, 0x04, 0x00, 0x06, 0x00, 0x00, 0x00, 0x04, 0x00, 0x00, 0x00,
  0x40, 0x00, 0x00, 0x00, 0x5d, 0xe7, 0x42, 0x3e, 0x76, 0xb5, 0x28, 0xbc,
  0x72, 0x93, 0x51, 0x3e, 0x13, 0xe2, 0xa7, 0xbc, 0xaf, 0xff, 0x27, 0xbd,
  0x56, 0x6f, 0x03, 0xbc, 0x07, 0x21, 0x6d, 0xbc, 0x68, 0x28, 0x32, 0x3e,
  0x00, 0x00, 0x00, 0x00, 0xbd, 0x40, 0x68, 0x3e, 0xff, 0x53, 0x34, 0xbd,
  0xae, 0xe7, 0x51, 0x3e, 0x00, 0x00, 0x00, 0x00, 0xbc, 0x58, 0x3b, 0x3e,
  0x00, 0x00, 0x00, 0x00, 0x40, 0xfb, 0xcc, 0xbc, 0xb4, 0xf9, 0xff, 0xff,
  0xb8, 0xf9, 0xff, 0xff, 0x0f, 0x00, 0x00, 0x00, 0x4d, 0x4c, 0x49, 0x52,
  0x20, 0x43, 0x6f, 0x6e, 0x76, 0x65, 0x72, 0x74, 0x65, 0x64, 0x2e, 0x00,
  0x01, 0x00, 0x00, 0x00, 0x14, 0x00, 0x00, 0x00, 0x00, 0x00, 0x0e, 0x00,
  0x18, 0x00, 0x14, 0x00, 0x10, 0x00, 0x0c, 0x00, 0x08, 0x00, 0x04, 0x00,
  0x0e, 0x00, 0x00, 0x00, 0x14, 0x00, 0x00, 0x00, 0x1c, 0x00, 0x00, 0x00,
  0x10, 0x01, 0x00, 0x00, 0x14, 0x01, 0x00, 0x00, 0x18, 0x01, 0x00, 0x00,
  0x04, 0x00, 0x00, 0x00, 0x6d, 0x61, 0x69, 0x6e, 0x00, 0x00, 0x00, 0x00,
  0x04, 0x00, 0x00, 0x00, 0xb8, 0x00, 0x00, 0x00, 0x70, 0x00, 0x00, 0x00,
  0x38, 0x00, 0x00, 0x00, 0x04, 0x00, 0x00, 0x00, 0x66, 0xff, 0xff, 0xff,
  0x10, 0x00, 0x00, 0x00, 0x00, 0x00, 0x00, 0x08, 0x0c, 0x00, 0x00, 0x00,
  0x10, 0x00, 0x00, 0x00, 0x34, 0xfa, 0xff, 0xff, 0x01, 0x00, 0x00, 0x00,
  0x0c, 0x00, 0x00, 0x00, 0x03, 0x00, 0x00, 0x00, 0x0b, 0x00, 0x00, 0x00,
  0x08, 0x00, 0x00, 0x00, 0x03, 0x00, 0x00, 0x00, 0x96, 0xff, 0xff, 0xff,
  0x10, 0x00, 0x00, 0x00, 0x00, 0x00, 0x00, 0x08, 0x10, 0x00, 0x00, 0x00,
  0x14, 0x00, 0x00, 0x00, 0x86, 0xff, 0xff, 0xff, 0x00, 0x00, 0x00, 0x01,
  0x01, 0x00, 0x00, 0x00, 0x0b, 0x00, 0x00, 0x00, 0x03, 0x00, 0x00, 0x00,
  0x0a, 0x00, 0x00, 0x00, 0x07, 0x00, 0x00, 0x00, 0x02, 0x00, 0x00, 0x00,
  0xca, 0xff, 0xff, 0xff, 0x10, 0x00, 0x00, 0x00, 0x00, 0x00, 0x00, 0x08,
  0x10, 0x00, 0x00, 0x00, 0x14, 0x00, 0x00, 0x00, 0xba, 0xff, 0xff, 0xff,
  0x00, 0x00, 0x00, 0x01, 0x01, 0x00, 0x00, 0x00, 0x0a, 0x00, 0x00, 0x00,
  0x03, 0x00, 0x00, 0x00, 0x09, 0x00, 0x00, 0x00, 0x06, 0x00, 0x00, 0x00,
  0x01, 0x00, 0x00, 0x00, 0x00, 0x00, 0x0e, 0x00, 0x16, 0x00, 0x00, 0x00,
  0x10, 0x00, 0x0c, 0x00, 0x0b, 0x00, 0x04, 0x00, 0x0e, 0x00, 0x00, 0x00,
  0x18, 0x00, 0x00, 0x00, 0x00, 0x00, 0x00, 0x08, 0x18, 0x00, 0x00, 0x00,
  0x1c, 0x00, 0x00, 0x00, 0x00, 0x00, 0x06, 0x00, 0x08, 0x00, 0x07, 0x00,
  0x06, 0x00, 0x00, 0x00, 0x00, 0x00, 0x00, 0x01, 0x01, 0x00, 0x00, 0x00,
  0x09, 0x00, 0x00, 0x00, 0x03, 0x00, 0x00, 0x00, 0x00, 0x00, 0x00, 0x00,
  0x05, 0x00, 0x00, 0x00, 0x04, 0x00, 0x00, 0x00, 0x01, 0x00, 0x00, 0x00,
  0x0c, 0x00, 0x00, 0x00, 0x01, 0x00, 0x00, 0x00, 0x00, 0x00, 0x00, 0x00,
  0x0d, 0x00, 0x00, 0x00, 0xc0, 0x04, 0x00, 0x00, 0x50, 0x04, 0x00, 0x00,
  0xe0, 0x03, 0x00, 0x00, 0x88, 0x03, 0x00, 0x00, 0x34, 0x03, 0x00, 0x00,
  0xec, 0x02, 0x00, 0x00, 0xa0, 0x02, 0x00, 0x00, 0x54, 0x02, 0x00, 0x00,
  0x08, 0x02, 0x00, 0x00, 0x80, 0x01, 0x00, 0x00, 0xf0, 0x00, 0x00, 0x00,
  0x60, 0x00, 0x00, 0x00, 0x04, 0x00, 0x00, 0x00, 0x8a, 0xfb, 0xff, 0xff,
  0x00, 0x00, 0x00, 0x01, 0x14, 0x00, 0x00, 0x00, 0x1c, 0x00, 0x00, 0x00,
  0x1c, 0x00, 0x00, 0x00, 0x0d, 0x00, 0x00, 0x00, 0x34, 0x00, 0x00, 0x00,
  0x02, 0x00, 0x00, 0x00, 0xff, 0xff, 0xff, 0xff, 0x01, 0x00, 0x00, 0x00,
  0x74, 0xfb, 0xff, 0xff, 0x19, 0x00, 0x00, 0x00, 0x53, 0x74, 0x61, 0x74,
  0x65, 0x66, 0x75, 0x6c, 0x50, 0x61, 0x72, 0x74, 0x69, 0x74, 0x69, 0x6f,
  0x6e, 0x65, 0x64, 0x43, 0x61, 0x6c, 0x6c, 0x3a, 0x30, 0x00, 0x00, 0x00,
  0x02, 0x00, 0x00, 0x00, 0x01, 0x00, 0x00, 0x00, 0x01, 0x00, 0x00, 0x00,
  0xe2, 0xfb, 0xff, 0xff, 0x00, 0x00, 0x00, 0x01, 0x14, 0x00, 0x00, 0x00,
  0x1c, 0x00, 0x00, 0x00, 0x1c, 0x00, 0x00, 0x00, 0x0c, 0x00, 0x00, 0x00,
  0x68, 0x00, 0x00, 0x00, 0x02, 0x00, 0x00, 0x00, 0xff, 0xff, 0xff, 0xff,
  0x08, 0x00, 0x00, 0x00, 0xcc, 0xfb, 0xff, 0xff, 0x4c, 0x00, 0x00, 0x00,
  0x73, 0x65, 0x71, 0x75, 0x65, 0x6e, 0x74, 0x69, 0x61, 0x6c, 0x2f, 0x64,
  0x65, 0x6e, 0x73, 0x65, 0x5f, 0x32, 0x2f, 0x4d, 0x61, 0x74, 0x4d, 0x75,
  0x6c, 0x3b, 0x73, 0x65, 0x71, 0x75, 0x65, 0x6e, 0x74, 0x69, 0x61, 0x6c,
  0x2f, 0x64, 0x65, 0x6e, 0x73, 0x65, 0x5f, 0x32, 0x2f, 0x52, 0x65, 0x6c,
  0x75, 0x3b, 0x73, 0x65, 0x71, 0x75, 0x65, 0x6e, 0x74, 0x69, 0x61, 0x6c,
  0x2f, 0x64, 0x65, 0x6e, 0x73, 0x65, 0x5f, 0x32, 0x2f, 0x42, 0x69, 0x61,
  0x73, 0x41, 0x64, 0x64, 0x00, 0x00, 0x00, 0x00, 0x02, 0x00, 0x00, 0x00,
  0x01, 0x00, 0x00, 0x00, 0x08, 0x00, 0x00, 0x00, 0x6e, 0xfc, 0xff, 0xff,
  0x00, 0x00, 0x00, 0x01, 0x14, 0x00, 0x00, 0x00, 0x1c, 0x00, 0x00, 0x00,
  0x1c, 0x00, 0x00, 0x00, 0x0b, 0x00, 0x00, 0x00, 0x68, 0x00, 0x00, 0x00,
  0x02, 0x00, 0x00, 0x00, 0xff, 0xff, 0xff, 0xff, 0x10, 0x00, 0x00, 0x00,
  0x58, 0xfc, 0xff, 0xff, 0x4c, 0x00, 0x00, 0x00, 0x73, 0x65, 0x71, 0x75,
  0x65, 0x6e, 0x74, 0x69, 0x61, 0x6c, 0x2f, 0x64, 0x65, 0x6e, 0x73, 0x65,
  0x5f, 0x31, 0x2f, 0x4d, 0x61, 0x74, 0x4d, 0x75, 0x6c, 0x3b, 0x73, 0x65,
  0x71, 0x75, 0x65, 0x6e, 0x74, 0x69, 0x61, 0x6c, 0x2f, 0x64, 0x65, 0x6e,
  0x73, 0x65, 0x5f, 0x31, 0x2f, 0x52, 0x65, 0x6c, 0x75, 0x3b, 0x73, 0x65,
  0x71, 0x75, 0x65, 0x6e, 0x74, 0x69, 0x61, 0x6c, 0x2f, 0x64, 0x65, 0x6e,
  0x73, 0x65, 0x5f, 0x31, 0x2f, 0x42, 0x69, 0x61, 0x73, 0x41, 0x64, 0x64,
  0x00, 0x00, 0x00, 0x00, 0x02, 0x00, 0x00, 0x00, 0x01, 0x00, 0x00, 0x00,
  0x10, 0x00, 0x00, 0x00, 0xfa, 0xfc, 0xff, 0xff, 0x00, 0x00, 0x00, 0x01,
  0x14, 0x00, 0x00, 0x00, 0x1c, 0x00, 0x00, 0x00, 0x1c, 0x00, 0x00, 0x00,
  0x0a, 0x00, 0x00, 0x00, 0x60, 0x00, 0x00, 0x00, 0x02, 0x00, 0x00, 0x00,
  0xff, 0xff, 0xff, 0xff, 0x20, 0x00, 0x00, 0x00, 0xe4, 0xfc, 0xff, 0xff,
  0x46, 0x00, 0x00, 0x00, 0x73, 0x65, 0x71, 0x75, 0x65, 0x6e, 0x74, 0x69,
  0x61, 0x6c, 0x2f, 0x64, 0x65, 0x6e, 0x73, 0x65, 0x2f, 0x4d, 0x61, 0x74,
  0x4d, 0x75, 0x6c, 0x3b, 0x73, 0x65, 0x71, 0x75, 0x65, 0x6e, 0x74, 0x69,
  0x61, 0x6c, 0x2f, 0x64, 0x65, 0x6e, 0x73, 0x65, 0x2f, 0x52, 0x65, 0x6c,
  0x75, 0x3b, 0x73, 0x65, 0x71, 0x75, 0x65, 0x6e, 0x74, 0x69, 0x61, 0x6c,
  0x2f, 0x64, 0x65, 0x6e, 0x73, 0x65, 0x2f, 0x42, 0x69, 0x61, 0x73, 0x41,
  0x64, 0x64, 0x00, 0x00, 0x02, 0x00, 0x00, 0x00, 0x01, 0x00, 0x00, 0x00,
  0x20, 0x00, 0x00, 0x00, 0xea, 0xfd, 0xff, 0xff, 0x00, 0x00, 0x00, 0x01,
  0x10, 0x00, 0x00, 0x00, 0x10, 0x00, 0x00, 0x00, 0x09, 0x00, 0x00, 0x00,
  0x28, 0x00, 0x00, 0x00, 0x58, 0xfd, 0xff, 0xff, 0x19, 0x00, 0x00, 0x00,
  0x73, 0x65, 0x71, 0x75, 0x65, 0x6e, 0x74, 0x69, 0x61, 0x6c, 0x2f, 0x64,
  0x65, 0x6e, 0x73, 0x65, 0x5f, 0x33, 0x2f, 0x4d, 0x61, 0x74, 0x4d, 0x75,
  0x6c, 0x00, 0x00, 0x00, 0x02, 0x00, 0x00, 0x00, 0x01, 0x00, 0x00, 0x00,
  0x08, 0x00, 0x00, 0x00, 0x32, 0xfe, 0xff, 0xff, 0x00, 0x00, 0x00, 0x01,
  0x10, 0x00, 0x00, 0x00, 0x10, 0x00, 0x00, 0x00, 0x08, 0x00, 0x00, 0x00,
  0x28, 0x00, 0x00, 0x00, 0xa0, 0xfd, 0xff, 0xff, 0x19, 0x00, 0x00, 0x00,
  0x73, 0x65, 0x71, 0x75, 0x65, 0x6e, 0x74, 0x69, 0x61, 0x6c, 0x2f, 0x64,
  0x65, 0x6e, 0x73, 0x65, 0x5f, 0x32, 0x2f, 0x4d, 0x61, 0x74, 0x4d, 0x75,
  0x6c, 0x00, 0x00, 0x00, 0x02, 0x00, 0x00, 0x00, 0x08, 0x00, 0x00, 0x00,
  0x10, 0x00, 0x00, 0x00, 0x7a, 0xfe, 0xff, 0xff, 0x00, 0x00, 0x00, 0x01,
  0x10, 0x00, 0x00, 0x00, 0x10, 0x00, 0x00, 0x00, 0x07, 0x00, 0x00, 0x00,
  0x28, 0x00, 0x00, 0x00, 0xe8, 0xfd, 0xff, 0xff, 0x19, 0x00, 0x00, 0x00,
  0x73, 0x65, 0x71, 0x75, 0x65, 0x6e, 0x74, 0x69, 0x61, 0x6c, 0x2f, 0x64,
  0x65, 0x6e, 0x73, 0x65, 0x5f, 0x31, 0x2f, 0x4d, 0x61, 0x74, 0x4d, 0x75,
  0x6c, 0x00, 0x00, 0x00, 0x02, 0x00, 0x00, 0x00, 0x10, 0x00, 0x00, 0x00,
  0x20, 0x00, 0x00, 0x00, 0xc2, 0xfe, 0xff, 0xff, 0x00, 0x00, 0x00, 0x01,
  0x10, 0x00, 0x00, 0x00, 0x10, 0x00, 0x00, 0x00, 0x06, 0x00, 0x00, 0x00,
  0x24, 0x00, 0x00, 0x00, 0x30, 0xfe, 0xff, 0xff, 0x17, 0x00, 0x00, 0x00,
  0x73, 0x65, 0x71, 0x75, 0x65, 0x6e, 0x74, 0x69, 0x61, 0x6c, 0x2f, 0x64,
  0x65, 0x6e, 0x73, 0x65, 0x2f, 0x4d, 0x61, 0x74, 0x4d, 0x75, 0x6c, 0x00,
  0x02, 0x00, 0x00, 0x00, 0x20, 0x00, 0x00, 0x00, 0x03, 0x00, 0x00, 0x00,
  0x06, 0xff, 0xff, 0xff, 0x00, 0x00, 0x00, 0x01, 0x10, 0x00, 0x00, 0x00,
  0x10, 0x00, 0x00, 0x00, 0x05, 0x00, 0x00, 0x00, 0x34, 0x00, 0x00, 0x00,
  0x74, 0xfe, 0xff, 0xff, 0x27, 0x00, 0x00, 0x00, 0x73, 0x65, 0x71, 0x75,
  0x65, 0x6e, 0x74, 0x69, 0x61, 0x6c, 0x2f, 0x64, 0x65, 0x6e, 0x73, 0x65,
  0x2f, 0x42, 0x69, 0x61, 0x73, 0x41, 0x64, 0x64, 0x2f, 0x52, 0x65, 0x61,
  0x64, 0x56, 0x61, 0x72, 0x69, 0x61, 0x62, 0x6c, 0x65, 0x4f, 0x70, 0x00,
  0x01, 0x00, 0x00, 0x00, 0x20, 0x00, 0x00, 0x00, 0x56, 0xff, 0xff, 0xff,
  0x00, 0x00, 0x00, 0x01, 0x10, 0x00, 0x00, 0x00, 0x10, 0x00, 0x00, 0x00,
  0x04, 0x00, 0x00, 0x00, 0x38, 0x00, 0x00, 0x00, 0xc4, 0xfe, 0xff, 0xff,
  0x29, 0x00, 0x00, 0x00, 0x73, 0x65, 0x71, 0x75, 0x65, 0x6e, 0x74, 0x69,
  0x61, 0x6c, 0x2f, 0x64, 0x65, 0x6e, 0x73, 0x65, 0x5f, 0x33, 0x2f, 0x42,
  0x69, 0x61, 0x73, 0x41, 0x64, 0x64, 0x2f, 0x52, 0x65, 0x61, 0x64, 0x56,
  0x61, 0x72, 0x69, 0x61, 0x62, 0x6c, 0x65, 0x4f, 0x70, 0x00, 0x00, 0x00,
  0x01, 0x00, 0x00, 0x00, 0x01, 0x00, 0x00, 0x00, 0xaa, 0xff, 0xff, 0xff,
  0x00, 0x00, 0x00, 0x01, 0x10, 0x00, 0x00, 0x00, 0x10, 0x00, 0x00, 0x00,
  0x03, 0x00, 0x00, 0x00, 0x38, 0x00, 0x00, 0x00, 0x18, 0xff, 0xff, 0xff,
  0x29, 0x00, 0x00, 0x00, 0x73, 0x65, 0x71, 0x75, 0x65, 0x6e, 0x74, 0x69,
  0x61, 0x6c, 0x2f, 0x64, 0x65, 0x6e, 0x73, 0x65, 0x5f, 0x32, 0x2f, 0x42,
  0x69, 0x61, 0x73, 0x41, 0x64, 0x64, 0x2f, 0x52, 0x65, 0x61, 0x64, 0x56,
  0x61, 0x72, 0x69, 0x61, 0x62, 0x6c, 0x65, 0x4f, 0x70, 0x00, 0x00, 0x00,
  0x01, 0x00, 0x00, 0x00, 0x08, 0x00, 0x00, 0x00, 0x00, 0x00, 0x16, 0x00,
  0x18, 0x00, 0x14, 0x00, 0x00, 0x00, 0x10, 0x00, 0x0c, 0x00, 0x08, 0x00,
  0x00, 0x00, 0x00, 0x00, 0x00, 0x00, 0x07, 0x00, 0x16, 0x00, 0x00, 0x00,
  0x00, 0x00, 0x00, 0x01, 0x10, 0x00, 0x00, 0x00, 0x10, 0x00, 0x00, 0x00,
  0x02, 0x00, 0x00, 0x00, 0x38, 0x00, 0x00, 0x00, 0x84, 0xff, 0xff, 0xff,
  0x29, 0x00, 0x00, 0x00, 0x73, 0x65, 0x71, 0x75, 0x65, 0x6e, 0x74, 0x69,
  0x61, 0x6c, 0x2f, 0x64, 0x65, 0x6e, 0x73, 0x65, 0x5f, 0x31, 0x2f, 0x42,
  0x69, 0x61, 0x73, 0x41, 0x64, 0x64, 0x2f, 0x52, 0x65, 0x61, 0x64, 0x56,
  0x61, 0x72, 0x69, 0x61, 0x62, 0x6c, 0x65, 0x4f, 0x70, 0x00, 0x00, 0x00,
  0x01, 0x00, 0x00, 0x00, 0x10, 0x00, 0x00, 0x00, 0x00, 0x00, 0x16, 0x00,
  0x1c, 0x00, 0x18, 0x00, 0x00, 0x00, 0x14, 0x00, 0x10, 0x00, 0x0c, 0x00,
  0x00, 0x00, 0x00, 0x00, 0x08, 0x00, 0x07, 0x00, 0x16, 0x00, 0x00, 0x00,
  0x00, 0x00, 0x00, 0x01, 0x14, 0x00, 0x00, 0x00, 0x20, 0x00, 0x00, 0x00,
  0x20, 0x00, 0x00, 0x00, 0x01, 0x00, 0x00, 0x00, 0x3c, 0x00, 0x00, 0x00,
  0x02, 0x00, 0x00, 0x00, 0xff, 0xff, 0xff, 0xff, 0x03, 0x00, 0x00, 0x00,
  0x04, 0x00, 0x04, 0x00, 0x04, 0x00, 0x00, 0x00, 0x1d, 0x00, 0x00, 0x00,
  0x73, 0x65, 0x72, 0x76, 0x69, 0x6e, 0x67, 0x5f, 0x64, 0x65, 0x66, 0x61,
  0x75, 0x6c, 0x74, 0x5f, 0x64, 0x65, 0x6e, 0x73, 0x65, 0x5f, 0x69, 0x6e,
  0x70, 0x75, 0x74, 0x3a, 0x30, 0x00, 0x00, 0x00, 0x02, 0x00, 0x00, 0x00,
  0x01, 0x00, 0x00, 0x00, 0x03, 0x00, 0x00, 0x00, 0x01, 0x00, 0x00, 0x00,
  0x10, 0x00, 0x00, 0x00, 0x0c, 0x00, 0x0c, 0x00, 0x0b, 0x00, 0x00, 0x00,
  0x00, 0x00, 0x04, 0x00, 0x0c, 0x00, 0x00, 0x00, 0x09, 0x00, 0x00, 0x00,
  0x00, 0x00, 0x00, 0x09
};

const int .\models\model_quant_float32_len = 5488;
